<unk>	0
<s>	0
</s>	0
য়	-0
ার	-1
▁ক	-2
▁স	-3
▁ব	-4
▁প	-5
ের	-6
্র	-7
্য	-8
▁এ	-9
▁ম	-10
ান	-11
▁দ	-12
▁হ	-13
▁ন	-14
▁আ	-15
▁ত	-16
য়ে	-17
েন	-18
▁কর	-19
্ত	-20
▁অ	-21
▁জ	-22
কে	-23
তে	-24
িন	-25
▁র	-26
ায়	-27
ছে	-28
লে	-29
ড়	-30
▁য	-31
▁প্র	-32
▁শ	-33
টি	-34
র্	-35
বে	-36
▁বি	-37
▁গ	-38
াল	-39
িয়ে	-40
▁চ	-41
িক	-42
▁ভ	-43
াম	-44
াক	-45
িল	-46
স্	-47
▁থ	-48
ির	-49
▁পর	-50
াই	-51
্ব	-52
ুর	-53
িত	-54
াজ	-55
াত	-56
▁করে	-57
▁উ	-58
ন্	-59
্ষ	-60
দের	-61
াস	-62
▁এক	-63
▁দে	-64
▁ও	-65
▁সম	-66
▁খ	-67
▁তা	-68
ঙ্	-69
াব	-70
ুল	-71
▁ফ	-72
▁এই	-73
তি	-74
্যা	-75
▁বা	-76
য়া	-77
্ট	-78
▁নি	-79
েই	-80
েকে	-81
▁হয়ে	-82
ছেন	-83
োন	-84
লা	-85
ন্ত	-86
ছিল	-87
বার	-88
ঙ্গ	-89
▁থেকে	-90
ুন	-91
▁অন	-92
ক্ষ	-93
রা	-94
▁ঘ	-95
▁না	-96
▁ট	-97
▁জন	-98
য়ার	-99
েশ	-100
্প	-101
োগ	-102
▁ল	-103
স্থ	-104
েল	-105
ধ্য	-106
▁ই	-107
▁পার	-108
▁এব	-109
▁জান	-110
িনি	-111
ীর	-112
▁এবং	-113
দ্	-114
চ্	-115
কার	-116
াপ	-117
▁ড	-118
াশ	-119
না	-120
▁ছ	-121
▁আর	-122
িশ	-123
টা	-124
▁হয়	-125
▁সং	-126
▁ধ	-127
বা	-128
তা	-129
▁১	-130
িতে	-131
▁যে	-132
▁পরি	-133
নে	-134
্রী	-135
নি	-136
▁করা	-137
▁সা	-138
▁যা	-139
▁তার	-140
▁মু	-141
▁২	-142
ক্ত	-143
দ্ধ	-144
্রে	-145
ার্	-146
▁রাজ	-147
▁নিয়ে	-148
বি	-149
ওয়া	-150
ক্র	-151
রে	-152
▁অভ	-153
▁দু	-154
▁আম	-155
▁তাঁ	-156
▁হয়েছে	-157
ন্দ	-158
▁ব্য	-159
িস	-160
▁জন্য	-161
্ম	-162
▁দেখ	-163
▁সে	-164
্দ	-165
▁কি	-166
▁'	-167
▁তিনি	-168
নের	-169
▁হবে	-170
▁নে	-171
▁মা	-172
ঙ্গে	-173
ীয়	-174
ান্ত	-175
▁আপ	-176
্ড	-177
▁আগ	-178
ানে	-179
াড়	-180
দি	-181
েষ	-182
জে	-183
খন	-184
▁বল	-185
▁থাক	-186
ভা	-187
টে	-188
ষ্	-189
▁করতে	-190
▁বলে	-191
▁পা	-192
্ল	-193
ড়ে	-194
▁সু	-195
ৃত	-196
▁রা	-197
েক	-198
▁কার	-199
▁কা	-200
োর	-201
ুরু	-202
দিন	-203
▁কোন	-204
▁(	-205
▁কো	-206
▁আস	-207
ঞ্	-208
বর	-209
লের	-210
িয়	-211
▁দিয়ে	-212
▁উপ	-213
জন	-214
্ন	-215
ছিলেন	-216
স্ত	-217
▁এর	-218
্‍	-219
▁সঙ্গে	-220
▁স্ব	-221
মা	-222
▁ভার	-223
▁বাড়	-224
▁সি	-225
্যান	-226
▁সেই	-227
চ্ছে	-228
থা	-229
▁একটি	-230
▁বিশ	-231
মন	-232
ওয়ার	-233
মে	-234
▁মান	-235
নার	-236
োট	-237
স্ট	-238
পি	-239
▁অভি	-240
কা	-241
যোগ	-242
▁মধ্য	-243
িড	-244
▁রাজ্য	-245
▁সর	-246
▁প্রতি	-247
িন্ত	-248
▁রয়ে	-249
▁দিন	-250
ত্ত	-251
েন্দ	-252
▁তবে	-253
▁মুখ	-254
রি	-255
▁বেশ	-256
▁শু	-257
কের	-258
▁মে	-259
ছু	-260
সে	-261
াকা	-262
▁সব	-263
▁অব	-264
▁নির্	-265
▁ভারত	-266
পুর	-267
িকে	-268
▁পে	-269
▁গিয়ে	-270
ূল	-271
িম	-272
ুম	-273
▁যায়	-274
▁পারে	-275
▁সম্প	-276
পর	-277
াদ	-278
গুল	-279
ধান	-280
▁স্	-281
▁পড়	-282
েত	-283
▁শুরু	-284
▁করোন	-285
্স	-286
িন্তু	-287
▁ক্ষ	-288
প্র	-289
▁কাজ	-290
▁কিছু	-291
▁মধ্যে	-292
▁কিন্তু	-293
▁কম	-294
ারা	-295
▁রয়েছে	-296
বেন	-297
▁সময়	-298
▁বিজে	-299
▁বে	-300
োপ	-301
রের	-302
▁পুল	-303
দেশ	-304
▁কে	-305
ুষ	-306
োল	-307
▁তাঁর	-308
▁।	-309
িয়া	-310
▁ব্যব	-311
▁মহ	-312
▁করেন	-313
▁ঘট	-314
ৃণ	-315
াহ	-316
▁দেশ	-317
ুব	-318
▁টি	-319
▁পুলিশ	-320
ৃণম	-321
▁রাখ	-322
▁বছ	-323
াত্র	-324
মন্ত	-325
চার	-326
াতে	-327
ষ্ট	-328
▁তৃণম	-329
▁কোনও	-330
▁বির	-331
ভাবে	-332
▁নাম	-333
▁হল	-334
াতা	-335
▁সরকার	-336
▁কারণ	-337
াঁ	-338
র্থ	-339
▁এখন	-340
য়ের	-341
ুদ্ধ	-342
▁মানুষ	-343
▁আরও	-344
▁কথা	-345
্যাল	-346
ম্ব	-347
াকে	-348
িজ	-349
টার	-350
হার	-351
▁করার	-352
▁জানিয়ে	-353
▁গ্র	-354
ধিক	-355
▁নিজ	-356
▁আজ	-357
তো	-358
▁অনু	-359
ঞ্চ	-360
▁২০	-361
▁লা	-362
▁অনেক	-363
ানের	-364
▁৩	-365
▁দেওয়া	-366
▁এমন	-367
▁আই	-368
ানো	-369
▁দেখা	-370
▁হতে	-371
থম	-372
ন্ধ	-373
খানে	-374
তার	-375
▁কল	-376
▁ভাল	-377
▁ছিল	-378
াজার	-379
িব	-380
ুক্ত	-381
োক	-382
াদের	-383
র্ত	-384
▁অভিযোগ	-385
▁এল	-386
বাদ	-387
▁চল	-388
an	-389
▁মৃত	-390
▁সাম	-391
▁আপনার	-392
▁কেন্দ	-393
▁আগে	-394
▁সহ	-395
ীব	-396
▁ওই	-397
িং	-398
▁হচ্ছে	-399
মন্ত্রী	-400
▁বৃ	-401
▁কর্ম	-402
▁ভা	-403
▁স্বা	-404
োধ	-405
▁করোনা	-406
ূর্	-407
▁বলেন	-408
োর্	-409
▁তৈ	-410
ংশ	-411
▁খবর	-412
্যন্ত	-413
▁তাদের	-414
গ্র	-415
▁ব্যা	-416
ভাব	-417
▁প্রত	-418
ষণ	-419
তুন	-420
▁গত	-421
▁যদি	-422
প্ত	-423
স্থিত	-424
▁প্রশ	-425
মান	-426
▁নতুন	-427
▁দিল	-428
াড়া	-429
▁বিশ্ব	-430
▁বেশি	-431
্যু	-432
ীদের	-433
▁নয়	-434
▁উত্ত	-435
ধ্যায়	-436
▁এবার	-437
▁তাই	-438
▁টাকা	-439
▁রে	-440
▁প্রথম	-441
িপ	-442
▁অন্য	-443
থে	-444
্ঞ	-445
▁প্রক	-446
িট	-447
োপা	-448
▁বিষ	-449
হা	-450
▁করেছেন	-451
াশি	-452
▁মো	-453
▁বাং	-454
▁৫	-455
ষ্ঠ	-456
েলে	-457
▁পারেন	-458
▁আক্র	-459
স্ক	-460
ুলে	-461
ড়া	-462
লেন	-463
▁করেছে	-464
▁বিজেপি	-465
িও	-466
▁নিয়	-467
্‍স	-468
টের	-469
▁দল	-470
▁৪	-471
ুদ্ধে	-472
ঞ্জ	-473
▁পুর	-474
▁দাব	-475
ত্র	-476
োম	-477
▁সমস	-478
টির	-479
ন্ত্র	-480
খে	-481
▁কলক	-482
▁তৃণমূল	-483
োপাধ্যায়	-484
ল্প	-485
▁তৈরি	-486
ীন	-487
▁ক্র	-488
চিত	-489
ন্ড	-490
রণ	-491
▁বু	-492
▁ঠ	-493
▁ঝ	-494
ানা	-495
ভার	-496
▁চাল	-497
▁স্ট	-498
in	-499
▁পাশ	-500
▁বছর	-501
▁বিরুদ্ধে	-502
েলা	-503
▁গো	-504
স্থা	-505
্যাক	-506
▁জানা	-507
▁শেষ	-508
▁চলে	-509
েন্ট	-510
▁আল	-511
▁যোগ	-512
▁উঠ	-513
on	-514
▁হাস	-515
কাল	-516
লেও	-517
▁ঘো	-518
▁স্থ	-519
চে	-520
িসে	-521
▁পর্যন্ত	-522
▁বার	-523
র্ক	-524
্টা	-525
মণ	-526
▁অভিন	-527
▁করুন	-528
▁লক্ষ	-529
▁কী	-530
দা	-531
▁কাছে	-532
▁গিয়েছে	-533
িকা	-534
ুজ	-535
▁মি	-536
িন্দ	-537
▁এটি	-538
মতা	-539
ণ্ড	-540
ওয়	-541
িন্ন	-542
ামী	-543
▁বিশেষ	-544
র্ম	-545
▁মুখ্য	-546
শ্	-547
▁পড়ে	-548
ছি	-549
য়েক	-550
ুক	-551
at	-552
ার্থ	-553
সের	-554
ar	-555
ারে	-556
দিকে	-557
স্থ্য	-558
ক্ষা	-559
▁সূ	-560
ক্তি	-561
০০	-562
।'	-563
▁ট্র	-564
▁বন্ধ	-565
াস্ত	-566
▁এসে	-567
▁মতো	-568
বর্ত	-569
ঁচ	-570
▁পরে	-571
ঙ্ক	-572
▁থাকে	-573
▁দাবি	-574
জি	-575
▁:	-576
বাচ	-577
▁নেই	-578
▁ম্যা	-579
▁দিতে	-580
ংগ	-581
িক্ষ	-582
আই	-583
লার	-584
▁খুব	-585
▁কয়েক	-586
▁বিভ	-587
▁আক্রান্ত	-588
র্শ	-589
েনে	-590
▁হাজার	-591
ড়িয়ে	-592
ধার	-593
সি	-594
▁ছবি	-595
▁বড়	-596
▁ব্যবহার	-597
ীরা	-598
জ্ঞ	-599
▁মনে	-600
▁প্রধান	-601
▁হয়েছিল	-602
▁ভোট	-603
▁S	-604
সা	-605
▁লি	-606
▁দুর্	-607
দে	-608
▁আশ	-609
▁দুই	-610
য়ো	-611
▁শর	-612
▁দ্ব	-613
▁ঘটনা	-614
▁এলাক	-615
▁সংক্র	-616
▁স্বাস্থ্য	-617
▁লে	-618
▁ফলে	-619
নী	-620
▁-	-621
▁তারা	-622
▁হার	-623
েত্রে	-624
▁বৈ	-625
ুত	-626
▁বন্দ	-627
ূর্ণ	-628
োভ	-629
▁বিভিন্ন	-630
▁ভালো	-631
ংগ্রে	-632
▁নিজের	-633
▁আমাদের	-634
▁জল	-635
▁হাসপ	-636
▁পরিবার	-637
▁৬	-638
▁লাগ	-639
▁পরিস্থিত	-640
▁ধর	-641
▁যাবে	-642
▁আপনি	-643
▁পো	-644
▁A	-645
ম্বর	-646
er	-647
▁সংখ	-648
েছে	-649
ালের	-650
▁ফের	-651
গুলি	-652
কি	-653
▁শরীর	-654
▁শুভ	-655
▁কংগ্রে	-656
▁রোগ	-657
্যে	-658
▁তিন	-659
মিত	-660
ায়ক	-661
তির	-662
ংস	-663
ীপ	-664
তিক	-665
▁ইউ	-666
▁সমস্যা	-667
▁ডে	-668
▁মাস	-669
দন্ত	-670
▁আমরা	-671
্যাম	-672
▁ভাই	-673
▁প্রায়	-674
▁ধরে	-675
ন্ন	-676
▁দলের	-677
▁উত্তর	-678
র্ব	-679
▁তর	-680
▁অফ	-681
ষ্টি	-682
▁নির্বাচ	-683
নায়	-684
▁বিজেপ	-685
▁জীব	-686
মের	-687
▁অর্থ	-688
ুঁ	-689
ত্ব	-690
▁তো	-691
ানোর	-692
▁প্রে	-693
▁সম্	-694
▁স্প	-695
দন	-696
▁সাথে	-697
ারের	-698
▁চিক	-699
্যাপ	-700
ধু	-701
্যান্ড	-702
র্ষ	-703
্লে	-704
িয়ার	-705
গত	-706
িরে	-707
▁প্রকাশ	-708
▁জানিয়েছেন	-709
▁আদ	-710
টাই	-711
▁ব্র	-712
▁কারণে	-713
▁একা	-714
▁৭	-715
▁পাল	-716
ায়ী	-717
▁আছে	-718
▁ছে	-719
শ্চ	-720
ব্য	-721
মাণ	-722
▁2	-723
▁"	-724
▁চিকিত	-725
যুক্ত	-726
ারি	-727
▁ছিলেন	-728
▁পড়ুন	-729
এর	-730
▁বাংলা	-731
▁থেকেই	-732
▁আবার	-733
▁দাম	-734
াপাশি	-735
▁এদিন	-736
▁কলকাতা	-737
▁জেল	-738
স্ব	-739
▁চে	-740
তেই	-741
▁পাশাপাশি	-742
▁তাঁদের	-743
▁পেয়ে	-744
▁চিকিত্‍স	-745
▁ভারতীয়	-746
াক্ত	-747
তিম	-748
ধিকার	-749
al	-750
▁বাস	-751
▁দূ	-752
ক্ষে	-753
ডে	-754
▁অপ	-755
▁মুখ্যমন্ত্রী	-756
িউ	-757
ুই	-758
▁সিদ্ধ	-759
▁পরী	-760
পতি	-761
ায়ের	-762
▁হলে	-763
▁অস	-764
ুণ	-765
▁বিধ	-766
▁শিক্ষ	-767
▁স্ক	-768
বাস	-769
▁পৌ	-770
▁জানান	-771
▁রাজ্যের	-772
▁হওয়ার	-773
▁হাত	-774
▁B	-775
মিক	-776
▁মমতা	-777
▁কেন্দ্র	-778
▁কেন	-779
▁দি	-780
ন্ট	-781
▁সদ	-782
▁সংখ্যা	-783
▁হিসে	-784
▁তদন্ত	-785
বেশ	-786
▁গ্রাম	-787
ানি	-788
্যাস	-789
ায়গ	-790
▁বন্দ্য	-791
▁৮	-792
▁১০	-793
োজ	-794
▁নেত	-795
▁ঢ	-796
▁মাধ্য	-797
কর	-798
্রীয়	-799
▁আমি	-800
▁মৃত্যু	-801
▁তুলে	-802
▁দেশের	-803
▁সমস্ত	-804
▁বন্দ্যোপাধ্যায়	-805
▁C	-806
ধারণ	-807
▁পি	-808
▁P	-809
▁চা	-810
াত্‍	-811
এস	-812
▁মানুষের	-813
▁মন	-814
স্য	-815
▁দিকে	-816
▁ভিড	-817
▁জেলা	-818
▁বিষয়	-819
es	-820
▁বিজেপির	-821
▁মন্ত	-822
▁ভারতের	-823
▁তাঁকে	-824
াগ	-825
▁দেয়	-826
চ্ছেন	-827
▁সেখানে	-828
ুখ	-829
▁নেতা	-830
▁নির	-831
্যার	-832
▁আন	-833
▁প্রার্থ	-834
▁গুরু	-835
▁উদ	-836
▁মহিল	-837
াবেন	-838
▁তৃণমূ	-839
▁হিসেবে	-840
▁পদ	-841
▁প্রা	-842
▁সত	-843
াউ	-844
▁ঠিক	-845
▁বহ	-846
ষ্ট্র	-847
▁পাওয়া	-848
লায়	-849
▁কেন্দ্রীয়	-850
▁কৃ	-851
▁ক্ষেত্রে	-852
▁এখনও	-853
লি	-854
থায়	-855
▁প্রস	-856
▁দাঁ	-857
ঙ্গল	-858
মি	-859
ষণা	-860
য়োজন	-861
▁সিদ্ধান্ত	-862
▁আত	-863
রম	-864
ew	-865
▁স্থান	-866
সভা	-867
▁জায়গ	-868
েরা	-869
▁থাকবে	-870
্টি	-871
োর্ট	-872
▁চার	-873
▁সাহা	-874
▁উল	-875
াবে	-876
▁দক্ষ	-877
েরে	-878
▁মিল	-879
▁একটা	-880
চ্চ	-881
▁২৪	-882
▁ডি	-883
▁সভ	-884
▁নির্দেশ	-885
▁যাচ্ছে	-886
িকার	-887
ুড়	-888
▁জাত	-889
গে	-890
শন	-891
en	-892
ভব	-893
▁৯	-894
ত্‍	-895
েষ্টা	-896
াবার	-897
▁ভে	-898
▁ক্রিকে	-899
▁মাল	-900
তের	-901
▁সো	-902
▁বলা	-903
ুট	-904
সব	-905
▁সংক্রমণ	-906
▁তুল	-907
▁কোভ	-908
ছাড়া	-909
▁অধ	-910
▁তাল	-911
▁উপর	-912
িটি	-913
▁মাম	-914
ট্র	-915
▁আগামী	-916
▁ভাবে	-917
▁দেওয়ার	-918
হলে	-919
▁শহ	-920
▁দেখে	-921
▁দেন	-922
াইক	-923
▁শে	-924
ফল	-925
▁খেল	-926
▁বৈঠ	-927
▁হাতে	-928
▁বাড়িতে	-929
▁বিধান	-930
▁নিন	-931
িণ	-932
▁তখন	-933
▁মিড	-934
▁গ্রে	-935
▁বয়	-936
▁T	-937
ধা	-938
▁বস	-939
ews	-940
▁ফে	-941
▁করছে	-942
ষে	-943
ায়ে	-944
▁শতা	-945
▁ত্ব	-946
▁করবেন	-947
গর	-948
▁এলাকায়	-949
কদের	-950
▁কাল	-951
▁টে	-952
▁R	-953
▁চাই	-954
▁একাধিক	-955
▁ভাইর	-956
▁কেউ	-957
▁সক	-958
)।	-959
িস্ত	-960
চ্ছ	-961
▁করছেন	-962
ুয়ার	-963
বল	-964
▁এরপর	-965
▁করবে	-966
াট	-967
▁তাঁরা	-968
▁রাজ্যে	-969
▁যেতে	-970
▁মার্	-971
ফে	-972
▁পান	-973
▁সেন	-974
▁সংবাদ	-975
▁বছরের	-976
▁M	-977
▁ভিডিও	-978
▁সাহায	-979
ুশ	-980
িনে	-981
▁শিশ	-982
▁মোট	-983
▁রান	-984
োচ	-985
▁আব	-986
▁ম্যাচ	-987
▁সাধারণ	-988
▁রো	-989
▁থান	-990
▁পৌঁ	-991
▁গাড়	-992
▁সর্ব	-993
দ্র	-994
বেদন	-995
্রীর	-996
▁নেওয়া	-997
▁অবশ	-998
▁তাহলে	-999
▁চেষ্টা	-1000
▁একই	-1001
▁শতাংশ	-1002
▁দফ	-1003
শ্চিম	-1004
▁আমার	-1005
▁ফল	-1006
▁সিং	-1007
াইল	-1008
▁সালে	-1009
▁মাত্র	-1010
তম	-1011
▁জয়	-1012
ীর্	-1013
▁দক্ষিণ	-1014
ক্স	-1015
কম	-1016
▁স্ত	-1017
াতালে	-1018
▁কোনো	-1019
▁শী	-1020
or	-1021
ডি	-1022
▁তথ	-1023
▁বাড়ি	-1024
▁রেখে	-1025
ৈতিক	-1026
▁নজ	-1027
সম	-1028
খান	-1029
▁ফোন	-1030
▁কোভিড	-1031
▁আট	-1032
▁উদ্ধ	-1033
▁সম্পর্ক	-1034
▁খা	-1035
▁হাসপাতালে	-1036
পিএ	-1037
পার	-1038
লেই	-1039
সর	-1040
ত্যা	-1041
▁সম্পর্	-1042
ালি	-1043
▁দিল্ল	-1044
▁পাঠ	-1045
▁সামনে	-1046
▁যদিও	-1047
▁গেল	-1048
াকি	-1049
▁খো	-1050
র্জ	-1051
▁যার	-1052
▁শুধু	-1053
্বে	-1054
নৈতিক	-1055
▁তৃণমূলের	-1056
▁সদস্য	-1057
▁দিয়েছেন	-1058
▁মাধ্যমে	-1059
▁যুব	-1060
▁বাই	-1061
▁হন	-1062
▁ছাড়	-1063
▁প্রশ্ন	-1064
▁ঘোষণা	-1065
▁বের	-1066
▁২০২	-1067
▁গেছে	-1068
▁মূল	-1069
বর্তী	-1070
▁হয়নি	-1071
▁লোক	-1072
▁,	-1073
্লা	-1074
▁তথ্য	-1075
গ্রাম	-1076
▁কংগ্রেস	-1077
হণ	-1078
াইন	-1079
▁অবস্থ	-1080
▁বাব	-1081
▁ছাড়া	-1082
▁পশ্চিম	-1083
▁1	-1084
▁সম্প্র	-1085
▁থাকা	-1086
▁N	-1087
▁দেশে	-1088
▁সভাপ	-1089
গুলো	-1090
▁সৌ	-1091
▁শিব	-1092
▁করেছিলেন	-1093
▁গুল	-1094
▁হয়েছেন	-1095
▁২০১	-1096
▁দেব	-1097
▁বিপ	-1098
▁পুজ	-1099
▁অনুষ্ঠ	-1100
▁তে	-1101
▁নিতে	-1102
▁তারপর	-1103
▁বর্ত	-1104
▁এখানে	-1105
▁দিয়েছে	-1106
▁বিষয়ে	-1107
ূর্ত	-1108
কালে	-1109
▁১৯	-1110
▁দ্বিত	-1111
▁রায়	-1112
▁বেড়ে	-1113
দার	-1114
▁ক্ল	-1115
is	-1116
্ধ	-1117
▁কোটি	-1118
কারী	-1119
তিমধ্য	-1120
it	-1121
▁এছাড়া	-1122
▁পরিবারের	-1123
▁যান	-1124
দী	-1125
িতা	-1126
▁একজন	-1127
▁খে	-1128
ত্রে	-1129
▁সাহায্য	-1130
িনা	-1131
▁কৃষ	-1132
▁ব্ল	-1133
▁অনেকে	-1134
▁ইতিমধ্য	-1135
▁স্থানীয়	-1136
▁লড়	-1137
▁সরকারের	-1138
োনা	-1139
্লেখ	-1140
▁উদ্	-1141
▁মত	-1142
▁সোম	-1143
▁রাখতে	-1144
▁১২	-1145
নিক	-1146
ুটি	-1147
▁তাকে	-1148
্যাট	-1149
▁শিল	-1150
▁চলেছে	-1151
▁অংশ	-1152
ন্ত্রণ	-1153
▁দ্বিতীয়	-1154
াক্ষ	-1155
িয়ায়	-1156
▁করলেন	-1157
▁বলেছেন	-1158
▁অভিনেত	-1159
▁যখন	-1160
▁মিশ	-1161
▁বৃদ্ধ	-1162
..	-1163
িত্ব	-1164
▁নিজে	-1165
▁বিরোধ	-1166
▁উল্লেখ	-1167
▁স্ম	-1168
▁বদ	-1169
et	-1170
▁একে	-1171
েন্দ্র	-1172
▁গুরুত্ব	-1173
▁উদ্ধার	-1174
▁সভাপতি	-1175
যায়ী	-1176
▁প্রয়োজন	-1177
হত	-1178
েলের	-1179
▁সোশ	-1180
▁রিপ	-1181
▁বৃহ	-1182
ন্দ্র	-1183
▁রক্ত	-1184
▁কার্য	-1185
ic	-1186
▁দূর	-1187
▁প্রশাস	-1188
ূপ	-1189
▁সপ্ত	-1190
▁প্রার্থী	-1191
ন্ম	-1192
াসের	-1193
▁মাঝ	-1194
▁কলকাত	-1195
▁সময়ে	-1196
▁প্রস্ত	-1197
▁পরিস্থিতি	-1198
ীর্ঘ	-1199
▁ঘোষ	-1200
ুগ	-1201
োয়া	-1202
▁নার	-1203
▁আদাল	-1204
▁পরিচ	-1205
ব্র	-1206
▁মার	-1207
▁রাশি	-1208
▁চলছে	-1209
▁পোস্ট	-1210
▁ব্যক্তি	-1211
টিং	-1212
েশন	-1213
▁করোনার	-1214
্যের	-1215
ুপ	-1216
▁আগেই	-1217
▁ইন	-1218
▁ঘণ	-1219
▁দ্র	-1220
▁ছব	-1221
।"	-1222
▁দায়	-1223
ৃতি	-1224
▁এস	-1225
▁উন্ন	-1226
র্ধ	-1227
▁ধরনের	-1228
আর	-1229
▁পাক	-1230
▁দীর্ঘ	-1231
করা	-1232
▁চো	-1233
▁ব্যবস্থা	-1234
▁রবি	-1235
▁আত্ম	-1236
ঠে	-1237
▁নিউ	-1238
▁প্রাক্ত	-1239
▁রাস্ত	-1240
om	-1241
▁মঙ্গল	-1242
▁পরীক্ষা	-1243
্রি	-1244
▁কখন	-1245
▁পাঁচ	-1246
▁অন্ত	-1247
ডের	-1248
▁হা	-1249
▁ছোট	-1250
▁সোমবার	-1251
▁টুই	-1252
▁রাশ	-1253
▁সির	-1254
বাহ	-1255
ুড়ে	-1256
▁পার্	-1257
▁যাওয়ার	-1258
▁ইন্ড	-1259
▁D	-1260
▁ফির	-1261
▁ডেস্ক	-1262
▁সম্পর্কে	-1263
খা	-1264
▁ওয়ে	-1265
▁প্রাক্তন	-1266
▁থাকতে	-1267
তর	-1268
▁বর	-1269
▁উচিত	-1270
▁১৫	-1271
ুরি	-1272
▁উঠে	-1273
▁রাজনৈতিক	-1274
িয়ান	-1275
▁তাতে	-1276
▁শুক্র	-1277
▁অনুযায়ী	-1278
▁খাবার	-1279
▁জানানো	-1280
ধি	-1281
দান	-1282
▁প্রধানমন্ত্রী	-1283
▁বাঁ	-1284
▁বহু	-1285
▁আসে	-1286
নীতি	-1287
▁প্রতিদিন	-1288
▁উত	-1289
▁ধার	-1290
▁তরফে	-1291
▁শনি	-1292
াকার	-1293
▁পরিমাণ	-1294
▁আইন	-1295
▁ঘটে	-1296
▁কমিশ	-1297
▁20	-1298
ফতার	-1299
▁F	-1300
▁যত	-1301
▁বো	-1302
ur	-1303
▁পুলিশের	-1304
ীকে	-1305
▁ফেল	-1306
▁নী	-1307
▁সোশ্যাল	-1308
ক্ষণ	-1309
▁গোটা	-1310
▁সম্ভাব	-1311
মানে	-1312
▁যুক্ত	-1313
ঙ্কা	-1314
▁প্রচ	-1315
বঙ্গ	-1316
▁বাহ	-1317
▁ওয়ার	-1318
▁সুস্থ	-1319
▁G	-1320
▁এতে	-1321
▁ভূ	-1322
ুলের	-1323
▁মুখে	-1324
▁গ্রেফতার	-1325
▁সুর	-1326
পূর্ণ	-1327
▁দেখতে	-1328
▁ঘটনার	-1329
▁এগ	-1330
▁সূত্রে	-1331
▁অত	-1332
এম	-1333
ুয়া	-1334
▁বিধায়ক	-1335
▁কর্ত	-1336
ুকে	-1337
▁উই	-1338
▁খান	-1339
▁করলে	-1340
▁নম্বর	-1341
▁সপ্তাহ	-1342
▁পরিবর্ত	-1343
▁বুধ	-1344
▁সম্ভব	-1345
েনের	-1346
▁গান	-1347
▁গা	-1348
াত্রী	-1349
সার	-1350
▁সকাল	-1351
▁শুন	-1352
কাশ	-1353
▁শ্র	-1354
▁সম্ম	-1355
িত্র	-1356
▁অফিস	-1357
▁হলেও	-1358
ol	-1359
ষ্ণ	-1360
ভাগ	-1361
ার্স	-1362
য়াল	-1363
▁পেতে	-1364
▁ভাব	-1365
▁আপনা	-1366
▁অবশ্য	-1367
সিন	-1368
জিত	-1369
ed	-1370
▁I	-1371
▁চাপ	-1372
▁ঘটনায়	-1373
▁পূর্	-1374
▁দিলেন	-1375
▁গেলে	-1376
▁জীবন	-1377
▁উপস্থিত	-1378
▁ডিজ	-1379
▁চি	-1380
▁বিচার	-1381
ড়ি	-1382
▁লড়াই	-1383
ালেন	-1384
▁এত	-1385
▁খুন	-1386
▁১১	-1387
▁রাখা	-1388
▁এটা	-1389
▁বিদ	-1390
▁সম্প্রতি	-1391
ার্জ	-1392
▁হাম	-1393
▁পঞ্চ	-1394
▁জেলার	-1395
স্পতি	-1396
▁মিনি	-1397
▁নেতৃত	-1398
▁নামে	-1399
▁নিজস্ব	-1400
▁হে	-1401
▁দিনে	-1402
▁সংস্থা	-1403
▁বাজার	-1404
মাত্র	-1405
▁এন	-1406
▁বুধবার	-1407
am	-1408
▁জনের	-1409
▁বিক্ষ	-1410
▁হওয়া	-1411
▁রয়েছেন	-1412
ভূ	-1413
▁কাপ	-1414
'।	-1415
টো	-1416
▁করল	-1417
▁মঙ্গলবার	-1418
▁নজর	-1419
্যান্য	-1420
▁নিরাপ	-1421
▁ভারতে	-1422
▁শুক্রবার	-1423
▁on	-1424
▁থানার	-1425
▁জাতীয়	-1426
বাব	-1427
▁অন্যান্য	-1428
ভে	-1429
▁বিধানসভা	-1430
▁বাসিন্দ	-1431
স্ট্র	-1432
াসে	-1433
▁চেয়ে	-1434
▁বৃহস্পতি	-1435
গান	-1436
▁মুহ	-1437
▁যেমন	-1438
▁যাওয়া	-1439
জা	-1440
াইট	-1441
▁অন্যদিকে	-1442
▁আবেদন	-1443
জার	-1444
হে	-1445
▁সাংস	-1446
▁শনিবার	-1447
ক্ট	-1448
▁দিনের	-1449
▁জানিয়েছে	-1450
বান	-1451
▁রাত	-1452
▁জন্ম	-1453
▁উত্‍স	-1454
্যাকসিন	-1455
▁মহিলা	-1456
ল্পনা	-1457
▁ব্যাপ	-1458
ন্দর	-1459
▁সরকারি	-1460
▁টিক	-1461
▁গবে	-1462
▁সম্ভাবনা	-1463
সভার	-1464
▁চাক	-1465
▁প্রভাব	-1466
সল	-1467
▁W	-1468
▁আফ	-1469
য়ন	-1470
▁অধিকার	-1471
▁জেনে	-1472
▁হাসপাত	-1473
ান্ড	-1474
▁কুম	-1475
▁সুযোগ	-1476
st	-1477
▁ভিত	-1478
▁সারা	-1479
াবাদ	-1480
▁শুভেন্দ	-1481
▁বুঝ	-1482
▁খার	-1483
▁অভিনেত্রী	-1484
▁মন্দ	-1485
▁শ্রী	-1486
স্টে	-1487
▁কত	-1488
্বাস	-1489
▁হিস	-1490
ia	-1491
▁বন	-1492
তায়	-1493
▁মন্ত্রী	-1494
▁শাহ	-1495
▁রবিবার	-1496
▁সার	-1497
▁সালের	-1498
টিতে	-1499
িয়াম	-1500
ীপুর	-1501
▁সেটা	-1502
বিআই	-1503
▁ওপর	-1504
▁বৃহস্পতিবার	-1505
▁অনুম	-1506
দেশের	-1507
▁সন্ত	-1508
pp	-1509
▁গণ	-1510
▁সমা	-1511
▁দ্রুত	-1512
▁ভ্যাকসিন	-1513
▁ফিরে	-1514
ভাবিক	-1515
▁আপডে	-1516
▁যাতে	-1517
িদ	-1518
িনী	-1519
মার	-1520
▁এসেছে	-1521
▁বাজ	-1522
▁কমে	-1523
▁সূত্র	-1524
▁কন	-1525
▁রাম	-1526
▁যুদ্ধ	-1527
▁এদিকে	-1528
▁রিপোর্ট	-1529
াউন	-1530
▁ফেলে	-1531
▁ইতিমধ্যেই	-1532
▁সঙ্গ	-1533
▁বিক্ষোভ	-1534
le	-1535
▁সমর্থ	-1536
▁পারবেন	-1537
▁খেলে	-1538
▁সোন	-1539
▁আলোচ	-1540
▁জায়গায়	-1541
▁ভয়	-1542
▁হাইক	-1543
▁প্রচার	-1544
▁নির্বাচন	-1545
িরা	-1546
▁আপডেট	-1547
▁সাংসদ	-1548
▁কাট	-1549
▁যেন	-1550
▁আমের	-1551
ad	-1552
▁পক্ষ	-1553
▁নিয়ন্ত্রণ	-1554
কেট	-1555
ম্প	-1556
▁গে	-1557
র্ড	-1558
▁সংগ	-1559
টু	-1560
▁নানা	-1561
▁অশ	-1562
▁ক্ষতি	-1563
▁মুম্ব	-1564
ন্স	-1565
ার্ড	-1566
▁চান	-1567
▁আইপিএ	-1568
▁শরীরে	-1569
সং	-1570
▁যেখানে	-1571
▁সিবিআই	-1572
▁নেমে	-1573
▁সকালে	-1574
▁সী	-1575
চেয়ে	-1576
har	-1577
সিক	-1578
▁ব্যক্ত	-1579
▁প্রকল্প	-1580
সহ	-1581
▁বিমান	-1582
▁বর্তমানে	-1583
বিদ	-1584
▁202	-1585
ag	-1586
▁দুটি	-1587
▁মেনে	-1588
লো	-1589
▁''	-1590
মন্ত্রীর	-1591
▁মুহূর্ত	-1592
পক্ষ	-1593
োটে	-1594
দেশে	-1595
পে	-1596
▁নিজেদের	-1597
▁করেছিল	-1598
▁সবচেয়ে	-1599
▁ভাইরাল	-1600
▁সাং	-1601
▁দর	-1602
▁লাল	-1603
▁ছেলে	-1604
ীল	-1605
▁১৪	-1606
▁সেখান	-1607
▁এলাকার	-1608
▁গুরুত্বপূর্ণ	-1609
সূ	-1610
নাথ	-1611
▁জমা	-1612
▁যারা	-1613
▁বিশেষজ্ঞ	-1614
▁টেস্ট	-1615
▁কংগ্রেসের	-1616
ঠন	-1617
▁ম্যাচে	-1618
▁হিসাবে	-1619
▁টিকা	-1620
ুয়ারি	-1621
▁h	-1622
্যুর	-1623
▁জি	-1624
▁থাকার	-1625
▁শান্ত	-1626
▁পু	-1627
ুস্থ	-1628
োহ	-1629
▁বিজ্ঞ	-1630
▁মেয়ে	-1631
▁আন্দ	-1632
▁হত	-1633
কর্ম	-1634
▁প্রাণ	-1635
▁বাড়ির	-1636
il	-1637
▁কলে	-1638
▁কিং	-1639
ীরে	-1640
▁উচ্চ	-1641
▁প্রত্য	-1642
▁প্ল	-1643
ওয়ায়	-1644
▁অনেকেই	-1645
▁অর্থাত্‍	-1646
▁t	-1647
▁রাতে	-1648
▁বাংলার	-1649
ষ্কার	-1650
▁কর্মী	-1651
▁আপনাকে	-1652
▁নিউজ	-1653
▁এগিয়ে	-1654
▁পরিচাল	-1655
বী	-1656
গুলির	-1657
▁হিন্দ	-1658
▁অভিযুক্ত	-1659
',	-1660
▁পুজো	-1661
▁ছেড়ে	-1662
▁পাবেন	-1663
প্রিয়	-1664
▁পাকিস্ত	-1665
ন্য	-1666
িক্ত	-1667
ামিন	-1668
▁কাজে	-1669
▁খেলা	-1670
▁পৌঁছে	-1671
▁বাইরে	-1672
▁বৃদ্ধি	-1673
োঁ	-1674
▁মধ্যেই	-1675
▁শেয়ার	-1676
▁পরিস্থিতিতে	-1677
জনের	-1678
▁বয়স	-1679
্টে	-1680
▁বান	-1681
▁অ্যাপ	-1682
▁এছাড়াও	-1683
ারীর	-1684
▁চট	-1685
▁আধিকার	-1686
▁ভি	-1687
েন্স	-1688
▁বিয়ে	-1689
ভি	-1690
ৃষ্টি	-1691
▁দায়িত্ব	-1692
▁আন্ত	-1693
as	-1694
▁L	-1695
▁সুপার	-1696
▁ছাত্র	-1697
্যায়	-1698
▁বিষয়টি	-1699
▁কাউ	-1700
▁থাকেন	-1701
্যাম্প	-1702
▁নিরাপত্ত	-1703
▁শিশু	-1704
▁মুক্তি	-1705
▁শো	-1706
▁বসে	-1707
▁নিয়োগ	-1708
▁মন্তব্য	-1709
▁জে	-1710
েন্ড	-1711
▁রাহ	-1712
ion	-1713
ঘট	-1714
▁৩০	-1715
স্থার	-1716
ীতে	-1717
ক্ষেপ	-1718
▁আধিকারিক	-1719
▁শিল্প	-1720
ঙে	-1721
িকায়	-1722
াতিক	-1723
িসি	-1724
▁কাছ	-1725
▁তেল	-1726
▁বিন	-1727
▁ভর্ত	-1728
▁ঘণ্ট	-1729
▁প্রতির	-1730
▁শাস	-1731
▁গ্রহণ	-1732
▁V	-1733
▁পূর্ব	-1734
▁মন্ত্র	-1735
▁উদ্য	-1736
▁মিডিয়ায়	-1737
us	-1738
▁লাই	-1739
গা	-1740
▁বিত	-1741
▁চক্র	-1742
▁নেতৃত্ব	-1743
▁সিনে	-1744
▁ফুট	-1745
▁নেওয়ার	-1746
▁নর	-1747
চি	-1748
▁পরীক্ষ	-1749
▁জারি	-1750
▁স্বাভাবিক	-1751
জীব	-1752
▁প্রেস	-1753
▁চিন্ত	-1754
িগ	-1755
ুস	-1756
▁মৃত্যুর	-1757
▁বক্ত	-1758
াফ	-1759
ধীন	-1760
▁পথ	-1761
▁চর	-1762
▁পূ	-1763
▁গাড়ি	-1764
▁অবস্থায়	-1765
▁দাঁড়িয়ে	-1766
রাট	-1767
▁ক্ষমতা	-1768
ee	-1769
id	-1770
▁বাম	-1771
▁টাকার	-1772
▁সত্য	-1773
▁শরীরের	-1774
▁সাব	-1775
▁অতির	-1776
ীত	-1777
▁এম	-1778
থমে	-1779
ষেক	-1780
ঞ্চল	-1781
▁বাদ	-1782
জ্	-1783
▁তথা	-1784
▁মেড	-1785
▁প্রসঙ্গ	-1786
▁পিছ	-1787
রাষ্ট্র	-1788
▁জ্ব	-1789
▁একটু	-1790
tt	-1791
টিভ	-1792
▁E	-1793
▁পুরো	-1794
▁স্কুল	-1795
▁ঋ	-1796
্তা	-1797
▁মার্ক	-1798
▁বিরোধী	-1799
▁চোখ	-1800
▁বৈঠকে	-1801
▁ক্রিকেট	-1802
▁ছড়িয়ে	-1803
িনের	-1804
▁অতিরিক্ত	-1805
েনি	-1806
▁খারাপ	-1807
জয়	-1808
▁আর্থ	-1809
▁শক্ত	-1810
▁পঞ্চায়ে	-1811
▁ইং	-1812
▁লক	-1813
িয়াল	-1814
▁শুভেন্দু	-1815
▁ঘুম	-1816
সঙ্গে	-1817
র্ষণ	-1818
▁গোল	-1819
ামর্শ	-1820
▁লিখে	-1821
▁হারিয়ে	-1822
▁ধর্ম	-1823
▁মামলা	-1824
▁অভিষেক	-1825
▁দেহ	-1826
▁বৃষ্টি	-1827
▁সহজ	-1828
ow	-1829
।''	-1830
তিহ	-1831
তেন	-1832
েষ্ট	-1833
▁জোর	-1834
দিনের	-1835
▁বৈঠক	-1836
▁ওয়েব	-1837
▁প্রথমে	-1838
ce	-1839
▁তাপ	-1840
▁ভুল	-1841
▁সচ	-1842
▁পরামর্শ	-1843
▁অথ	-1844
্যাত	-1845
▁তৃত	-1846
▁মতে	-1847
ন্টার	-1848
▁রস	-1849
▁কাজের	-1850
▁আরো	-1851
িডেন্ট	-1852
▁বিক্র	-1853
▁কোচ	-1854
▁চাম	-1855
▁আসতে	-1856
▁সতর্ক	-1857
▁মানসিক	-1858
ir	-1859
▁১৩	-1860
▁থাকলে	-1861
▁বাত	-1862
▁পরিক	-1863
▁বিল	-1864
▁মাসে	-1865
▁বিশ্বাস	-1866
▁যৌ	-1867
▁পাশে	-1868
▁আয়	-1869
ল্যান্ড	-1870
▁মুম্বই	-1871
িখ	-1872
বিধা	-1873
রণের	-1874
▁আলা	-1875
▁জুন	-1876
▁প্রচুর	-1877
কেল	-1878
বের	-1879
ালী	-1880
ার্ট	-1881
▁চালু	-1882
▁আন্দোল	-1883
▁ত্বকের	-1884
▁স্ত্রী	-1885
▁দিব	-1886
▁রেল	-1887
▁একেবার	-1888
▁১৮	-1889
▁ড্র	-1890
▁ভেঙে	-1891
▁জায়গা	-1892
▁তৃতীয়	-1893
▁হাল	-1894
▁কোর্	-1895
ুতি	-1896
▁নিয়ম	-1897
▁কাঁ	-1898
▁ভাগ	-1899
▁পৌঁছ	-1900
▁পরিষে	-1901
▁আর্থিক	-1902
ীক	-1903
▁অপর	-1904
দিনীপুর	-1905
▁চুল	-1906
▁পড়তে	-1907
▁চট্ট	-1908
▁জম	-1909
▁হাই	-1910
▁জেলায়	-1911
▁প্রতিনি	-1912
এই	-1913
ুদ	-1914
han	-1915
▁দশ	-1916
▁জেরে	-1917
কু	-1918
▁বাকি	-1919
▁মাথায়	-1920
▁মেদিনীপুর	-1921
▁জঙ্গ	-1922
▁বাবা	-1923
▁ভোটের	-1924
▁অধিন	-1925
▁রাজনীতি	-1926
▁প্রতিবাদ	-1927
▁ফ্র	-1928
▁লাভ	-1929
▁গিয়েছিল	-1930
ra	-1931
▁গুলি	-1932
▁বলিউ	-1933
▁পৃ	-1934
ুলাই	-1935
▁ঘরে	-1936
▁H	-1937
▁জানতে	-1938
তু	-1939
▁২৫	-1940
পুরে	-1941
▁হাঁ	-1942
▁আক্রমণ	-1943
▁কিছুটা	-1944
▁অমিত	-1945
ঘাত	-1946
দীপ	-1947
▁ওয়	-1948
▁ইউক্র	-1949
▁রাষ্ট্র	-1950
ষেধ	-1951
▁অ্যান	-1952
▁বলছেন	-1953
▁পরিবর্তন	-1954
▁দিল্লি	-1955
▁নিয়মিত	-1956
▁মর	-1957
▁উদ্যোগ	-1958
▁ফাই	-1959
বাদিক	-1960
▁অন্যতম	-1961
বেগ	-1962
▁পর্য	-1963
ুধ	-1964
▁K	-1965
▁সাংবাদিক	-1966
▁৫০	-1967
▁হাজ	-1968
২০	-1969
▁লকড	-1970
▁গরম	-1971
▁দর্শ	-1972
▁জনপ্রিয়	-1973
oo	-1974
▁কঠ	-1975
▁কলেজ	-1976
▁বলতে	-1977
▁তেমন	-1978
▁কেন্দ্রের	-1979
ণা	-1980
▁সবাই	-1981
▁কীভাবে	-1982
▁শারীর	-1983
▁রেক	-1984
▁সেল	-1985
▁কখনও	-1986
▁ঘর	-1987
▁সফ	-1988
▁বলেই	-1989
▁কয়েকটি	-1990
োলার	-1991
▁ঐ	-1992
ent	-1993
▁ধরা	-1994
▁বাড়ছে	-1995
▁পরবর্তী	-1996
▁ব্যবস	-1997
▁শিবির	-1998
▁লক্ষ্য	-1999
▁অ্য	-2000
▁পৃথ	-2001
▁খাওয়া	-2002
▁প্রাথম	-2003
▁পাওয়ার	-2004
▁যথ	-2005
পুরের	-2006
ণের	-2007
ধে	-2008
▁অল	-2009
▁হলো	-2010
▁দিক	-2011
মেন্ট	-2012
▁মাঝে	-2013
গুলিতে	-2014
▁নরেন্দ্র	-2015
শি	-2016
থি	-2017
▁বজ	-2018
▁রূপ	-2019
▁স্পষ্ট	-2020
▁আন্তর্জ	-2021
কেই	-2022
▁দলে	-2023
আপ	-2024
▁ওয়ার্ড	-2025
▁কু	-2026
▁পেশ	-2027
▁ভাঙ	-2028
▁খুবই	-2029
▁বক্তব্য	-2030
নো	-2031
el	-2032
ন্দে	-2033
স্তি	-2034
▁জুলাই	-2035
▁বিরাট	-2036
▁শারীরিক	-2037
হিত	-2038
ুড়ি	-2039
▁অধিনায়ক	-2040
▁ভর্তি	-2041
▁দৈ	-2042
স্কার	-2043
▁অত্যন্ত	-2044
▁পরিষ্কার	-2045
▁খুঁ	-2046
▁অ্যা	-2047
▁ত্রি	-2048
▁চিকিত্‍সা	-2049
▁১৬	-2050
ড়ায়	-2051
▁আসছে	-2052
▁কর্তৃ	-2053
▁পড়েছে	-2054
▁নির্বাচনে	-2055
পাল	-2056
▁রঙ	-2057
▁পেট্র	-2058
▁সম্পর্কিত	-2059
ঠি	-2060
▁বোঝ	-2061
▁আক্রান্তের	-2062
▁আন্তর্জাতিক	-2063
▁s	-2064
াপ্ত	-2065
▁বাঁচ	-2066
▁এমনকি	-2067
▁উল্লেখ্য	-2068
▁চট্টোপাধ্যায়	-2069
▁এলাকা	-2070
▁বিয়ের	-2071
▁জো	-2072
াড়ি	-2073
▁হোক	-2074
▁নয়া	-2075
▁দুর্গ	-2076
▁২১	-2077
ষ্ক	-2078
▁তল	-2079
▁পথে	-2080
▁আগুন	-2081
▁অনুর	-2082
রির	-2083
▁সাত	-2084
▁চামচ	-2085
▁রাখুন	-2086
কারি	-2087
▁মন্দির	-2088
▁দুর্ঘট	-2089
্ক	-2090
▁মোদী	-2091
র্গ	-2092
▁সিরিজ	-2093
▁প্রাথমিক	-2094
▁লো	-2095
news	-2096
ing	-2097
▁অভিনয়	-2098
পাত	-2099
ভাই	-2100
▁সার্	-2101
▁মার্কিন	-2102
▁সম্পূর্ণ	-2103
জাত	-2104
▁ঘুর	-2105
▁ছবির	-2106
▁ধীরে	-2107
▁দিলীপ	-2108
েতা	-2109
▁কর্মসূ	-2110
ভর	-2111
▁ফাঁ	-2112
▁যাঁ	-2113
▁সংস্থার	-2114
▁খুশ	-2115
▁গতকাল	-2116
▁পায়	-2117
োস	-2118
▁খর	-2119
▁অভিনেতা	-2120
েতন	-2121
ষ্টির	-2122
▁রাহুল	-2123
▁সূত্রের	-2124
াবাহ	-2125
ামূল	-2126
িয়ন	-2127
▁অভিয	-2128
▁ভিত্ত	-2129
and	-2130
্না	-2131
▁হলেন	-2132
্যান্স	-2133
উট	-2134
▁যুবক	-2135
▁আলোচনা	-2136
▁দায়ের	-2137
▁পদক্ষেপ	-2138
▁ডায়	-2139
▁দেবে	-2140
▁কর্তৃপক্ষ	-2141
▁সেরা	-2142
▁নিল	-2143
▁স্ট্র	-2144
▁মুহূর্তে	-2145
▁মাস্ক	-2146
▁ভর	-2147
▁কথায়	-2148
কল	-2149
ttp	-2150
ষ্য	-2151
▁পছ	-2152
েনার	-2153
▁সুন্দর	-2154
:/	-2155
গ্ন	-2156
্কা	-2157
▁বীর	-2158
://	-2159
▁আসা	-2160
▁Shar	-2161
▁একবার	-2162
▁বিশ্বের	-2163
▁এপ্র	-2164
▁নিশ্	-2165
পত্র	-2166
com	-2167
▁পালন	-2168
▁চাকরি	-2169
▁যোগা	-2170
▁স্বামী	-2171
▁পশ্চিমবঙ্গ	-2172
হি	-2173
ম্যান	-2174
▁উঠেছে	-2175
▁কলকাতায়	-2176
▁ট্রেন	-2177
▁চেয়ার	-2178
▁সকল	-2179
িটামিন	-2180
▁প্রসঙ্গত	-2181
ফোন	-2182
য়োগ	-2183
▁ছবিতে	-2184
ুরুষ	-2185
▁জিতে	-2186
▁স্বপ	-2187
▁বার্তা	-2188
▁পরিষেবা	-2189
▁অনল	-2190
স্ত্র	-2191
▁অক্স	-2192
▁নিশ্চিত	-2193
এফ	-2194
▁রাশির	-2195
▁পরিকল্পনা	-2196
হল	-2197
▁জীবনে	-2198
▁হাসপাতাল	-2199
শা	-2200
'-	-2201
▁কলকাতার	-2202
দল	-2203
টিক	-2204
▁ময়	-2205
▁সরব	-2206
▁ত্বক	-2207
▁ভিটামিন	-2208
▁আলাদা	-2209
ীকার	-2210
টিয়ে	-2211
▁মজ	-2212
▁News	-2213
▁নাকি	-2214
▁উইকেট	-2215
▁জাম	-2216
শান্ত	-2217
▁পরিবেশ	-2218
▁খেতে	-2219
ঠিক	-2220
টিকে	-2221
▁অ্যাস	-2222
ভারত	-2223
ুয়ে	-2224
▁কাম	-2225
▁মিডিয়া	-2226
▁শীর্ষ	-2227
▁কের	-2228
▁কুমার	-2229
▁রেকর্ড	-2230
▁ঘণ্টায়	-2231
▁ত্রিপুর	-2232
ড়াতে	-2233
▁জিনি	-2234
▁ডিসে	-2235
▁5	-2236
▁অপে	-2237
▁পোশ	-2238
▁পরেই	-2239
▁মাসের	-2240
ানির	-2241
▁ওষ	-2242
▁ঘিরে	-2243
বীর	-2244
▁Share	-2245
▁প্রতিরোধ	-2246
াপন	-2247
▁জর	-2248
িনীর	-2249
▁বাজারে	-2250
▁বাড়িয়ে	-2251
▁ফি	-2252
▁নেন	-2253
▁সাক্ষ	-2254
▁অ্যাকা	-2255
▁ক্রিকেটার	-2256
▁১৭	-2257
est	-2258
▁২২	-2259
▁খাদ	-2260
বু	-2261
▁http	-2262
▁সুপ্র	-2263
▁অবস্থা	-2264
▁শিক্ষা	-2265
▁পুন	-2266
▁লেখা	-2267
▁শ্রে	-2268
োয়	-2269
দর্শ	-2270
▁ওষুধ	-2271
▁ফেব্র	-2272
মাধ্য	-2273
▁এক্স	-2274
▁কেমন	-2275
▁গঙ্গ	-2276
▁রাখার	-2277
▁নিয়েছে	-2278
▁সমস্যার	-2279
▁প্রতিষ্ঠ	-2280
un	-2281
▁২০০	-2282
▁আফগান	-2283
▁মার্চ	-2284
▁সঠিক	-2285
কাপ	-2286
▁দফত	-2287
▁নাগ	-2288
▁বদলে	-2289
▁যায়নি	-2290
▁হাইকোর্	-2291
▁দুধ	-2292
▁লেখ	-2293
▁সাই	-2294
স্টার	-2295
▁আসার	-2296
▁বর্ধ	-2297
▁অ্যান্টি	-2298
▁প্রসঙ্গে	-2299
ধুম	-2300
িকের	-2301
▁কাশ	-2302
▁বিস্	-2303
▁সমাজ	-2304
পা	-2305
রত	-2306
▁নব	-2307
▁নো	-2308
▁চালিয়ে	-2309
▁বলেও	-2310
▁কিংবা	-2311
▁প্রমাণ	-2312
ওয়াল	-2313
▁জানালেন	-2314
মুখ	-2315
▁খরচ	-2316
▁আক	-2317
▁গড়ে	-2318
▁কর্মীদের	-2319
▁অর	-2320
▁আচ	-2321
▁ফেসব	-2322
ধুর	-2323
▁আগের	-2324
▁কমিশন	-2325
▁তারকা	-2326
▁প্রক্র	-2327
▁ওঠ	-2328
বিদ্যাল	-2329
▁ওঠে	-2330
▁অসুস্থ	-2331
▁বাসিন্দা	-2332
▁কট	-2333
▁বাল	-2334
▁জুড়ে	-2335
▁সুবিধা	-2336
he	-2337
কোভ	-2338
্লি	-2339
▁এপ্রিল	-2340
▁ছাড়াও	-2341
▁গু	-2342
▁বন্ধু	-2343
▁যোগাযোগ	-2344
▁আলি	-2345
▁বললেন	-2346
▁বিস্ত	-2347
▁শহরের	-2348
ang	-2349
হের	-2350
▁দখ	-2351
▁বিক	-2352
▁সংক্রমণের	-2353
▁অনুস	-2354
▁আজকের	-2355
ha	-2356
ভাবেই	-2357
),	-2358
▁আশা	-2359
▁ফ্ল	-2360
▁২০২১	-2361
▁সুপ্রিম	-2362
কুল	-2363
শ্ব	-2364
▁গাছ	-2365
▁আবহা	-2366
▁সৃষ্টি	-2367
▁তাপমাত্র	-2368
our	-2369
দ্ব	-2370
▁গোপ	-2371
▁জিত	-2372
▁বলেছিলেন	-2373
la	-2374
চল	-2375
▁মারা	-2376
▁পুরুষ	-2377
াণ	-2378
মিকা	-2379
▁নেট	-2380
▁হাও	-2381
▁১০০	-2382
▁শোনা	-2383
▁তিনটি	-2384
▁হামলা	-2385
স্ট্রেল	-2386
▁প্রবেশ	-2387
▁লিখেছেন	-2388
▁প্রত্যেক	-2389
▁পদ্ধ	-2390
▁অবশ্যই	-2391
▁ঘটনাস্থ	-2392
শীল	-2393
▁সীম	-2394
▁পার্থ	-2395
▁প্রেসিডেন্ট	-2396
ৃহ	-2397
▁খোঁ	-2398
জিত্‍	-2399
▁পক্ষে	-2400
▁অ্যাকাউ	-2401
েজ	-2402
াবের	-2403
▁ঝুঁ	-2404
▁ইনস্	-2405
সভ	-2406
▁আশঙ্কা	-2407
▁নিজেকে	-2408
▁দোক	-2409
▁দিয়েছিলেন	-2410
র্য	-2411
▁রহ	-2412
ক্টো	-2413
▁আপাত	-2414
▁ঘটেছে	-2415
▁মেট্র	-2416
▁সকলের	-2417
▁ব্যাপারে	-2418
▁প্রতিনিধি	-2419
সময়	-2420
▁আহত	-2421
▁চলা	-2422
▁দাস	-2423
▁সাজ	-2424
▁সুখ	-2425
▁বেরিয়ে	-2426
▁U	-2427
বেদ	-2428
েষে	-2429
▁বাংলায়	-2430
▁বিশ্ববিদ্যাল	-2431
▁Pr	-2432
▁আটকে	-2433
▁আনন্দ	-2434
▁হঠ	-2435
িক্স	-2436
▁বিশ্বকাপ	-2437
▁O	-2438
দিনে	-2439
▁হবেন	-2440
▁সংক্রান্ত	-2441
চা	-2442
োষ	-2443
hat	-2444
▁মিনিট	-2445
▁পরিচিত	-2446
▁বছরে	-2447
▁বায়	-2448
▁প্রিয়	-2449
▁সন্তান	-2450
মর	-2451
▁টু	-2452
▁গতি	-2453
▁লাখ	-2454
oll	-2455
ুটে	-2456
▁ওপ	-2457
▁অনেকটাই	-2458
▁নিরাপত্তা	-2459
▁আসেন	-2460
▁চায়	-2461
▁স্মার্ট	-2462
▁আসবে	-2463
▁প্রতিটি	-2464
কারে	-2465
▁কার্ড	-2466
▁অস্ব	-2467
▁ওভার	-2468
▁চলতি	-2469
▁অক্টো	-2470
▁নিম	-2471
▁নাগর	-2472
▁মাথা	-2473
▁গড়	-2474
▁অস্ট্রেল	-2475
▁চৌ	-2476
াত্ম	-2477
ীব্র	-2478
▁সেপ	-2479
▁মাঠে	-2480
▁মিশিয়ে	-2481
dia	-2482
▁পদে	-2483
▁রকম	-2484
▁কিনা	-2485
▁বর্ষ	-2486
▁গান্ধ	-2487
▁সহায়	-2488
▁বাড়তে	-2489
▁অনুষ্ঠানে	-2490
▁নির্বাচনের	-2491
নাম	-2492
াইড	-2493
▁ওজন	-2494
বিষ্য	-2495
্যানে	-2496
▁নেয়	-2497
▁জিনিস	-2498
▁টুইটার	-2499
▁ইনি	-2500
▁আপাতত	-2501
▁থানায়	-2502
▁খাওয়ার	-2503
▁তালিকায়	-2504
▁ব্যক্তির	-2505
ান্স	-2506
▁মোব	-2507
▁তীব্র	-2508
▁শিক্ষক	-2509
হন	-2510
▁রী	-2511
▁বিক্রি	-2512
▁প্রশাসন	-2513
ড়ের	-2514
▁বোর্	-2515
র্ণ	-2516
▁ভবিষ্য	-2517
▁জানেন	-2518
▁নিয়েছেন	-2519
কেও	-2520
্নের	-2521
▁শুধুম	-2522
▁শুধুমাত্র	-2523
▁পদ্ধতি	-2524
▁রাস্তায়	-2525
াজিক	-2526
▁আসলে	-2527
রভ	-2528
কোভিড	-2529
▁মুখ্যমন্ত্রীর	-2530
এন	-2531
▁গর	-2532
▁ভোটে	-2533
জনক	-2534
ক্রিয়	-2535
▁পরগ	-2536
▁ক্যাম	-2537
▁মিশ্র	-2538
▁করোনায়	-2539
▁কার্যকর	-2540
▁ইংল্যান্ড	-2541
ot	-2542
▁কান	-2543
▁বলছে	-2544
▁সুশান্ত	-2545
তী	-2546
্মীর	-2547
ay	-2548
তেও	-2549
বন্দ	-2550
▁সংস	-2551
চ্ছিল	-2552
▁থাকবেন	-2553
াইজ	-2554
্যালে	-2555
▁বেসর	-2556
▁শাসক	-2557
▁সোনার	-2558
▁দৈনিক	-2559
▁ব্যাট	-2560
▁যাত্রী	-2561
▁সম্পাদ	-2562
▁মানুষকে	-2563
▁সপ্তাহে	-2564
ফোর	-2565
▁পাত	-2566
িক্যাল	-2567
▁https	-2568
▁আদালত	-2569
▁In	-2570
ওয়ান	-2571
িটির	-2572
▁করি	-2573
▁ত্র	-2574
▁হঠাত্‍	-2575
▁বৃষ্টির	-2576
▁উত্তরপ্র	-2577
▁চলবে	-2578
▁কারণেই	-2579
▁দিচ্ছে	-2580
ছর	-2581
▁দপ্ত	-2582
▁ঝাড়	-2583
িজ্ঞ	-2584
দিষ্ট	-2585
▁দূরে	-2586
▁মুখোপাধ্যায়	-2587
▁ইন্টার	-2588
▁গ্রামের	-2589
▁বিচারপতি	-2590
▁করেই	-2591
▁বজায়	-2592
েট	-2593
▁সেনা	-2594
▁রাস্তা	-2595
▁সেপ্টে	-2596
▁প্রকাশ্যে	-2597
▁খুল	-2598
▁বাহিনী	-2599
▁মেল	-2600
▁পোশাক	-2601
▁আহ	-2602
ণ্ডে	-2603
▁উদ্দেশ	-2604
▁যথেষ্ট	-2605
ct	-2606
▁জীবনের	-2607
▁অক্টোবর	-2608
রাজ	-2609
▁শহর	-2610
চার্য	-2611
▁থাকলেও	-2612
▁ডিসেম্বর	-2613
কো	-2614
দর	-2615
য়েল	-2616
য়েন্	-2617
▁বিদেশ	-2618
▁আয়োজন	-2619
▁বেঁ	-2620
▁অক্সিজ	-2621
▁b	-2622
ত্তি	-2623
▁সাপ	-2624
স্থান	-2625
▁সীমান্ত	-2626
os	-2627
ta	-2628
▁পার্টি	-2629
ড়ো	-2630
হীন	-2631
▁উত্‍	-2632
▁ভূমিকা	-2633
▁চক্রবর্তী	-2634
▁ধাক	-2635
▁উপাদ	-2636
পাশ	-2637
▁কারও	-2638
▁কালো	-2639
▁টুইট	-2640
▁নন্দ	-2641
▁জিজ্ঞ	-2642
▁অধিকারী	-2643
ুরের	-2644
▁পৃথিব	-2645
▁নভে	-2646
▁টিকাক	-2647
▁শাস্ত	-2648
পথ	-2649
▁রি	-2650
▁দীপ	-2651
▁তরুণ	-2652
▁জরুরি	-2653
▁তালিকা	-2654
▁বর্তমান	-2655
▁গভ	-2656
▁উপরে	-2657
▁মণ্ড	-2658
▁তাপমাত্রা	-2659
▁অগ	-2660
দায়	-2661
▁অর্	-2662
▁আকাশ	-2663
▁কোথা	-2664
▁মঞ্চ	-2665
▁মামলায়	-2666
▁পঞ্চায়েত	-2667
প্রে	-2668
▁অতি	-2669
▁উদ্ব	-2670
▁পুজোর	-2671
▁যাবেন	-2672
্রম	-2673
▁দৃ	-2674
▁সংশ	-2675
hi	-2676
anm	-2677
দাতা	-2678
াম্প	-2679
▁পেল	-2680
▁সন্	-2681
▁এয়ার	-2682
▁গ্রামে	-2683
▁চিন্তা	-2684
▁ব্যাপক	-2685
সী	-2686
চ্ছা	-2687
▁হয়েছিলেন	-2688
মতার	-2689
▁ভক্ত	-2690
▁পরিমাণে	-2691
ri	-2692
▁টা	-2693
▁জলে	-2694
▁বিহার	-2695
▁কটাক্ষ	-2696
০০০	-2697
▁আনা	-2698
▁দ্য	-2699
▁শেখ	-2700
▁শেষে	-2701
▁ডিজিট	-2702
▁হালকা	-2703
▁বেড়েছে	-2704
িম্প	-2705
▁বিনি	-2706
মক	-2707
▁#	-2708
▁কেটে	-2709
▁পছন্দ	-2710
▁আইপিএল	-2711
▁সম্মান	-2712
টিস	-2713
▁২৬	-2714
▁ঠাক	-2715
▁ইউনি	-2716
▁ইতিহ	-2717
▁সাফল	-2718
▁অ্যাল	-2719
▁চলেছেন	-2720
▁3	-2721
▁সাল	-2722
▁অন্তর্	-2723
▁পাঠানো	-2724
▁কৌ	-2725
▁App	-2726
▁টাই	-2727
▁দেবেন	-2728
▁চেন	-2729
▁মাছ	-2730
▁গ্যাস	-2731
▁হয়তো	-2732
▁আইনজীব	-2733
▁বিস্ফোর	-2734
টস	-2735
▁নন	-2736
মাতে	-2737
র্মা	-2738
▁সংঘ	-2739
▁সাদা	-2740
▁বাস্ত	-2741
▁অনুমতি	-2742
▁বিতর্ক	-2743
লোড	-2744
▁টিম	-2745
▁নদী	-2746
▁অধিক	-2747
▁কর্মীরা	-2748
▁ফেব্রুয়ারি	-2749
▁m	-2750
▁ধন	-2751
▁বেল	-2752
মানের	-2753
▁খুলে	-2754
▁হাজির	-2755
▁অস্ত্র	-2756
ov	-2757
জ্জ	-2758
▁পারি	-2759
‍্য	-2760
▁আর্	-2761
▁মহারা	-2762
▁মূল্য	-2763
▁সময়ের	-2764
▁প্রত্যা	-2765
▁মিলিয়ে	-2766
ালা	-2767
▁আছেন	-2768
ঘা	-2769
▁এফ	-2770
▁ডাক	-2771
▁আদালতে	-2772
▁শ্রমিক	-2773
দেহ	-2774
▁চাহ	-2775
▁খুশি	-2776
▁চাঞ্চল	-2777
▁পেয়েছে	-2778
াবল	-2779
ক্ষম	-2780
গ্রহণ	-2781
শু	-2782
ান্য	-2783
▁এসব	-2784
বাজার	-2785
▁বাধা	-2786
▁দরকার	-2787
▁অনেকের	-2788
ক্ষেত্রে	-2789
ুরো	-2790
োদন	-2791
▁২৩	-2792
সভায়	-2793
▁বঙ্গ	-2794
▁শহরে	-2795
্বল	-2796
▁উপক	-2797
▁সভা	-2798
▁কমিটি	-2799
▁হওয়ায়	-2800
▁প্রযুক্ত	-2801
্নে	-2802
▁কঠিন	-2803
গ্রামে	-2804
▁বোল	-2805
▁কড়া	-2806
▁খাদ্য	-2807
▁জঙ্গি	-2808
▁মুকুল	-2809
▁নাগরিক	-2810
▁নিয়ন্ত্রণে	-2811
১৯	-2812
▁বিভাগ	-2813
▁যাত্র	-2814
anmnews	-2815
বায়	-2816
▁সংগ্র	-2817
▁সমাধান	-2818
ata	-2819
eng	-2820
রিক	-2821
রো	-2822
ড্ড	-2823
েলি	-2824
▁এনে	-2825
▁উপকার	-2826
▁চেয়ারম্যান	-2827
▁মৌ	-2828
ামের	-2829
▁একের	-2830
▁সরাস	-2831
▁সৌরভ	-2832
▁মালিক	-2833
▁বাধ্য	-2834
▁কিছুদিন	-2835
▁ডিজিটাল	-2836
▁তরফ	-2837
▁ভাষ	-2838
▁2022	-2839
▁সরাসরি	-2840
▁প্রতিবেদন	-2841
বন	-2842
▁ধরেই	-2843
▁সবার	-2844
▁খেয়ে	-2845
▁সংগঠন	-2846
▁সহায়তা	-2847
▁পেঁ	-2848
▁পাবে	-2849
▁সর্বো	-2850
▁কাউন্স	-2851
▁ডোজ	-2852
▁স্ন	-2853
▁সঞ্জ	-2854
▁ঘণ্টা	-2855
▁রোগীর	-2856
▁রণ	-2857
ঙ্কর	-2858
ৃতিক	-2859
▁উপল	-2860
▁মিথ	-2861
ান্তি	-2862
▁কার্যত	-2863
▁বিজেপিতে	-2864
▁৪০	-2865
িটার	-2866
ুদ্র	-2867
▁আসন	-2868
▁বাঙ	-2869
▁গল্প	-2870
▁ব্যথা	-2871
▁একেবারে	-2872
▁স্বাধীন	-2873
▁J	-2874
কেরা	-2875
▁মধু	-2876
▁সিংহ	-2877
▁কোম্প	-2878
ার্চ	-2879
তিয়ে	-2880
▁মিলে	-2881
▁রাখে	-2882
্যুত্‍	-2883
▁নাগাদ	-2884
▁আন্দোলন	-2885
▁ম্যাচের	-2886
▁স্বরাষ্ট্র	-2887
up	-2888
ণে	-2889
দীর	-2890
▁সন্ধ	-2891
গুলিকে	-2892
▁আবহাওয়া	-2893
▁২০২০	-2894
য়েন্ট	-2895
▁বেশির	-2896
▁এমনটাই	-2897
▁কমিটির	-2898
▁বেসরকারি	-2899
▁জানুয়ারি	-2900
ৃদ্ধ	-2901
▁গুজ	-2902
জুড়ে	-2903
▁দেখার	-2904
▁অফিসার	-2905
ইউ	-2906
▁p	-2907
িত্য	-2908
▁শক্তি	-2909
▁গ্রেপ্ত	-2910
▁তুলনায়	-2911
▁ব্যাঙ্ক	-2912
▁ইতিমধ্যে	-2913
বণ	-2914
ail	-2915
▁কিশ	-2916
▁উদ্বেগ	-2917
▁প্রক্রিয়া	-2918
▁চিঠি	-2919
▁সিনেমা	-2920
▁নির্দিষ্ট	-2921
ধর	-2922
েত্র	-2923
▁আটক	-2924
▁হুম	-2925
▁অথবা	-2926
িয়েছে	-2927
▁পারবে	-2928
▁প্রতিক	-2929
▁চাঞ্চল্য	-2930
ফা	-2931
চাপ	-2932
▁উপায়	-2933
▁সম্পাদক	-2934
▁মড	-2935
▁বিবে	-2936
▁মূলত	-2937
▁বাতিল	-2938
▁খতিয়ে	-2939
▁জিজ্ঞাস	-2940
থার	-2941
▁হৃ	-2942
াইনে	-2943
▁স্ল	-2944
ঙ্কার	-2945
▁জলের	-2946
▁প্রেম	-2947
▁মোবাইল	-2948
▁শক্তিশ	-2949
▁বিব	-2950
▁যাক	-2951
▁খোলা	-2952
▁ইত্যা	-2953
▁সত্যি	-2954
▁প্রস্তাব	-2955
▁আফগানিস্ত	-2956
▁প্রশাসনের	-2957
ফি	-2958
ূর	-2959
ড়ার	-2960
▁শুক	-2961
▁খুনের	-2962
▁উপাদান	-2963
▁ব্যবসায়	-2964
▁সমস্যায়	-2965
▁পল	-2966
▁২৭	-2967
▁ক্যা	-2968
মল	-2969
ter	-2970
দিক	-2971
ামে	-2972
নির্	-2973
▁টেক	-2974
▁দার	-2975
▁সিল	-2976
নীতির	-2977
▁থাকায়	-2978
▁অনুষ্ঠান	-2979
▁সর্বোচ্চ	-2980
▁চিন	-2981
▁পর্	-2982
▁ওয়া	-2983
▁কৃষ্ণ	-2984
▁বুঝতে	-2985
▁যৌন	-2986
ম্বরে	-2987
▁ঘটনাটি	-2988
▁দিয়েছিল	-2989
▁কিল	-2990
▁ফলা	-2991
▁ডাক্ত	-2992
▁অভিযান	-2993
▁একসঙ্গে	-2994
▁দুর্গাপ	-2995
▁শক্তিশালী	-2996
্মদ	-2997
্সে	-2998
োমুখ	-2999
▁পরই	-3000
▁দফতর	-3001
▁বিপর	-3002
▁উপকারী	-3003
▁বিজ্ঞান	-3004
▁ভিড়	-3005
▁পরীক্ষার	-3006
▁বাংলাদেশ	-3007
▁মুক্ত	-3008
▁রোহিত	-3009
▁মুখোমুখ	-3010
ময়	-3011
রাধ	-3012
াজি	-3013
▁ডিম	-3014
▁মাই	-3015
▁স্থানে	-3016
▁তৃণমূলে	-3017
▁সক্রিয়	-3018
▁সামাজিক	-3019
▁জগ	-3020
▁লিখ	-3021
স্টের	-3022
▁কতটা	-3023
▁দিল্লির	-3024
শ্য	-3025
▁ফিল	-3026
engal	-3027
▁অবশেষে	-3028
▁দফতরের	-3029
▁ঘটনাস্থলে	-3030
▁ভ্র	-3031
চিত্র	-3032
▁ক্যাল	-3033
▁বিবাহ	-3034
▁মুখোমুখি	-3035
বর্ষ	-3036
▁বীরভূ	-3037
▁মিছিল	-3038
▁স্মার্টফোন	-3039
▁হাইকোর্টের	-3040
্ভ	-3041
▁গৃহ	-3042
▁পর্যা	-3043
▁লকডাউন	-3044
▁শান্তি	-3045
▁প্রকাশিত	-3046
▁প্রস্তুত	-3047
▁প্রয়োজনীয়	-3048
▁০	-3049
▁Re	-3050
▁ঝুঁকি	-3051
▁রক্ষা	-3052
▁জল্পনা	-3053
▁বারবার	-3054
▁হিন্দু	-3055
▁4	-3056
মূল	-3057
▁রং	-3058
▁কাটা	-3059
▁অন্তত	-3060
▁গিয়েছেন	-3061
াও	-3062
▁ঢে	-3063
▁2021	-3064
▁ব্যক্তিগত	-3065
▁সেপ্টেম্বর	-3066
▁ক্যাপ	-3067
▁যাঁরা	-3068
▁নিয়েই	-3069
▁গিয়েছিলেন	-3070
ঘাট	-3071
▁টিকিট	-3072
▁শিশুর	-3073
বিল	-3074
স্প	-3075
োরে	-3076
্যো	-3077
ঞ্জন	-3078
াকাল	-3079
▁পাহ	-3080
▁পের	-3081
▁কোথাও	-3082
▁রীতিম	-3083
▁ফুল	-3084
em	-3085
বিশ	-3086
▁পত	-3087
▁নষ্ট	-3088
▁ব্লক	-3089
▁সমর্থন	-3090
▁তত	-3091
▁পুরনো	-3092
ত্য	-3093
ানস	-3094
ঠনের	-3095
▁খাব	-3096
▁জমি	-3097
ollow	-3098
বঙ্গে	-3099
▁ইঞ্জ	-3100
্যান্ট	-3101
▁পূর্ণ	-3102
▁পরিচালক	-3103
▁হাসপাতালের	-3104
াজন	-3105
▁ইস	-3106
ষ্কৃত	-3107
▁অল্প	-3108
▁প্রো	-3109
▁অ্যান্ড	-3110
কোন	-3111
▁লাগে	-3112
▁পড়েন	-3113
ট্টা	-3114
▁গ্ল	-3115
▁দাগ	-3116
▁পরিষ	-3117
▁তালিব	-3118
▁সক্ষম	-3119
▁সামান্য	-3120
▁প্রস্তুতি	-3121
শনে	-3122
▁তাম	-3123
▁সফল	-3124
▁কৃষক	-3125
▁আমাকে	-3126
▁দাঁড়	-3127
▁হর	-3128
বাসী	-3129
▁কিন	-3130
▁সর্	-3131
▁ঘরের	-3132
▁তত্‍	-3133
▁তোলা	-3134
▁খবরের	-3135
▁চুক্ত	-3136
▁তারিখ	-3137
▁কাউন্সিল	-3138
▁পাকিস্তান	-3139
্নি	-3140
কিছু	-3141
্যাগ	-3142
▁মায়ের	-3143
▁c	-3144
▁এমনই	-3145
▁মোদি	-3146
▁পারেননি	-3147
চনা	-3148
গঞ্জ	-3149
▁আইস	-3150
▁হেল	-3151
▁দেখুন	-3152
▁সন্দে	-3153
▁ব্লকের	-3154
▁বিস্তার	-3155
▁রাশিয়ার	-3156
▁জোট	-3157
▁বদল	-3158
▁থেকেও	-3159
▁দলীয়	-3160
▁নভেম্বর	-3161
▁আমেরিকার	-3162
▁ডাউন	-3163
▁প্রাক	-3164
▁অভিজ্ঞ	-3165
▁দ্বারা	-3166
▁প্রেমিক	-3167
▁গ্রেপ্তার	-3168
▁ষ	-3169
দ্য	-3170
▁চতু	-3171
▁ঢেউ	-3172
▁সেখানেই	-3173
কী	-3174
▁বই	-3175
ুমার	-3176
▁অঞ্চ	-3177
▁এখনো	-3178
▁কেবল	-3179
▁ব্যুরো	-3180
▁সরিয়ে	-3181
▁/	-3182
▁ধুয়ে	-3183
▁হার্ট	-3184
▁দীর্ঘদিন	-3185
▁সংবাদদাতা	-3186
▁পরিস্থিতির	-3187
ab	-3188
স্বা	-3189
▁যাব	-3190
▁সেন্ট	-3191
▁কোথায়	-3192
ul	-3193
▁রোজ	-3194
▁জার্	-3195
▁অপেক্ষা	-3196
▁গঠন	-3197
যোগ্য	-3198
▁পর্ব	-3199
▁গ্রুপ	-3200
▁মামলার	-3201
▁বিশেষজ্ঞরা	-3202
▁সংবাদমাধ্য	-3203
শাস	-3204
্টর	-3205
▁আগ্র	-3206
▁গুরুতর	-3207
▁চন্দ্র	-3208
▁কমিশনের	-3209
▁কয়েকজন	-3210
সন	-3211
িতার	-3212
নিষ্ঠ	-3213
▁মহাম	-3214
▁সাড়ে	-3215
ামূলক	-3216
▁রঙের	-3217
▁গ্রাহ	-3218
ণ্ডের	-3219
▁ভাইরাস	-3220
▁সিস্টে	-3221
দব	-3222
েও	-3223
্যুই	-3224
▁ইসল	-3225
▁বাগ	-3226
▁পারফ	-3227
▁জ্বাল	-3228
▁স্মৃতি	-3229
▁রাশিয়া	-3230
▁লাগিয়ে	-3231
উন্ড	-3232
▁করব	-3233
▁অর্জ	-3234
▁কৃষি	-3235
▁প্রকল্পের	-3236
▁অ্যাকাউন্ট	-3237
থর	-3238
িনার	-3239
্যাক্স	-3240
▁মৃতদেহ	-3241
▁পড়ুয়া	-3242
▁পাকিস্তানের	-3243
ঙ্কের	-3244
▁ক্রম	-3245
▁ক্ষম	-3246
▁চোখে	-3247
▁পুরস্কার	-3248
দির	-3249
মকে	-3250
াংশ	-3251
িশন	-3252
▁হিং	-3253
ভুক্ত	-3254
▁দুপুর	-3255
▁গাড়ির	-3256
সংখ	-3257
▁২৮	-3258
▁গুঁ	-3259
▁জবাব	-3260
▁পেরে	-3261
▁ভেবে	-3262
▁সচেতন	-3263
▁ধাক্কা	-3264
ch	-3265
ডার	-3266
▁নিজেই	-3267
▁মমতার	-3268
▁ইনস্টা	-3269
▁বাড়বে	-3270
▁চ্যাম্প	-3271
াজের	-3272
েশনের	-3273
▁টানা	-3274
ost	-3275
জের	-3276
্নার	-3277
▁ধৃত	-3278
▁শীত	-3279
▁তৈরির	-3280
▁পর্যট	-3281
▁Follow	-3282
▁অভিযোগে	-3283
▁স্বাস্থ্যের	-3284
চের	-3285
দেব	-3286
▁সেক	-3287
▁কমাতে	-3288
▁কিশোর	-3289
▁নন্দী	-3290
▁Bengal	-3291
এক	-3292
শে	-3293
jee	-3294
▁নু	-3295
▁শব	-3296
▁জাহ	-3297
▁পিছনে	-3298
▁তদন্তে	-3299
▁স্বপ্ন	-3300
▁শিশুদের	-3301
iv	-3302
রাহ	-3303
াতার	-3304
কালীন	-3305
▁গভীর	-3306
▁চোখের	-3307
▁জড়িয়ে	-3308
▁?	-3309
▁নিখ	-3310
ভারতীয়	-3311
গু	-3312
দক	-3313
▁ধোন	-3314
▁উঠতে	-3315
▁মেয়ের	-3316
্যালেঞ্জ	-3317
▁ইন্ডিয়া	-3318
সু	-3319
বরে	-3320
▁মল	-3321
▁লুক	-3322
▁আঘাত	-3323
▁খোঁজ	-3324
▁খেলতে	-3325
▁গবেষণ	-3326
▁পড়ার	-3327
▁শ্রেণ	-3328
▁চিকিত্‍সক	-3329
োধন	-3330
▁নাব	-3331
▁আনতে	-3332
িংয়ের	-3333
▁গোষ্ঠ	-3334
▁প্রবল	-3335
▁সিপিএ	-3336
ub	-3337
রী	-3338
লাপ	-3339
▁ক্ষোভ	-3340
▁বিবৃতি	-3341
▁যেভাবে	-3342
▁দিচ্ছেন	-3343
▁বাহিনীর	-3344
00	-3345
বির	-3346
োতে	-3347
▁শি	-3348
ওয়ে	-3349
িত্রে	-3350
▁করছি	-3351
▁দত্ত	-3352
▁উত্‍প	-3353
▁কিছুই	-3354
▁যাদের	-3355
▁গবেষণা	-3356
▁নিয়েও	-3357
▁দেখিয়ে	-3358
▁ভালোবাস	-3359
৯৯	-3360
বন্ধ	-3361
▁ছয়	-3362
▁পুরসভার	-3363
আমি	-3364
▁পরিণ	-3365
▁অত্যা	-3366
▁ভট্টা	-3367
▁মেডিক্যাল	-3368
জনে	-3369
▁তদন্তের	-3370
▁পেট্রোল	-3371
▁পেয়েছেন	-3372
▁জানিয়েছিলেন	-3373
▁f	-3374
▁শর্মা	-3375
▁দুষ্কৃত	-3376
▁চ্যালেঞ্জ	-3377
নগর	-3378
▁মিস	-3379
▁খুঁজে	-3380
▁শিকার	-3381
▁গুণ	-3382
মিক্র	-3383
াত্মক	-3384
▁জয়ের	-3385
▁জানায়	-3386
▁অনুসারে	-3387
▁মহারাষ্ট্র	-3388
ঞ্জাব	-3389
▁ব্যর্থ	-3390
▁ভিত্তিতে	-3391
▁২৯	-3392
কর্ত	-3393
াকালীন	-3394
▁খেলার	-3395
▁ঠান্ড	-3396
▁ডিগ্র	-3397
▁সাক্ষাত্‍	-3398
গরে	-3399
গার	-3400
▁অজ	-3401
শনের	-3402
▁দের	-3403
ুয়াল	-3404
▁ভারী	-3405
জ্জ্বল	-3406
▁ডাউনলোড	-3407
▁ডায়াবে	-3408
▁যুদ্ধবি	-3409
▁বেশিরভাগ	-3410
▁।।	-3411
্নাই	-3412
▁কার্	-3413
কারীদের	-3414
▁অনুরাগ	-3415
▁হাওড়া	-3416
▁!	-3417
ডিও	-3418
▁সংক	-3419
angla	-3420
▁নিম্ন	-3421
▁উন্নতি	-3422
▁চরিত্রে	-3423
▁২০১৯	-3424
াস্ত্র	-3425
▁অ্যাক	-3426
▁কিভাবে	-3427
▁ইত্যাদি	-3428
▁অক্সিজেন	-3429
▁কেন্দ্রে	-3430
পরে	-3431
াঙ্গ	-3432
▁জের	-3433
▁দখল	-3434
▁এদের	-3435
▁মিত্র	-3436
▁চরিত্র	-3437
▁মেট্রো	-3438
▁প্রান্ত	-3439
লেট	-3440
▁ফর	-3441
▁সিন	-3442
▁চুলের	-3443
▁জন্যই	-3444
▁প্রিয়া	-3445
দিল	-3446
▁ইম	-3447
▁ওর	-3448
▁জড়	-3449
াচ্ছে	-3450
▁বেছে	-3451
▁বাংলাদেশের	-3452
▁to	-3453
টারি	-3454
▁দুঃ	-3455
▁দুর্দ	-3456
▁সংগ্রহ	-3457
▁একমাত্র	-3458
নালে	-3459
াতেই	-3460
▁ঘুরে	-3461
▁পাতা	-3462
▁বাঁধ	-3463
▁হলুদ	-3464
▁বিজয়	-3465
▁মাত্রা	-3466
▁কাশ্মীর	-3467
▁প্রতিক্র	-3468
াবিল	-3469
াবাদের	-3470
রকম	-3471
▁বরং	-3472
▁সত্ত	-3473
▁নিষেধ	-3474
▁কয়েকদিন	-3475
of	-3476
্ণ	-3477
▁‘	-3478
ামি	-3479
ধানে	-3480
▁আসনে	-3481
▁একাংশ	-3482
▁শ্রীল	-3483
▁৩১	-3484
▁আরেক	-3485
▁সংঘর্ষ	-3486
▁অবস্থান	-3487
▁কর্মসূচি	-3488
এল	-3489
টিল	-3490
সাই	-3491
শ্রী	-3492
▁ফোনে	-3493
▁তুলতে	-3494
▁পাচার	-3495
▁ওমিক্র	-3496
▁চতুর্থ	-3497
▁প্রজাত	-3498
▁বাড়াতে	-3499
ুনা	-3500
▁ভু	-3501
োলের	-3502
্প্র	-3503
▁অসম	-3504
▁চাষ	-3505
্যাশন	-3506
▁পারেনি	-3507
▁ভিডিয়	-3508
▁চেন্নাই	-3509
app	-3510
ঁচা	-3511
▁চর্	-3512
বিহার	-3513
াকায়	-3514
▁কন্যা	-3515
▁এড়িয়ে	-3516
▁নেত্রী	-3517
▁পুষ্টি	-3518
▁উন্নয়ন	-3519
▁নেতাদের	-3520
ভাস	-3521
মাস	-3522
▁গৌ	-3523
ুরুর	-3524
্টার	-3525
▁পয়	-3526
▁যিনি	-3527
▁শুনে	-3528
▁হুমকি	-3529
▁ব্যস্ত	-3530
▁সাফল্য	-3531
▁আইনজীবী	-3532
▁আদালতের	-3533
▁মহিলাদের	-3534
ালো	-3535
▁আফ্র	-3536
▁বিধি	-3537
▁সোনা	-3538
▁চৌধুর	-3539
▁তল্লা	-3540
▁নামের	-3541
▁দিল্লিতে	-3542
▁দুর্ঘটনা	-3543
▁রাষ্ট্রপতি	-3544
ুগল	-3545
▁ঘন	-3546
▁জা	-3547
্যাণ	-3548
▁মাত	-3549
▁চলুন	-3550
▁দিবস	-3551
▁টিকাকরণ	-3552
▁টুইটারে	-3553
20	-3554
াতি	-3555
▁24	-3556
▁ইউর	-3557
▁ঘাট	-3558
▁ঝাঁ	-3559
▁টান	-3560
বারের	-3561
▁তখনই	-3562
▁সেটি	-3563
▁গেলেন	-3564
▁তেমনই	-3565
▁দূরত্ব	-3566
▁রান্না	-3567
▁নম	-3568
▁৬০	-3569
ভাইর	-3570
▁অভাব	-3571
▁থাকছে	-3572
▁নির্মাণ	-3573
▁ইন্ডিয়ান	-3574
চ্ছি	-3575
▁মহম	-3576
▁নুসর	-3577
▁নাবাল	-3578
▁সহযোগ	-3579
▁ধারাবাহ	-3580
▁নান	-3581
▁নবান	-3582
▁মিলবে	-3583
▁হজ	-3584
▁গর্	-3585
্যোতি	-3586
▁চাহি	-3587
▁অফিসে	-3588
▁দিনটি	-3589
▁জানাতে	-3590
ook	-3591
গের	-3592
বুর	-3593
▁মোক	-3594
ource	-3595
ন্দের	-3596
▁অঙ্গ	-3597
▁আবারও	-3598
▁যোগ্য	-3599
▁দম	-3600
নীয়	-3601
▁পৌর	-3602
ছিলাম	-3603
▁অন্ধ	-3604
▁শ্বাস	-3605
▁পয়েন্ট	-3606
▁হাইকোর্ট	-3607
▁সর্বভারতীয়	-3608
▁কথ	-3609
ালোচ	-3610
িত্ত	-3611
▁সান	-3612
▁পাহাড়	-3613
▁কৃষকদের	-3614
ik	-3615
▁সুন	-3616
▁গবেষ	-3617
▁পাড়	-3618
▁অপরাধ	-3619
▁খেলোয়া	-3620
▁অনুষ্ঠিত	-3621
হ্ন	-3622
ব্রত	-3623
▁অবর	-3624
▁কোহ	-3625
▁পরিশ	-3626
▁বেলা	-3627
▁বাচ্চ	-3628
▁আধ	-3629
▁পট	-3630
্বংস	-3631
র্শিদ	-3632
▁অবাক	-3633
▁ঢুকে	-3634
▁২০২২	-3635
ক্ষায়	-3636
▁অলিম্প	-3637
▁চালানো	-3638
▁বর্ধমান	-3639
োদ	-3640
▁ডিস	-3641
etail	-3642
চন্দ্র	-3643
▁দফায়	-3644
▁লক্ষণ	-3645
▁ঝুল	-3646
▁মৃতের	-3647
▁অর্জুন	-3648
▁করেননি	-3649
▁রু	-3650
্যাব	-3651
অ্যাপ	-3652
▁সমিত	-3653
োমিটার	-3654
▁ঠান্ডা	-3655
▁রায়ের	-3656
▁একেবারেই	-3657
হাদ	-3658
▁চূ	-3659
ুব্র	-3660
▁দলকে	-3661
▁ফলাফল	-3662
▁ফেলুন	-3663
▁বলিউড	-3664
▁দাবিতে	-3665
▁পরিচয়	-3666
▁মুর্শিদ	-3667
▁মোকাবিল	-3668
ip	-3669
াবহ	-3670
েনা	-3671
▁সন্দেহ	-3672
▁সমালোচ	-3673
▁রাজ্যপাল	-3674
দম	-3675
ানিক	-3676
িকেল	-3677
▁লেখেন	-3678
▁কৌশ	-3679
▁মনো	-3680
▁হোম	-3681
etails	-3682
গ্রস্ত	-3683
▁ক্যান	-3684
▁শিলিগ	-3685
▁নির্ভর	-3686
ন্থ	-3687
যাত্র	-3688
▁এক্ষ	-3689
▁যত্ন	-3690
▁সবুজ	-3691
▁হতেই	-3692
ুস্থান	-3693
▁ব্যাক	-3694
▁সকলেই	-3695
▁অনলাইন	-3696
▁উজ্জ্বল	-3697
.)	-3698
৫০	-3699
ace	-3700
▁মেক	-3701
▁ট্যুই	-3702
▁মিষ্টি	-3703
▁স্কুলে	-3704
ূন্য	-3705
▁আগেও	-3706
▁আবহে	-3707
▁ইস্ট	-3708
▁নীতি	-3709
▁পরেও	-3710
▁দোকান	-3711
▁ধারণা	-3712
▁প্রচারে	-3713
▁রীতিমতো	-3714
▁প্রধানমন্ত্রীর	-3715
ভোগ	-3716
▁নারী	-3717
▁হোয়া	-3718
▁সমাচার	-3719
▁নির্যাত	-3720
ঙ্খ	-3721
▁বী	-3722
ায়া	-3723
▁দুন	-3724
▁রবী	-3725
▁শুভে	-3726
▁করলেও	-3727
▁করেছি	-3728
▁থাকুন	-3729
▁স্বীকার	-3730
▁বিস্তারিত	-3731
টিজ	-3732
বাড়	-3733
্বেও	-3734
▁the	-3735
▁জেন	-3736
▁পজি	-3737
▁আসানস	-3738
▁খানের	-3739
▁বিপুল	-3740
▁মহম্মদ	-3741
▁যুবকের	-3742
▁সদস্যরা	-3743
▁ক্ষমতায়	-3744
ut	-3745
hats	-3746
ুকুর	-3747
ction	-3748
▁আতঙ্ক	-3749
▁এরপরই	-3750
▁ত্বকে	-3751
▁উত্‍সব	-3752
▁যাচ্ছেন	-3753
io	-3754
ক্য	-3755
শ্র	-3756
িন্ড	-3757
ার্জি	-3758
▁এখান	-3759
▁দুজন	-3760
▁ইসলাম	-3761
▁স্ক্র	-3762
▁রাজধান	-3763
▁প্রতিযোগ	-3764
▁সম্পর্কের	-3765
কেশ	-3766
▁আঁ	-3767
▁ফুটব	-3768
▁বিশাল	-3769
▁ডিগ্রি	-3770
▁ডেস্কঃ	-3771
▁ভয়াবহ	-3772
▁দুর্দান্ত	-3773
▁6	-3774
ণ্য	-3775
বছর	-3776
▁আউট	-3777
▁এটাই	-3778
▁রানের	-3779
▁লকডাউ	-3780
▁অনুব্র	-3781
▁প্রদান	-3782
▁সরকারকে	-3783
▁বিদ্যুত্‍	-3784
শিপ	-3785
▁গের	-3786
▁মেন	-3787
▁জনকে	-3788
▁মুসল	-3789
▁স্টে	-3790
▁অ্যাম	-3791
▁সন্ত্র	-3792
av	-3793
ান্ট	-3794
▁ঝড়	-3795
ান্তর	-3796
▁চারটি	-3797
▁রোগের	-3798
▁উত্তেজ	-3799
▁তল্লাশি	-3800
▁পিছিয়ে	-3801
▁রবীন্দ্র	-3802
▁ভট্টাচার্য	-3803
▁ডা	-3804
▁হু	-3805
াজ্ঞ	-3806
▁কোলে	-3807
▁চার্জ	-3808
▁|	-3809
ome	-3810
টেড	-3811
▁আঙ	-3812
▁বিস	-3813
কর্মী	-3814
▁কখনো	-3815
▁পড়া	-3816
▁প্রয	-3817
▁লঞ্চ	-3818
▁চাইছে	-3819
▁দেখেন	-3820
▁ভ্রমণ	-3821
▁অনুমান	-3822
▁প্রতার	-3823
▁হোয়াটস	-3824
▁বিনিয়োগ	-3825
▁এক্ষেত্রে	-3826
▁তুম	-3827
▁source	-3828
▁পাল্টা	-3829
▁উত্‍পাদ	-3830
▁ক্যামেরা	-3831
gh	-3832
োলে	-3833
▁দুর	-3834
খ্যাত	-3835
▁মাদক	-3836
▁রোগী	-3837
বঙ্গের	-3838
▁আসন্ন	-3839
▁উচিত্‍	-3840
▁কিলোমিটার	-3841
▁চিকিত্‍সার	-3842
নির	-3843
েরও	-3844
▁মাহ	-3845
▁ইঙ্গ	-3846
কারীরা	-3847
▁কোহলি	-3848
▁বুদ্ধ	-3849
▁ঘনিষ্ঠ	-3850
▁পজিটিভ	-3851
▁কর্মসূচ	-3852
▁ব্যাপার	-3853
▁সাধারণত	-3854
য়র	-3855
▁of	-3856
▁চী	-3857
book	-3858
য়েন	-3859
▁বোন	-3860
▁টেলি	-3861
▁ডলার	-3862
▁মতোই	-3863
▁বোর্ড	-3864
▁উত্তেজনা	-3865
িমা	-3866
▁তু	-3867
▁দৌ	-3868
▁উপস	-3869
▁জলপ	-3870
▁মেশ	-3871
▁উঠছে	-3872
▁ধর্ষণ	-3873
▁মণ্ডল	-3874
▁আলিপুর	-3875
্য়	-3876
▁সাহ	-3877
▁ঐতিহ	-3878
▁চলচ্	-3879
▁পূরণ	-3880
▁শব্দ	-3881
▁অবরোধ	-3882
▁ইনিংস	-3883
▁অভ্যাস	-3884
▁করিয়ে	-3885
▁ফেসবুক	-3886
▁ক্ষেত্র	-3887
▁প্রাকৃতিক	-3888
▁চ্যাম্পিয়ন	-3889
ামা	-3890
▁কাঠ	-3891
▁ভুগ	-3892
▁মেঘ	-3893
▁রোড	-3894
▁সড়	-3895
▁অক্ষ	-3896
▁প্যা	-3897
▁ভুয়ো	-3898
▁লেবুর	-3899
▁সহজেই	-3900
acebook	-3901
▁চাহিদা	-3902
▁দুর্বল	-3903
▁নেতারা	-3904
▁স্টেশন	-3905
▁খেলোয়াড়	-3906
তন	-3907
জির	-3908
▁শত	-3909
টিটি	-3910
▁অবস	-3911
▁এরই	-3912
▁ভোগ	-3913
ঙ্গাল	-3914
▁প্রয়	-3915
▁কল্যাণ	-3916
▁যুদ্ধবিমান	-3917
াখ	-3918
চিব	-3919
জন্য	-3920
মধ্য	-3921
▁চির	-3922
ation	-3923
▁অঙ্ক	-3924
▁কন্ট	-3925
▁দিলে	-3926
▁মাটি	-3927
▁অ্যাসিড	-3928
um	-3929
থেকে	-3930
েশ্ব	-3931
india	-3932
▁মন্ড	-3933
▁ব্যান	-3934
▁যেকোন	-3935
▁ইঙ্গিত	-3936
▁ইউক্রেন	-3937
▁প্রশ্নের	-3938
▁প্রতিক্রিয়া	-3939
শান	-3940
োলা	-3941
▁নিঃ	-3942
▁বোধ	-3943
কুমার	-3944
ক্ষার	-3945
▁ডেকে	-3946
▁রহস্য	-3947
▁অনেকটা	-3948
▁গান্ধী	-3949
▁সংগঠনের	-3950
▁সদস্যদের	-3951
▁ইউক্রেনের	-3952
্থ	-3953
দ্ধা	-3954
োগান	-3955
য়নের	-3956
▁পেঁয়	-3957
▁ফিচার	-3958
▁অনুরোধ	-3959
▁আকর্ষণ	-3960
▁উপসর্গ	-3961
▁হচ্ছেন	-3962
▁অনলাইনে	-3963
▁প্রয়োগ	-3964
▁ফিরিয়ে	-3965
ঙ্কে	-3966
▁ফলো	-3967
▁মের	-3968
▁জম্ম	-3969
▁পুনর	-3970
▁মহিলার	-3971
ফাই	-3972
▁অথচ	-3973
▁আলো	-3974
ক্ষিত	-3975
▁চূড়	-3976
য়েন্টি	-3977
▁জ্যোতি	-3978
▁করোনাভাইর	-3979
▁বিধানসভার	-3980
াতের	-3981
েশনে	-3982
▁মানে	-3983
▁হায়	-3984
▁রাতের	-3985
▁সংস্ক	-3986
▁গেরুয়া	-3987
ev	-3988
▁ইয়	-3989
▁শিখ	-3990
▁স্পেশ	-3991
▁আমেরিকা	-3992
▁তালিবান	-3993
▁হোয়াটসঅ্যাপ	-3994
op	-3995
▁৩৫	-3996
বাবু	-3997
র্মে	-3998
▁সমী	-3999
▁সায়	-4000
▁করতেন	-4001
▁কাউকে	-4002
▁নেতার	-4003
▁বিকল্প	-4004
ak	-4005
▁ঈ	-4006
মরা	-4007
▁জু	-4008
বন্দি	-4009
▁প্রণ	-4010
▁মালদা	-4011
▁খাবারের	-4012
▁সাম্প্র	-4013
▁কিছুক্ষণ	-4014
▁w	-4015
পরি	-4016
বাদী	-4017
াজিত	-4018
▁তোল	-4019
▁নীল	-4020
▁বলি	-4021
▁বলার	-4022
▁আগস্ট	-4023
▁প্রোট	-4024
▁প্রশিক্ষ	-4025
▁প্রতিবাদে	-4026
ঘ্র	-4027
ভূত	-4028
▁নিক	-4029
ূর্তি	-4030
▁চিনি	-4031
ছাত্রী	-4032
▁অগ্নি	-4033
▁চিত্র	-4034
▁বিনোদন	-4035
▁স্কুলের	-4036
▁নেতৃত্বে	-4037
াদে	-4038
▁ভী	-4039
িতেই	-4040
erjee	-4041
▁দিনাজ	-4042
▁বেঞ্চ	-4043
▁রেলের	-4044
▁উদ্যোগে	-4045
▁ট্রাম্প	-4046
▁মন্দিরে	-4047
▁চূড়ান্ত	-4048
od	-4049
▁রয়	-4050
▁নিহত	-4051
▁পরিব	-4052
▁যাদব	-4053
▁বাড়তি	-4054
▁লোকসভা	-4055
▁বলিউডের	-4056
ারী	-4057
োনার	-4058
▁প্লে	-4059
▁কাটবে	-4060
▁বাসিন্দারা	-4061
▁বিশেষজ্ঞদের	-4062
re	-4063
▁সৈ	-4064
▁জাল	-4065
▁ডিভ	-4066
▁ঢুক	-4067
বিন্দ	-4068
▁ইস্ত	-4069
▁মনোন	-4070
হর	-4071
শের	-4072
▁এজ	-4073
News	-4074
▁ভেত	-4075
▁বিগত	-4076
▁গেলেও	-4077
▁চিহ্ন	-4078
▁পড়বে	-4079
▁সিরিজের	-4080
▁সেনাবাহ	-4081
▁উদ্দেশ্যে	-4082
▁দাঁড়িয়েছে	-4083
দু	-4084
সির	-4085
▁in	-4086
▁শির	-4087
▁রাজি	-4088
▁রানে	-4089
▁লাইফ	-4090
▁লেগে	-4091
▁জড়িত	-4092
▁জেনার	-4093
▁রাশিফল	-4094
▁হামলার	-4095
▁বিদ্যাল	-4096
▁ব্যাটিং	-4097
েতু	-4098
ন্টা	-4099
পাশে	-4100
িসের	-4101
▁শোভ	-4102
▁খবরে	-4103
▁পরের	-4104
▁ওয়ান	-4105
▁পড়াশ	-4106
▁সঞ্জয়	-4107
▁বিজ্ঞপ্ত	-4108
টক	-4109
টর	-4110
াজে	-4111
িজে	-4112
▁Ad	-4113
নেতা	-4114
য়েড	-4115
ালির	-4116
ুনিক	-4117
▁রাস	-4118
▁চলতে	-4119
▁নায়	-4120
শিয়ার	-4121
▁টাকায়	-4122
▁ঝাড়গ্রাম	-4123
)-	-4124
ort	-4125
▁অসু	-4126
ন্দ্ব	-4127
▁এরকম	-4128
▁জয়ী	-4129
▁মনের	-4130
▁বিষ্ণ	-4131
▁সম্পন্ন	-4132
▁চিকিত্‍সকরা	-4133
▁v	-4134
ংসা	-4135
▁উভ	-4136
স্তা	-4137
▁পাস	-4138
গুলোর	-4139
দর্শন	-4140
▁লিটার	-4141
▁সবথেকে	-4142
▁পৃথিবীর	-4143
ঢ়	-4144
▁ইর	-4145
▁মস	-4146
▁৪৫	-4147
কেটে	-4148
▁কষ্ট	-4149
▁কাপুর	-4150
▁দৃশ্য	-4151
▁মস্তি	-4152
▁শীঘ্র	-4153
▁সরবরাহ	-4154
▁সিস্টেম	-4155
▁কোচবিহার	-4156
▁সত্ত্বেও	-4157
▁চলচ্চিত্র	-4158
শী	-4159
ফার	-4160
▁অম	-4161
▁কৃত	-4162
▁দাপ	-4163
▁খালি	-4164
▁থানা	-4165
eindia	-4166
▁Whats	-4167
▁এমনকী	-4168
▁সূর্য	-4169
ার্থীদের	-4170
▁বিভাগের	-4171
▁শিবিরের	-4172
▁পঞ্চায়েতের	-4173
দহ	-4174
পো	-4175
▁বুক	-4176
▁মিটার	-4177
▁প্রতীক	-4178
▁কাটিয়ে	-4179
▁স্ত্রীর	-4180
dat	-4181
ম্বে	-4182
▁চরম	-4183
কুড়া	-4184
▁ক্লাব	-4185
▁ঠাকুর	-4186
▁শুরুর	-4187
lection	-4188
▁শিবিরে	-4189
▁*	-4190
▁Ban	-4191
▁দাদ	-4192
▁অতিম	-4193
▁নজরে	-4194
▁বাজে	-4195
▁মুখের	-4196
▁ব্যবসা	-4197
▁গাড়িতে	-4198
▁প্রাপ্ত	-4199
▁ভিডিয়ো	-4200
ish	-4201
ডেন	-4202
থের	-4203
গরের	-4204
ার্ন	-4205
▁দোষ	-4206
▁পাই	-4207
▁আয়ো	-4208
দিল্লি	-4209
▁করেনি	-4210
▁চুক্তি	-4211
▁পাঠিয়ে	-4212
▁বিনামূল	-4213
▁নিষেধাজ্ঞ	-4214
Get	-4215
art	-4216
সাম	-4217
▁ছুঁ	-4218
▁তবু	-4219
র্নাম	-4220
▁কঙ্গ	-4221
▁উন্নত	-4222
▁বিকাশ	-4223
▁অনুব্রত	-4224
▁মেডিকেল	-4225
▁নিয়েছিলেন	-4226
।।	-4227
ine	-4228
▁St	-4229
▁Tw	-4230
Home	-4231
গ্রী	-4232
জনকে	-4233
▁টুক	-4234
▁কেজি	-4235
▁জটিল	-4236
▁তাড়	-4237
▁বোঝা	-4238
▁হাড়	-4239
▁ছেলের	-4240
▁জম্মু	-4241
প্রাপ্ত	-4242
▁মিনিটে	-4243
▁ব্যবসায়ী	-4244
ফ্র	-4245
ন্দন	-4246
▁কুল	-4247
NewsD	-4248
▁নিচে	-4249
▁আগ্রহ	-4250
▁দারুণ	-4251
GetNewsD	-4252
▁বানিয়ে	-4253
GetNewsDetails	-4254
▁নৌ	-4255
....	-4256
▁ক্রে	-4257
তন্ত্র	-4258
▁আজকাল	-4259
▁দ্বার	-4260
▁প্রযোজ	-4261
▁প্রেমের	-4262
র্নামেন্ট	-4263
▁শুভেচ্ছা	-4264
▁স্বাধীনতা	-4265
▁ইলে	-4266
▁কঠোর	-4267
▁সুস্	-4268
▁এসেছেন	-4269
▁প্রশংসা	-4270
▁জিজ্ঞাসাবাদ	-4271
▁প্রিয়াঙ্কা	-4272
ফাজ	-4273
▁শত্র	-4274
▁নেবেন	-4275
▁যোগদান	-4276
▁সন্তানের	-4277
৩০	-4278
চীন	-4279
▁পদ্	-4280
বাচিত	-4281
▁নাইট	-4282
▁শ্যু	-4283
▁সদ্য	-4284
▁বাবার	-4285
▁সেটাই	-4286
▁কোর্টের	-4287
পুরি	-4288
টিজেন	-4289
▁অগ্র	-4290
ডা	-4291
▁অধি	-4292
▁কেকে	-4293
▁চাইলে	-4294
▁সার্ভ	-4295
▁হেফাজ	-4296
▁রিপোর্	-4297
▁সঙ্গেই	-4298
▁ডাক্তার	-4299
▁টুর্নামেন্ট	-4300
▁শাহর	-4301
▁সফরে	-4302
▁জলপাই	-4303
▁রোগীদের	-4304
▁oneindia	-4305
▁সন্ত্রাস	-4306
ide	-4307
াজা	-4308
াবি	-4309
িমি	-4310
▁জন্	-4311
▁যৌথ	-4312
▁হ্র	-4313
শিক্ষ	-4314
▁চুরি	-4315
▁কমেছে	-4316
▁গলায়	-4317
▁বাড়ানো	-4318
পণ	-4319
▁>	-4320
...	-4321
হাট	-4322
ুতে	-4323
ত্রী	-4324
হেতু	-4325
াবাস	-4326
িষ্ট	-4327
▁এলে	-4328
▁জিবি	-4329
▁এভাবে	-4330
▁ভূমিক	-4331
▁ওয়ার্ডের	-4332
▁রাজনীতিতে	-4333
পূর্	-4334
বাচক	-4335
▁চাঁ	-4336
▁চোট	-4337
▁মানব	-4338
তিবাচক	-4339
শ্রুতি	-4340
▁কোর্ট	-4341
▁চলাকালীন	-4342
▁ইংল্যান্ডের	-4343
হাল	-4344
ফিকে	-4345
োনাল	-4346
ঙ্গের	-4347
▁মডেল	-4348
▁টেবিল	-4349
▁ব্যয়	-4350
▁ভাড়া	-4351
▁লিভার	-4352
▁শীঘ্রই	-4353
▁সম্মেল	-4354
▁প্ল্যান	-4355
▁অভিযোগের	-4356
▁দুর্নীতি	-4357
▁সেক্ষেত্রে	-4358
im	-4359
মত	-4360
▁l	-4361
চুর	-4362
বাণ	-4363
▁ভগ	-4364
প্লে	-4365
▁বসু	-4366
▁অশোক	-4367
▁দেড়	-4368
▁মোহন	-4369
▁এটিকে	-4370
▁করায়	-4371
▁চৌধুরী	-4372
▁ব্রিটি	-4373
▁ভালবাস	-4374
▁ফাইনালে	-4375
▁প্রতিবেশ	-4376
গোল	-4377
▁ফা	-4378
ৃঙ্খ	-4379
▁কোর	-4380
▁একুশ	-4381
▁মহান	-4382
▁হতাশ	-4383
ডিয়াম	-4384
▁দিয়েই	-4385
▁প্রকৃত	-4386
▁অধিকাংশ	-4387
ers	-4388
ফের	-4389
▁কবে	-4390
ত্ত্ব	-4391
মিত্র	-4392
▁কর্ণ	-4393
▁রসুন	-4394
▁পয়সা	-4395
▁ভার্চ	-4396
▁জওয়ান	-4397
▁প্রয়াত	-4398
▁কোম্পানি	-4399
▁ক্রিকেটে	-4400
▁গঙ্গোপাধ্যায়	-4401
ঙ্ঘ	-4402
▁Vi	-4403
▁সিক	-4404
▁গানের	-4405
▁পারছেন	-4406
▁ব্রিটিশ	-4407
▁মাধ্যমিক	-4408
দ্দ	-4409
মতো	-4410
আমরা	-4411
ামীর	-4412
▁সফর	-4413
▁অর্ধ	-4414
▁পড়ল	-4415
▁নির্ম	-4416
▁সামরিক	-4417
▁মারাত্মক	-4418
ংক	-4419
ষি	-4420
নেই	-4421
▁কারা	-4422
▁পরিণত	-4423
▁ভাগ্য	-4424
▁সঙ্গী	-4425
▁ব্যায়	-4426
্যান্ডের	-4427
▁উত্‍সাহ	-4428
▁দপ্তরের	-4429
▁সুরক্ষা	-4430
▁ভাইরাসের	-4431
▁সপ্তাহের	-4432
াসা	-4433
▁৭০	-4434
▁খবরঃ	-4435
ায়কের	-4436
▁ইস্যু	-4437
▁ব্রিট	-4438
▁রাখেন	-4439
▁পর্যবে	-4440
▁বিপর্য	-4441
▁মুসলিম	-4442
▁ম্যানে	-4443
▁নেটিজেন	-4444
▁বিনামূল্যে	-4445
▁ag	-4446
পাড়	-4447
ভাগে	-4448
▁ছাপ	-4449
দুয়ার	-4450
▁ইউরোপ	-4451
▁ওয়াল	-4452
▁মঞ্চে	-4453
▁মাদ্র	-4454
▁এবারের	-4455
▁পুরসভা	-4456
▁কর্মকর্ত	-4457
PL	-4458
বাং	-4459
▁মশ	-4460
▁সল	-4461
▁গাঁ	-4462
▁ধাপ	-4463
▁অনুপ	-4464
▁বিকে	-4465
▁মুখপ	-4466
সাধারণ	-4467
▁ঘন্টা	-4468
▁নিলেন	-4469
▁বিকেল	-4470
▁আপনাদের	-4471
খি	-4472
োব	-4473
Zee	-4474
lic	-4475
সিবি	-4476
▁তাও	-4477
▁রুপ	-4478
▁রানা	-4479
▁টিকার	-4480
▁শ্যাম	-4481
▁স্বাদ	-4482
▁যাত্রা	-4483
ভাষ	-4484
▁জাপ	-4485
রিয়া	-4486
▁নেবে	-4487
▁যাবত	-4488
মন্ত্র	-4489
▁বেঁধে	-4490
▁চাইছেন	-4491
▁তত্‍পর	-4492
▁সবসময়	-4493
▁বিখ্যাত	-4494
▁এসেছিলেন	-4495
ww	-4496
উজ	-4497
চক	-4498
কুমা	-4499
▁মাঠ	-4500
▁জাতক	-4501
▁ধন্য	-4502
▁ফাঁস	-4503
ন্টায়	-4504
▁পুত্র	-4505
্যাশনাল	-4506
▁পানীয়	-4507
▁মহকুমা	-4508
▁ওমিক্রন	-4509
▁অস্বীকার	-4510
▁সাহায্যে	-4511
▁ওঁ	-4512
লগ্ন	-4513
▁ডাল	-4514
▁হাউ	-4515
িসিআই	-4516
▁আসুন	-4517
▁ফাইন	-4518
▁গায়ে	-4519
▁বয়সী	-4520
▁বৃদ্ধির	-4521
▁মন্ত্রকের	-4522
মনি	-4523
মুখী	-4524
হারা	-4525
▁হৃদ	-4526
দানের	-4527
▁দুটো	-4528
▁এমনটা	-4529
▁পার্ক	-4530
▁ভাবেই	-4531
▁শূন্য	-4532
▁সম্মুখ	-4533
▁Facebook	-4534
▁নিরাপত্তার	-4535
▁পশ্চিমবঙ্গের	-4536
১০	-4537
▁“	-4538
্যক	-4539
▁An	-4540
▁কব	-4541
▁৩৪	-4542
▁ডেভ	-4543
▁পেছ	-4544
▁সের	-4545
▁Post	-4546
▁সচিব	-4547
▁সেরে	-4548
▁অ্যাড	-4549
▁ধ্বংস	-4550
▁শুটিং	-4551
▁পারফরম	-4552
▁প্রদেশ	-4553
▁বাঙালি	-4554
▁পড়েছেন	-4555
▁আধিকারিকরা	-4556
এইচ	-4557
িখে	-4558
▁আদি	-4559
▁আসল	-4560
▁এরা	-4561
▁যাই	-4562
ডেস্ক	-4563
▁আনার	-4564
▁রণবীর	-4565
▁সভায়	-4566
▁রাস্তার	-4567
▁প্রত্যাহার	-4568
ামত	-4569
▁উঠল	-4570
▁তেজ	-4571
▁যুগ	-4572
▁কোহল	-4573
▁ইতিহাস	-4574
▁দৃষ্টি	-4575
▁ঘন্টায়	-4576
▁ইন্টারনে	-4577
▁পুরোপুরি	-4578
পন	-4579
২১	-4580
▁ঊ	-4581
াকের	-4582
▁তাক	-4583
▁নথি	-4584
▁অফার	-4585
▁প্রজ	-4586
▁বুঝে	-4587
▁শোভন	-4588
▁স্থগ	-4589
▁করতেই	-4590
▁ক্রমশ	-4591
▁বিতর্	-4592
▁ফিরহাদ	-4593
▁আত্মীয়	-4594
▁আইপিএলের	-4595
▁প্রশাসনিক	-4596
ap	-4597
ইন	-4598
তাই	-4599
ভের	-4600
টায়	-4601
দলের	-4602
▁হাক	-4603
▁মাংস	-4604
▁তামিল	-4605
▁হাতের	-4606
▁নম্বরে	-4607
▁স্থগিত	-4608
▁ক্যাম্প	-4609
▁জেনারেল	-4610
▁মুখপাত্র	-4611
▁নির্বাচিত	-4612
▁ভব	-4613
▁৮০	-4614
সচিব	-4615
▁....	-4616
▁এসএস	-4617
ন্ত্রী	-4618
▁গোয়ে	-4619
▁তোলার	-4620
▁চালায়	-4621
▁পরিসংখ	-4622
▁রাখবেন	-4623
▁পুলিশকে	-4624
▁ত্রিপুরা	-4625
▁ওয়েবডেস্ক	-4626
▁মুর্শিদাবাদ	-4627
খম	-4628
োজন	-4629
▁দই	-4630
▁মদ	-4631
▁৩২	-4632
ঙ্গা	-4633
▁ago	-4634
▁ত্যাগ	-4635
▁সিপিএম	-4636
▁বাঁকুড়া	-4637
▁ভারতবর্ষ	-4638
▁বাংলাদেশে	-4639
▁ক্ষতিগ্রস্ত	-4640
িশ্	-4641
ম্বা	-4642
▁হিম	-4643
টেস্ট	-4644
▁ধরণের	-4645
▁বয়সে	-4646
▁রাজীব	-4647
▁গুঁড়ো	-4648
▁সাবধান	-4649
▁ফেসবুকে	-4650
▁সিলিন্ড	-4651
▁ওয়ার্ডে	-4652
▁গবেষণায়	-4653
▁পড়ুয়াদের	-4654
▁যুক্তরাষ্ট্র	-4655
জো	-4656
▁টল	-4657
ড়াল	-4658
▁শোক	-4659
▁অস্থ	-4660
▁বাইক	-4661
▁ভোটার	-4662
▁লোকজন	-4663
▁পূর্বা	-4664
▁যেহেতু	-4665
▁অশান্তি	-4666
▁আইপিএলে	-4667
▁মিনিটের	-4668
▁যাবতীয়	-4669
ck	-4670
কৃ	-4671
বধ	-4672
▁উনি	-4673
▁বাক	-4674
▁রেড	-4675
▁চত্ব	-4676
▁ভরসা	-4677
▁মেরে	-4678
▁যেসব	-4679
▁গেছেন	-4680
▁পেলেন	-4681
▁একদিকে	-4682
▁হচ্ছিল	-4683
▁মেয়েদের	-4684
শো	-4685
তাম	-4686
▁সংর	-4687
াতায়	-4688
▁ইনিং	-4689
▁হস্ত	-4690
▁হার্	-4691
▁চ্যান	-4692
▁জানুন	-4693
▁নুসরত	-4694
নির্বাচ	-4695
▁ফুটবলার	-4696
গাঁ	-4697
ম্ভ	-4698
েইন	-4699
ন্টে	-4700
▁আগরত	-4701
▁দম্প	-4702
▁বিপদ	-4703
▁মোতা	-4704
্লিষ্ট	-4705
▁আলিয়া	-4706
▁গোষ্ঠী	-4707
▁ছাত্রী	-4708
▁প্রয়ো	-4709
▁শাহরুখ	-4710
▁ক্যান্স	-4711
▁সন্ধ্যা	-4712
▁নির্বাচনী	-4713
▁প্রযুক্তির	-4714
▁•	-4715
ins	-4716
হৃত	-4717
▁জখম	-4718
▁তোলে	-4719
প্রকাশ	-4720
ার্জিল	-4721
▁উপহার	-4722
▁কাছাকা	-4723
▁সমুদ্র	-4724
▁সতর্কতা	-4725
▁সংক্রমিত	-4726
▁সংশ্লিষ্ট	-4727
▁চিকিত্‍সকের	-4728
one	-4729
▁10	-4730
▁মদন	-4731
▁অবধি	-4732
▁নীচে	-4733
▁পুরুল	-4734
▁বিপ্ল	-4735
▁তারপরে	-4736
▁পর্যাপ্ত	-4737
▁লকডাউনের	-4738
▁প্রতিশ্রুতি	-4739
▁বিশ্ববিদ্যালয়	-4740
ত্তর	-4741
িলের	-4742
▁জমে	-4743
▁থাম	-4744
▁নজির	-4745
▁বুকে	-4746
▁মজুম	-4747
▁ফুটবল	-4748
▁ফেলতে	-4749
▁ক্ষতিক	-4750
▁পার্টির	-4751
▁শ্রদ্ধা	-4752
▁হ্যান্ড	-4753
▁প্রতিকার	-4754
▁প্রার্থীদের	-4755
বিধি	-4756
াপ্র	-4757
▁মহল	-4758
য়ারে	-4759
▁Ghan	-4760
▁গোপন	-4761
▁মোর্	-4762
▁সকলে	-4763
▁ঘোষের	-4764
▁নমুনা	-4765
▁সমৃদ্ধ	-4766
▁পরিষদের	-4767
▁পালিয়ে	-4768
▁কাছাকাছি	-4769
▁দিনাজপুর	-4770
▁সম্মুখীন	-4771
▁নির্দেশিকা	-4772
MC	-4773
মস	-4774
▁d	-4775
ফুল	-4776
▁সরে	-4777
▁অধীর	-4778
▁কথাও	-4779
▁ছুটে	-4780
▁জঙ্গল	-4781
▁ডিভাই	-4782
▁Ghanta	-4783
▁ঘণ্টার	-4784
▁তুলেছেন	-4785
▁বিজেপিকে	-4786
▁কোলেস্টের	-4787
19	-4788
lo	-4789
▁কপ	-4790
▁ঘি	-4791
▁বার্	-4792
▁দায়ী	-4793
▁সমিতির	-4794
▁করছিলেন	-4795
▁দার্জিল	-4796
▁Banerjee	-4797
▁অত্যাচার	-4798
▁পরিবর্তে	-4799
▁জানাচ্ছেন	-4800
।”	-4801
্ৰ	-4802
েনিন	-4803
▁Con	-4804
▁বাণ	-4805
ামেলা	-4806
▁ছুটি	-4807
▁নদীর	-4808
▁ছবিটি	-4809
▁দেয়া	-4810
▁লোকাল	-4811
▁কমিয়ে	-4812
▁ঘরোয়া	-4813
▁মাধ্যম	-4814
▁Election	-4815
▁ভ্যাকসিনের	-4816
eet	-4817
ককে	-4818
াবা	-4819
োটা	-4820
রাতে	-4821
▁রেখ	-4822
▁আবেগ	-4823
▁জুটি	-4824
▁পূজা	-4825
▁বলেছে	-4826
▁লাগান	-4827
▁হাকিম	-4828
▁পাঁচটি	-4829
▁মিশ্রণ	-4830
▁জন্মদিন	-4831
▁ধর্মীয়	-4832
▁পাচ্ছেন	-4833
▁রাজধানী	-4834
▁অভিজ্ঞতা	-4835
▁নিষেধাজ্ঞা	-4836
ro	-4837
খ্যা	-4838
োগ্র	-4839
ত্যাগ	-4840
োঁয়া	-4841
▁আমির	-4842
▁ব্রে	-4843
▁সমান	-4844
▁অধিবেশ	-4845
▁আশ্বাস	-4846
▁সংলগ্ন	-4847
▁ধন্যবাদ	-4848
▁গোয়েন্দ	-4849
▁প্রার্থীর	-4850
▁ব্যবহারের	-4851
"।	-4852
ess	-4853
▁যশ	-4854
▁খড়	-4855
▁লিগ	-4856
িয়াস	-4857
▁ইংরে	-4858
▁কিনে	-4859
▁পেটে	-4860
▁বেতন	-4861
▁সকলকে	-4862
▁ইস্টবে	-4863
▁জলপাইগ	-4864
▁টেস্টে	-4865
▁উদ্দেশ্য	-4866
▁দ্বারস্থ	-4867
গ্ধ	-4868
তলা	-4869
ব্ধ	-4870
ুব্ধ	-4871
▁খোল	-4872
▁চেক	-4873
▁ফিট	-4874
▁দুঃখ	-4875
▁লাইন	-4876
▁ডায়ে	-4877
▁কোয়ার	-4878
▁উদ্বোধন	-4879
▁ওয়েস্ট	-4880
▁সংযুক্ত	-4881
▁নির্দেশে	-4882
▁বিসিসিআই	-4883
মু	-4884
লী	-4885
তাল	-4886
▁কলা	-4887
বিধান	-4888
হিন্দ	-4889
াইয়ের	-4890
▁কেনার	-4891
▁কমিশনার	-4892
▁প্রথমবার	-4893
▁বিস্ফোরক	-4894
▁সন্ধ্যায়	-4895
▁ডায়াবেটিস	-4896
▁অস্ট্রেলিয়ার	-4897
th	-4898
মী	-4899
াইম	-4900
▁সই	-4901
▁জনগ	-4902
▁শাক	-4903
▁আশ্র	-4904
▁কম্প	-4905
ক্ষিতে	-4906
▁চীনের	-4907
▁পায়ে	-4908
▁ফেরার	-4909
▁রিয়া	-4910
▁এসেছিল	-4911
▁শুনানি	-4912
▁সিনেমার	-4913
টোয়েন্টি	-4914
▁সুশান্তের	-4915
▁7	-4916
ment	-4917
ারির	-4918
িত্বে	-4919
▁অবিল	-4920
▁আচরণ	-4921
▁এখনই	-4922
▁পত্র	-4923
▁যোগী	-4924
▁কাণ্ড	-4925
▁বাড়ে	-4926
▁ব্যার	-4927
▁কর্মীর	-4928
▁জার্মান	-4929
▁উত্তরপ্রদেশের	-4930
aj	-4931
ue	-4932
মেদ	-4933
োনের	-4934
▁তোম	-4935
▁মিঠ	-4936
পক্ষে	-4937
▁বালি	-4938
▁সঞ্চ	-4939
▁করানো	-4940
▁দুপুরে	-4941
▁মাটিতে	-4942
▁সিরিজে	-4943
▁হাজারের	-4944
▁পরিসংখ্যান	-4945
▁রই	-4946
▁চিঠ	-4947
▁সাঁ	-4948
▁সুই	-4949
গুপ্ত	-4950
স্টিক	-4951
▁ওঠার	-4952
▁জানি	-4953
▁পাথর	-4954
▁মেসে	-4955
▁ঘূর্ণ	-4956
▁নিশ্চ	-4957
▁খেয়াল	-4958
▁ছাড়াই	-4959
▁বিশ্বে	-4960
▁মিলেছে	-4961
▁হায়দর	-4962
▁অবিলম্বে	-4963
▁উত্‍সবের	-4964
▁স্টেডিয়াম	-4965
▁পশ্চিমবঙ্গে	-4966
বিধ	-4967
ুরে	-4968
▁অয	-4969
▁আও	-4970
িদের	-4971
▁আলু	-4972
▁ক্য	-4973
▁ম্য	-4974
হত্যা	-4975
িতায়	-4976
▁হাঁট	-4977
▁হেরে	-4978
▁হ্যা	-4979
▁ওভারে	-4980
▁কাঁচা	-4981
▁ক্লিক	-4982
▁কার্যাল	-4983
▁একইসঙ্গে	-4984
▁কাউন্সিলর	-4985
▁নন্দীগ্রাম	-4986
পদ	-4987
লক	-4988
সুম	-4989
দারি	-4990
▁ভুলে	-4991
▁লাইক	-4992
তামূলক	-4993
সম্যান	-4994
ুটিয়ে	-4995
▁ভিতরে	-4996
▁সংসার	-4997
▁কন্ট্র	-4998
▁দেখবেন	-4999
▁শিল্পী	-5000
▁অবস্থার	-5001
▁জেনেনিন	-5002
▁ভিডিওটি	-5003
▁লেটেস্ট	-5004
▁স্বস্তি	-5005
▁ভার্চুয়াল	-5006
ুচ	-5007
ath	-5008
পের	-5009
▁৩৩	-5010
তিনি	-5011
▁রুখ	-5012
কান্ত	-5013
েক্টর	-5014
েশ্বর	-5015
্যাটফ	-5016
▁গাছের	-5017
▁লম্বা	-5018
▁হত্যা	-5019
▁অঞ্চলে	-5020
▁ভিত্তি	-5021
▁লক্ষ্ম	-5022
▁চালানোর	-5023
▁বোর্ডের	-5024
▁ব্ল্যাক	-5025
▁ধারাবাহিক	-5026
টিউ	-5027
ড্র	-5028
▁:-	-5029
▁বক্স	-5030
▁আসছেন	-5031
▁ফিল্ম	-5032
▁বাজেট	-5033
▁ভিন্ন	-5034
▁একদিনে	-5035
▁সবকিছু	-5036
▁স্পেশাল	-5037
▁মন্দিরের	-5038
▁অন্তর্ভুক্ত	-5039
his	-5040
মোহ	-5041
▁৪৮	-5042
▁এবি	-5043
▁তলব	-5044
▁পেট	-5045
▁বেগ	-5046
▁রুশ	-5047
▁হোট	-5048
▁অনুভব	-5049
▁ফোনের	-5050
▁অনুপ্র	-5051
▁ভাষায়	-5052
▁লাগানো	-5053
▁সত্যিই	-5054
▁তদন্তকারী	-5055
বো	-5056
kra	-5057
সড়	-5058
oron	-5059
গামী	-5060
▁আশে	-5061
▁ভোর	-5062
শক্তি	-5063
▁কিনতে	-5064
▁মন্ডল	-5065
▁সর্বা	-5066
▁সবাইকে	-5067
দ্বন্দ্ব	-5068
▁আন্দোলনের	-5069
▁সাম্প্রতিক	-5070
▁অস্ট্রেলিয়া	-5071
ৈধ	-5072
নেস	-5073
ুনি	-5074
লাইন	-5075
▁নাচ	-5076
য়নাত	-5077
▁মেলা	-5078
▁সবজি	-5079
▁India	-5080
▁চলাচল	-5081
▁Bangla	-5082
▁কোর্টে	-5083
▁লোকেরা	-5084
▁বিশিষ্ট	-5085
▁উত্‍পাদন	-5086
ght	-5087
▁হুঁ	-5088
▁টার্	-5089
▁কার্ত	-5090
▁মোদীর	-5091
▁উত্তরা	-5092
য়নাতদন্ত	-5093
▁প্ল্যাটফ	-5094
▁পরীক্ষায়	-5095
▁পারফরম্যান্স	-5096
▁ঋণ	-5097
▁৩৭	-5098
মায়	-5099
▁কিড	-5100
▁ভাস	-5101
▁রাই	-5102
বাড়ি	-5103
▁একাদ	-5104
▁মারধর	-5105
▁মিসাইল	-5106
▁হাওয়া	-5107
▁উপলক্ষে	-5108
▁পেঁয়াজ	-5109
▁ব্যবহৃত	-5110
▁স্টেশনে	-5111
▁অংশগ্রহণ	-5112
▁কার্যকরী	-5113
▁সাংবাদিকদের	-5114
শুর	-5115
ড়াই	-5116
মানা	-5117
েলার	-5118
্যাড	-5119
▁আজও	-5120
▁আইএস	-5121
▁বিএস	-5122
▁আহমেদ	-5123
▁নিন্দ	-5124
▁সিঙ্গ	-5125
▁অবস্থিত	-5126
▁কোভিডের	-5127
▁ময়নাতদন্ত	-5128
মির	-5129
শিল	-5130
আমার	-5131
ঞ্জে	-5132
ুদের	-5133
▁অমর	-5134
▁ওড়	-5135
▁আহ্ব	-5136
▁পুরভ	-5137
▁নিখোঁ	-5138
▁পরগনা	-5139
▁ইঞ্জিন	-5140
▁পাঞ্জাব	-5141
▁স্লোগান	-5142
▁বিবৃতিতে	-5143
▁মানুষদের	-5144
▁ত্রিপুরায়	-5145
অন	-5146
াভ	-5147
▁8	-5148
চাল	-5149
িশা	-5150
দানে	-5151
বেলা	-5152
▁টিপ	-5153
▁ভিক	-5154
▁রেট	-5155
▁কানে	-5156
▁ফেরত	-5157
▁অঞ্চল	-5158
▁শীতের	-5159
▁ফ্রান্স	-5160
▁মুম্বইয়ের	-5161
gle	-5162
ডাক	-5163
▁রথ	-5164
▁জরি	-5165
atest	-5166
▁অজয়	-5167
▁ধারা	-5168
▁পদ্ম	-5169
▁জামিন	-5170
▁ভ্যার	-5171
▁উপযুক্ত	-5172
▁ছড়িয়েছে	-5173
▁নয়াদিল্লি	-5174
▁বাসিন্দাদের	-5175
ice	-5176
▁টপ	-5177
▁৯০	-5178
▁কাক	-5179
▁নীর	-5180
বেদনে	-5181
▁অবৈধ	-5182
▁উভয়	-5183
িনিষেধ	-5184
▁খানিক	-5185
▁চিনের	-5186
▁মেকআপ	-5187
▁স্যান	-5188
▁অনুশীল	-5189
▁এদিনের	-5190
▁দলনেতা	-5191
▁ফাইবার	-5192
স্বাস্থ্য	-5193
▁বাড়ানোর	-5194
▁বিধিনিষেধ	-5195
ex	-5196
াবর	-5197
অক্স	-5198
ার্ক	-5199
িজের	-5200
েননি	-5201
্রেট	-5202
▁ইডি	-5203
▁মেজ	-5204
oogle	-5205
ুড়ির	-5206
▁আঙুল	-5207
▁অর্জন	-5208
▁এতদিন	-5209
▁তেমনি	-5210
▁পড়ছে	-5211
▁মেয়া	-5212
▁লাগবে	-5213
▁দেখাতে	-5214
▁উড়িয়ে	-5215
▁ডিজেলের	-5216
▁শ্যুটিং	-5217
▁রাজস্থান	-5218
▁সমালোচনা	-5219
চর্	-5220
রাও	-5221
ির্	-5222
▁Ar	-5223
▁ছক	-5224
▁৩৬	-5225
▁অগা	-5226
▁ফেস	-5227
▁বর্	-5228
▁ঘোষণ	-5229
ম্বরের	-5230
▁আইনের	-5231
▁কেড়ে	-5232
▁অধ্যাপ	-5233
▁অভিভাব	-5234
▁রেখেছে	-5235
ামন্ত্রী	-5236
▁জেলাশাস	-5237
▁লক্ষ্যে	-5238
▁পর্যায়ে	-5239
▁রাজনীতির	-5240
▁অর্থনৈতিক	-5241
▁উত্তরপ্রদেশ	-5242
ওনা	-5243
▁12	-5244
ন্যা	-5245
ায়ন	-5246
▁জিন	-5247
▁অবসর	-5248
▁আবাস	-5249
▁পরপর	-5250
▁মহাক	-5251
▁মোটর	-5252
▁সঙ্ক	-5253
▁২০১৮	-5254
▁উত্তে	-5255
▁ক্লাস	-5256
▁পুলিস	-5257
▁দিবসের	-5258
▁সুব্রত	-5259
▁সামগ্রী	-5260
▁সেকেন্ড	-5261
▁চট্টোপাধ্যায়ের	-5262
টন	-5263
পু	-5264
▁হো	-5265
ানার	-5266
ওয়াই	-5267
▁মহলে	-5268
▁জোড়া	-5269
▁দর্শক	-5270
▁ভগবান	-5271
▁বিকেলে	-5272
▁সৌন্দর	-5273
▁পরিশ্রম	-5274
▁বাড়ায়	-5275
▁স্বামীর	-5276
▁সিবিআইয়ের	-5277
পূ	-5278
ert	-5279
▁11	-5280
াজনক	-5281
ুষ্ট	-5282
▁নোটি	-5283
▁ফার্	-5284
▁ব্লা	-5285
▁আদর্শ	-5286
▁উপভোগ	-5287
▁চলছিল	-5288
▁ড্রাই	-5289
▁পতাকা	-5290
▁পাত্র	-5291
▁বাড়ল	-5292
▁উঠেছিল	-5293
▁কঙ্গনা	-5294
▁প্রান্তে	-5295
▁লড়াইয়ে	-5296
▁সীমান্তে	-5297
▁সুস্থতার	-5298
▁হুঁশিয়ার	-5299
▁স্বাস্থ্যকর	-5300
JP	-5301
ash	-5302
গড়	-5303
টুক	-5304
▁তম	-5305
▁সাফ	-5306
শিষ্ট	-5307
▁mins	-5308
▁চলার	-5309
▁নামক	-5310
▁ভীষণ	-5311
স্থায়	-5312
াতাড়ি	-5313
োনাল্ড	-5314
▁বেঁচে	-5315
▁স্টেট	-5316
▁এড়াতে	-5317
▁যেকোনো	-5318
▁মধ্যপ্র	-5319
▁উপকারিতা	-5320
▁বীরভূমের	-5321
▁g	-5322
ুরা	-5323
ক্টর	-5324
ন্তী	-5325
▁ডির	-5326
▁বাঘ	-5327
▁সুদ	-5328
▁১৯৯	-5329
▁ধোনি	-5330
▁বোমা	-5331
▁ভবান	-5332
▁রুখতে	-5333
▁হ্রাস	-5334
▁বড়সড়	-5335
▁বিষ্ণু	-5336
▁তাছাড়া	-5337
▁ভক্তদের	-5338
▁ব্যাটারি	-5339
▁যাত্রীদের	-5340
,'	-5341
▁কাব	-5342
▁কুণ	-5343
▁ডেপ	-5344
▁মেষ	-5345
▁রিল	-5346
▁অধ্য	-5347
▁ডেটা	-5348
▁বোলার	-5349
▁মাথার	-5350
▁দেখানো	-5351
▁নবান্ন	-5352
▁ভয়ঙ্কর	-5353
▁যুদ্ধের	-5354
▁কেরিয়ার	-5355
▁ব্যায়াম	-5356
▁পূর্বাভাস	-5357
▁সাক্ষাত্‍কারে	-5358
own	-5359
▁এড	-5360
▁চড়	-5361
▁বরা	-5362
▁হজম	-5363
▁৫০০	-5364
amata	-5365
ement	-5366
ধারিত	-5367
পালের	-5368
বৃদ্ধ	-5369
▁২০১৬	-5370
▁ইচ্ছা	-5371
▁নানান	-5372
▁কলেজের	-5373
▁নিখোঁজ	-5374
▁হিন্দি	-5375
▁বিজ্ঞপ্তি	-5376
▁বিরোধীদের	-5377
▁আলিপুরদুয়ার	-5378
▁9	-5379
▁Y	-5380
▁by	-5381
য়ান	-5382
্রেস	-5383
‍্যা	-5384
ার্থী	-5385
▁টেনে	-5386
▁দেবী	-5387
▁হলেই	-5388
▁ছোট্ট	-5389
▁প্যাক	-5390
▁চাকরির	-5391
▁ক্যামের	-5392
▁চিহ্নিত	-5393
▁বৈশিষ্ট	-5394
▁অন্তর্গত	-5395
▁উন্নয়নের	-5396
▁উপনির্বাচ	-5397
▁তাড়াতাড়ি	-5398
জল	-5399
ুড	-5400
তবে	-5401
ুজো	-5402
্তে	-5403
বর্ধ	-5404
ায়ণ	-5405
িকাল	-5406
েদের	-5407
▁শপথ	-5408
বারিক	-5409
বিরোধ	-5410
▁ঊর্ধ	-5411
▁ঢাকা	-5412
▁তারই	-5413
▁হাসি	-5414
োসিয়ে	-5415
▁দপ্তর	-5416
▁স্টোর	-5417
▁বৈঠকের	-5418
▁কর্মচার	-5419
▁প্রোটিন	-5420
▁মস্তিষ্	-5421
▁মোতায়েন	-5422
:-	-5423
গাপ	-5424
▁তৃ	-5425
▁৭৫	-5426
আইনি	-5427
স্টি	-5428
▁চিত	-5429
▁সোজ	-5430
ষিদ্ধ	-5431
▁করেও	-5432
▁দূষণ	-5433
যন্ত্র	-5434
▁কাপড়	-5435
▁ফিরতে	-5436
▁বালুর	-5437
▁মানতে	-5438
▁লিখিত	-5439
▁বয়সের	-5440
▁ভারতকে	-5441
▁তামিলনা	-5442
▁নিষিদ্ধ	-5443
▁ভূমিকায়	-5444
▁ভ্যারিয়ে	-5445
চী	-5446
মহ	-5447
end	-5448
পান	-5449
সাদ	-5450
্টো	-5451
াদার	-5452
▁দান	-5453
▁লবণ	-5454
য়ায়	-5455
াইজার	-5456
▁চাপে	-5457
▁গুলির	-5458
▁ঘাটতি	-5459
▁মাঝেই	-5460
▁রায়গ	-5461
কর্মীরা	-5462
চ্ছিলেন	-5463
▁আপনারা	-5464
▁পাচ্ছে	-5465
▁রাজস্থ	-5466
▁রামপুর	-5467
▁মজুমদার	-5468
▁Whatsapp	-5469
▁অধিকারীর	-5470
▁এক্সপ্রে	-5471
▁ন্যাশনাল	-5472
▁অনুষ্ঠানের	-5473
▁উল্লেখযোগ্য	-5474
▁ইনস্টাগ্রামে	-5475
Ph	-5476
মো	-5477
ডির	-5478
ফিল	-5479
্তি	-5480
▁Tag	-5481
▁জেত	-5482
▁নগর	-5483
▁ফুস	-5484
মধ্যে	-5485
▁বনাম	-5486
ৃঙ্খলা	-5487
▁Tweet	-5488
▁জন্যে	-5489
▁সেগুলি	-5490
▁গ্রামবাস	-5491
▁সর্বাধিক	-5492
▁দায়িত্বে	-5493
▁ব্যক্তিকে	-5494
▁হাইকোর্টে	-5495
?'	-5496
▁হট	-5497
ুত্ব	-5498
▁কয়	-5499
▁Views	-5500
▁অব্যা	-5501
▁খোলার	-5502
▁ইনিংসে	-5503
▁উঠেছেন	-5504
▁পরিবারকে	-5505
▁কর্তৃপক্ষের	-5506
তরা	-5507
প্ল	-5508
মাল	-5509
শাখ	-5510
▁Ma	-5511
▁and	-5512
▁টোক	-5513
ায়ার	-5514
▁বুথে	-5515
▁তেলের	-5516
▁দফতরে	-5517
▁বাদাম	-5518
▁গুলিতে	-5519
▁পায়ের	-5520
▁চ্যানেল	-5521
▁ইনস্টিটি	-5522
▁রিপোর্টে	-5523
▁প্রযুক্তি	-5524
১৫	-5525
পিং	-5526
্পা	-5527
▁তি	-5528
▁সৃ	-5529
বাহী	-5530
▁ডিফ	-5531
▁মেট	-5532
▁রুট	-5533
ট্রিক	-5534
ন্টের	-5535
পূর্ব	-5536
▁দরজা	-5537
▁সেলস	-5538
▁ইন্ডা	-5539
▁সুদীপ	-5540
▁রয়্যাল	-5541
▁লুকিয়ে	-5542
▁সংরক্ষণ	-5543
▁পারিবারিক	-5544
▁প্রয়োজনে	-5545
▁বিশ্বকাপের	-5546
▁ব্যাটসম্যান	-5547
▁চিকিত্‍সকদের	-5548
ারক	-5549
▁চক	-5550
▁যু	-5551
ড়ির	-5552
িস্ট	-5553
▁কাহ	-5554
▁টমে	-5555
▁পরা	-5556
▁ফাট	-5557
▁লেগ	-5558
▁আকার	-5559
▁কমলা	-5560
▁কিংব	-5561
▁দাঁত	-5562
▁ফেলা	-5563
▁মেলে	-5564
▁তারপরই	-5565
কর্মীদের	-5566
▁অঞ্চলের	-5567
▁উদ্দেশে	-5568
▁মনোনয়ন	-5569
▁রক্তচাপ	-5570
▁স্যানিট	-5571
▁ভবিষ্যতে	-5572
▁যাওয়ায়	-5573
▁বিধানসভায়	-5574
ঠাম	-5575
মকা	-5576
▁De	-5577
▁মণ	-5578
▁কমল	-5579
▁গলা	-5580
ড়ানো	-5581
▁Tags	-5582
▁ইলেক	-5583
▁জনতা	-5584
▁পণ্য	-5585
▁বর্ণ	-5586
▁ইউটিউ	-5587
▁বোলিং	-5588
▁ভাবনা	-5589
▁যুবককে	-5590
▁অনুমোদন	-5591
▁অভিনেতার	-5592
▁ওয়েবসাই	-5593
▁কিংবদন্ত	-5594
▁প্রতিষ্ঠা	-5595
oh	-5596
াসি	-5597
পতির	-5598
াজির	-5599
▁Adv	-5600
▁গয়	-5601
▁টাট	-5602
▁লেন	-5603
বাংলা	-5604
বাদের	-5605
▁ভয়ে	-5606
▁একদিন	-5607
▁গোলাপ	-5608
▁তাতেই	-5609
▁পারলে	-5610
▁আওতায়	-5611
▁বেআইনি	-5612
▁শিয়াল	-5613
▁ক্লাবের	-5614
▁বন্ধুদের	-5615
ষা	-5616
ীনে	-5617
▁রক	-5618
মূলক	-5619
্সের	-5620
নাক্ত	-5621
▁অন্দ	-5622
▁চুলে	-5623
▁পেলে	-5624
▁শর্ম	-5625
▁দিনটা	-5626
▁স্মরণ	-5627
▁ইস্তফা	-5628
▁মিথ্যা	-5629
▁দুয়ারে	-5630
▁দর্শকদের	-5631
▁একাধিকবার	-5632
▁প্রশিক্ষণ	-5633
শেষ	-5634
ণ্ডা	-5635
ফোর্	-5636
▁মির	-5637
কৃষ্ণ	-5638
পাড়া	-5639
▁কর্প	-5640
▁গুগল	-5641
▁ট্যা	-5642
▁দফার	-5643
▁হানা	-5644
▁পেছনে	-5645
▁প্রবণ	-5646
▁মেসেজ	-5647
▁সাড়া	-5648
িনিয়ার	-5649
▁নিয়োগের	-5650
▁মন্ত্রিস	-5651
▁ক্রিকেটের	-5652
▁তামিলনাড়	-5653
▁অভিনেত্রীর	-5654
▁ইনস্টাগ্রাম	-5655
ive	-5656
িকর	-5657
ুলি	-5658
▁এইচ	-5659
▁জাগ	-5660
▁জ্ঞ	-5661
▁ভরা	-5662
▁সদর	-5663
েন্দু	-5664
▁আইসি	-5665
▁কৌশল	-5666
▁ধারণ	-5667
▁পঞ্জ	-5668
▁পেটের	-5669
▁আদিত্য	-5670
▁আহ্বান	-5671
▁নিউজিল	-5672
▁নিরাপদ	-5673
▁মোহনবা	-5674
▁নিম্নচাপ	-5675
▁পড়ুয়ার	-5676
শক	-5677
আরও	-5678
সিপি	-5679
দ্দিন	-5680
িকাকে	-5681
োয়ার	-5682
▁আজকে	-5683
▁জেরা	-5684
▁দিদি	-5685
▁সংসদ	-5686
▁অধীনে	-5687
▁নার্স	-5688
▁কাণ্ডে	-5689
▁গ্যাসের	-5690
▁পড়েছিল	-5691
▁পরিবারে	-5692
▁পোস্টার	-5693
▁আমন্ত্রণ	-5694
▁ভবানীপুর	-5695
▁ইন্টারনেট	-5696
▁দার্জিলিং	-5697
▁নেতৃত্বের	-5698
▁প্রতিরক্ষা	-5699
লস	-5700
৪০	-5701
ist	-5702
য়ং	-5703
শাল	-5704
বিজে	-5705
▁উদয	-5706
▁খোদ	-5707
▁গেম	-5708
▁পেন	-5709
▁বাছ	-5710
▁ফর্ম	-5711
▁ফুটে	-5712
ষ্ট্রে	-5713
▁টাটকা	-5714
▁সেঞ্চ	-5715
▁দেখায়	-5716
▁বীরভূম	-5717
▁মেয়াদ	-5718
▁দুনিয়া	-5719
▁বিবেচনা	-5720
▁স্থায়ী	-5721
▁দেশজুড়ে	-5722
▁প্রদেশের	-5723
▁ব্যক্তিদের	-5724
গন	-5725
২২	-5726
ram	-5727
গেট	-5728
▁এঁ	-5729
ঙ্গি	-5730
দরোগ	-5731
▁ওরা	-5732
▁পরও	-5733
▁মুল	-5734
ertis	-5735
দিয়া	-5736
দ্রোহ	-5737
বাবুর	-5738
▁জ্বর	-5739
▁ডাকা	-5740
▁সন্দ	-5741
▁আচমকা	-5742
▁গৃহবধ	-5743
▁মহলের	-5744
▁আগরতলা	-5745
▁যাতায়	-5746
▁অনেকেরই	-5747
▁বাঁচাতে	-5748
▁রেখেছেন	-5749
▁সম্পত্তি	-5750
ertisement	-5751
▁ক্ষেত্রেই	-5752
▁দুর্ঘটনায়	-5753
পুল	-5754
র্ন	-5755
ালে	-5756
োরা	-5757
ious	-5758
▁IPL	-5759
▁অবন	-5760
▁নাক	-5761
▁বীজ	-5762
▁মুর	-5763
▁সেট	-5764
াউন্ড	-5765
েন্সি	-5766
▁টিভি	-5767
▁রাজা	-5768
বেদনের	-5769
▁আর্জি	-5770
▁কলেজে	-5771
▁কুণাল	-5772
▁জন্যও	-5773
▁নিত্য	-5774
▁পাননি	-5775
▁চালাতে	-5776
▁বিভাগে	-5777
▁সম্ভবত	-5778
▁অসুবিধা	-5779
▁আসানসোল	-5780
▁বিহারের	-5781
▁যাচ্ছিল	-5782
▁প্রভাবিত	-5783
▁আত্মহত্যা	-5784
▁বৈশিষ্ট্য	-5785
▁ব্যাঙ্কের	-5786
▁Advertisement	-5787
ere	-5788
ore	-5789
াতক	-5790
ঘাতী	-5791
্রিক	-5792
▁উপা	-5793
▁বোম	-5794
দ্বীপ	-5795
▁উঠবে	-5796
▁২০১৭	-5797
িক্সেল	-5798
▁আশঙ্ক	-5799
▁বরাবর	-5800
▁ম্যান	-5801
▁রক্তে	-5802
▁সমাজের	-5803
▁স্টোরে	-5804
▁যন্ত্রণ	-5805
▁ব্যবধানে	-5806
▁বিমানবন্দ	-5807
▁মুখ্যসচিব	-5808
▁শুভেন্দুর	-5809
হিন্দুস্থান	-5810
ঘর	-5811
রূপ	-5812
ত্তম	-5813
পিএস	-5814
▁Rel	-5815
▁আবি	-5816
▁রইল	-5817
্বস্ত	-5818
▁চালক	-5819
▁ধরতে	-5820
▁বঞ্চ	-5821
▁মোড়	-5822
▁সংকট	-5823
তিক্রম	-5824
▁শ্রাব	-5825
▁সংযোগ	-5826
▁বিপ্লব	-5827
▁হৃদরোগ	-5828
▁পছন্দের	-5829
▁সম্প্রদ	-5830
ly	-5831
ate	-5832
কির	-5833
বীণ	-5834
ানী	-5835
▁Al	-5836
▁টক	-5837
টাতে	-5838
াক্র	-5839
্য়া	-5840
▁চীন	-5841
▁পোল	-5842
প্রতি	-5843
ানায়	-5844
▁অংশে	-5845
▁আইনি	-5846
▁ছড়া	-5847
▁ঝাঁপ	-5848
▁তবুও	-5849
▁বাঁক	-5850
▁লন্ড	-5851
ক্ষত্র	-5852
▁টুকরো	-5853
▁পোর্ট	-5854
▁বাবুল	-5855
▁বিদায়	-5856
▁বিশ্লে	-5857
▁আলোচনার	-5858
▁রান্নার	-5859
▁প্রতিষ্ঠান	-5860
▁সম্প্রদায়ের	-5861
/?	-5862
২৫	-5863
ian	-5864
ড্ডা	-5865
▁ইনফ	-5866
▁গুন	-5867
▁চোর	-5868
▁শ্ব	-5869
▁ওপেন	-5870
▁কারন	-5871
▁ভেসে	-5872
▁ফোনটি	-5873
▁মতামত	-5874
▁মোদির	-5875
▁ঘোষণার	-5876
▁অব্যাহত	-5877
▁পেরিয়ে	-5878
▁প্রাচীন	-5879
▁মুক্তির	-5880
▁সৌমিত্র	-5881
স্বাভাবিক	-5882
▁আগামীকাল	-5883
▁বাড়িতেই	-5884
▁সংবাদদাতাঃ	-5885
ud	-5886
িঝ	-5887
ংকর	-5888
কলক	-5889
ঠিত	-5890
নাই	-5891
নিস	-5892
লাতে	-5893
াদেশ	-5894
িজ্য	-5895
▁অবল	-5896
▁উড়	-5897
▁চমক	-5898
▁হতো	-5899
▁Vide	-5900
▁অরুণ	-5901
▁কিমি	-5902
▁ফ্রি	-5903
▁করছিল	-5904
▁পান্ড	-5905
▁হিংসা	-5906
▁এখানেই	-5907
▁এরপরেই	-5908
▁ঘটনাকে	-5909
▁চেহারা	-5910
▁নারকেল	-5911
▁পরিবহণ	-5912
▁সঙ্গীত	-5913
▁আত্মবিশ	-5914
▁পৌরসভার	-5915
▁শ্রেণির	-5916
▁সাপোর্ট	-5917
▁প্রতিষেধ	-5918
▁কোম্পানির	-5919
▁দুর্ঘটনার	-5920
▁উত্তরবঙ্গের	-5921
▁চিকিত্‍সাধীন	-5922
গো	-5923
বহ	-5924
uss	-5925
পিট	-5926
সঙ্গ	-5927
▁ঠেক	-5928
▁সমন	-5929
▁হরম	-5930
▁হির	-5931
▁অশ্ব	-5932
▁কেনা	-5933
▁রোগে	-5934
▁ড্রোন	-5935
▁বিবাদ	-5936
▁মানিক	-5937
▁সেদিন	-5938
▁ট্রায়	-5939
▁প্রদীপ	-5940
▁শুরুতে	-5941
▁পর্যবেক্ষণ	-5942
▁মহারাষ্ট্রের	-5943
BI	-5944
আজ	-5945
রন	-5946
গির	-5947
শাহ	-5948
▁জৈ	-5949
▁কফি	-5950
▁কাগ	-5951
▁তির	-5952
▁এফআই	-5953
▁গর্ব	-5954
▁দেরি	-5955
▁প্লা	-5956
▁সোজা	-5957
▁স্বে	-5958
▁2022:	-5959
▁আসনের	-5960
▁কারনে	-5961
▁ট্রাক	-5962
▁দেখছে	-5963
▁শুনতে	-5964
▁Google	-5965
▁নিরিখে	-5966
▁গবেষকরা	-5967
▁বুঝিয়ে	-5968
▁ব্যাখ্যা	-5969
▁কাশ্মীরের	-5970
ig	-5971
ঘু	-5972
যে	-5973
ুভ	-5974
১১	-5975
রাত	-5976
হাই	-5977
ভূতি	-5978
রিতে	-5979
সাইট	-5980
▁তোপ	-5981
▁রিজ	-5982
র্ডার	-5983
্যাটে	-5984
▁আগাম	-5985
▁ওপরে	-5986
▁প্যান	-5987
▁একুশের	-5988
▁সামনেই	-5989
▁ভিডিওতে	-5990
▁নির্ধারিত	-5991
▁পরিবর্তনের	-5992
▁অ্যাসোসিয়ে	-5993
--	-5994
ীর্ণ	-5995
▁টোট	-5996
▁নরম	-5997
▁পুত	-5998
▁উচ্ছ	-5999
গুলোতে	-6000
প্রধান	-6001
▁ক্ষয়	-6002
▁স্তরে	-6003
শ্চিন্ত	-6004
▁তুঙ্গে	-6005
▁মধ্যেও	-6006
▁মূর্তি	-6007
▁স্বয়ং	-6008
▁ইতিহাসে	-6009
▁পুরুষদের	-6010
▁ভবিষ্যত্‍	-6011
▁ছাত্রছাত্রী	-6012
▁সিদ্ধান্তের	-6013
IS	-6014
uk	-6015
লাম	-6016
িলা	-6017
েইল	-6018
▁মধ	-6019
load	-6020
▁জগত	-6021
মাদের	-6022
্যাপী	-6023
▁ভাষণ	-6024
▁হারের	-6025
▁উইকেটে	-6026
▁কোহলির	-6027
▁ক্ষুব্ধ	-6028
▁ট্রেন্ড	-6029
▁পুনরায়	-6030
▁প্রায়ই	-6031
▁বেঙ্গাল	-6032
▁সারাদিন	-6033
▁সুস্মিত	-6034
▁দুর্নীতির	-6035
▁ইঞ্জিনিয়ার	-6036
থী	-6037
রার	-6038
▁লু	-6039
▁৪২	-6040
াতেও	-6041
▁ফার	-6042
▁বলব	-6043
▁বিগ	-6044
▁মীন	-6045
▁১৯৭	-6046
itter	-6047
ওয়াজ	-6048
ার্থে	-6049
▁Prev	-6050
▁করাই	-6051
▁পৃথক	-6052
▁মল্ল	-6053
▁অতিথি	-6054
▁পঞ্চম	-6055
ান্ত্রিক	-6056
▁অসাধারণ	-6057
▁উত্তপ্ত	-6058
▁বামেদের	-6059
▁অভিজিত্‍	-6060
▁আফগানিস্তান	-6061
oto	-6062
াব্দ	-6063
াসিক	-6064
িন্ট	-6065
ুলেট	-6066
▁কেস	-6067
▁গরু	-6068
▁রিস	-6069
▁ভাষা	-6070
▁সাংগ	-6071
▁গোয়া	-6072
▁ঘুমের	-6073
▁বন্যা	-6074
▁রেখেই	-6075
▁স্বীক	-6076
▁বাইডেন	-6077
▁সেদিকে	-6078
▁স্বস্ত	-6079
▁উত্তরাখ	-6080
▁জ্যোতিষ	-6081
▁তাকিয়ে	-6082
▁প্রবণতা	-6083
▁হুঁশিয়ারি	-6084
দুল	-6085
ষ্ম	-6086
▁up	-6087
ঠনিক	-6088
প্রী	-6089
িলার	-6090
্যাভ	-6091
▁জবা	-6092
▁লাফ	-6093
ন্মের	-6094
ভিত্ত	-6095
▁কমবে	-6096
▁ক্ষে	-6097
▁চেপে	-6098
▁তেলে	-6099
িকাঠাম	-6100
▁ক্রিম	-6101
▁অনুসরণ	-6102
▁উত্তরে	-6103
▁কমানোর	-6104
▁নক্ষত্র	-6105
▁ইউক্রেনে	-6106
▁রায়গঞ্জ	-6107
▁প্রতিবেদনে	-6108
▁স্বাভাবিকভাবেই	-6109
ac	-6110
১২	-6111
কাঠ	-6112
ভিক	-6113
হ্ম	-6114
▁By	-6115
কষ্ট	-6116
পিআই	-6117
শ্বর	-6118
সায়	-6119
▁বুথ	-6120
▁ভাত	-6121
▁এবছর	-6122
▁করলো	-6123
▁টলিউ	-6124
▁প্রভ	-6125
▁সড়ক	-6126
▁হারে	-6127
▁অয়েল	-6128
▁খারিজ	-6129
▁তুমুল	-6130
▁পরিষদ	-6131
▁প্যাট	-6132
▁পরগনার	-6133
▁প্রবীণ	-6134
▁শীর্ষে	-6135
▁চালাচ্ছে	-6136
▁পরিকাঠাম	-6137
▁প্রমাণিত	-6138
▁ইন্ডিয়ার	-6139
▁গ্রাহকদের	-6140
▁শ্রীলঙ্কার	-6141
,"	-6142
ফত	-6143
রিচ	-6144
▁শোর	-6145
▁কালী	-6146
▁খুঁজ	-6147
▁গোলে	-6148
▁রাখি	-6149
▁২০১৪	-6150
kraine	-6151
▁অভাবে	-6152
▁উপকরণ	-6153
▁ক্ষমা	-6154
▁চেষ্ট	-6155
▁মুগ্ধ	-6156
▁অবলম্ব	-6157
▁কাটাতে	-6158
▁কৃষকরা	-6159
▁প্রশংস	-6160
▁বায়ুস	-6161
▁মেলেনি	-6162
▁আয়োজিত	-6163
▁তারপরেই	-6164
▁Previous	-6165
▁পরিচালিত	-6166
অক্সিডেন্ট	-6167
▁এক্সপ্রেস	-6168
▁নাগরিকদের	-6169
▁শিলিগুড়ি	-6170
BP	-6171
চর	-6172
খ্য	-6173
পথে	-6174
বিক	-6175
োড়	-6176
▁আখ	-6177
▁৪৪	-6178
port	-6179
োটের	-6180
▁করণ	-6181
▁মাও	-6182
স্ক্র	-6183
▁অষ্ট	-6184
▁দিনই	-6185
▁নিচ্ছে	-6186
▁যাঁদের	-6187
▁টেস্টের	-6188
▁ওয়েবসাইট	-6189
▁বিশ্বভারত	-6190
▁বিজ্ঞানীরা	-6191
▁হিন্দুস্থান	-6192
▁আফগানিস্তানের	-6193
টুই	-6194
▁এশ	-6195
ated	-6196
খানা	-6197
ামীণ	-6198
▁কোষ	-6199
▁শোন	-6200
▁ঘাড়	-6201
▁ফুসফ	-6202
▁করলেই	-6203
▁কুম্ভ	-6204
▁জানার	-6205
▁তোমার	-6206
▁নারাজ	-6207
▁সার্ব	-6208
▁অগাস্ট	-6209
▁ছাড়ার	-6210
▁ডিভিশন	-6211
▁পাত্রে	-6212
▁স্টাইল	-6213
▁ইতিবাচক	-6214
▁লাগাতার	-6215
▁সংখ্যাল	-6216
▁সহযোগিতা	-6217
▁সিলিন্ডার	-6218
):	-6219
্গ	-6220
▁এও	-6221
▁দিত	-6222
▁বিছ	-6223
▁বেস	-6224
▁রেজ	-6225
▁হেন	-6226
জেক্ট	-6227
ত্তির	-6228
▁here	-6229
▁ইঞ্চ	-6230
▁বাবু	-6231
▁আসতেই	-6232
▁শাহের	-6233
ওয়ার্ড	-6234
▁পঞ্জাব	-6235
▁পুলিশি	-6236
▁মাইক্র	-6237
▁অস্বস্ত	-6238
▁ঘূর্ণিঝ	-6239
▁মহিলাকে	-6240
▁মেয়েকে	-6241
▁সংস্কার	-6242
▁সদস্যের	-6243
▁সমীক্ষা	-6244
▁স্বেচ্ছ	-6245
▁হার্দিক	-6246
▁মন্ত্রীর	-6247
▁সাংগঠনিক	-6248
▁আধিকারিকদের	-6249
21	-6250
উল	-6251
কান	-6252
পির	-6253
েরি	-6254
▁ছি	-6255
▁ঠা	-6256
▁শৈ	-6257
▁কিউ	-6258
▁ডিপ	-6259
▁নিশ	-6260
▁হেঁ	-6261
গেটিভ	-6262
মুক্ত	-6263
ামপুর	-6264
▁Cont	-6265
▁অগ্ন	-6266
▁সিটি	-6267
▁গতিতে	-6268
▁গ্রিন	-6269
▁টুইটে	-6270
▁পালিত	-6271
▁মানবা	-6272
▁মুদ্র	-6273
▁ম্যাস	-6274
▁রহমান	-6275
চ্ছিন্ন	-6276
▁বয়স্ক	-6277
▁ব্যাংক	-6278
▁ভাইরাসে	-6279
▁পড়াশোনা	-6280
▁কোলেস্টেরল	-6281
▁ময়নাতদন্তের	-6282
▁জী	-6283
▁রত	-6284
ovid	-6285
মাগত	-6286
ুষ্ঠ	-6287
▁টেল	-6288
▁লখন	-6289
dates	-6290
পাশের	-6291
▁ইন্দ	-6292
▁গণেশ	-6293
▁তুলা	-6294
▁প্রদ	-6295
▁মর্ম	-6296
▁যতটা	-6297
▁রেশন	-6298
▁শিবস	-6299
▁ইচ্ছে	-6300
▁টেলিভ	-6301
▁মানেই	-6302
▁সুভাষ	-6303
▁ত্বককে	-6304
▁সন্ধান	-6305
▁শুরুতেই	-6306
▁কন্ট্রোল	-6307
▁দুশ্চিন্ত	-6308
ya	-6309
ike	-6310
বেল	-6311
lish	-6312
টুকু	-6313
িকান	-6314
োলজি	-6315
▁Nex	-6316
▁আদা	-6317
▁কোল	-6318
▁একদম	-6319
▁ক্রী	-6320
▁অভিনব	-6321
▁জবাবে	-6322
▁তিনজন	-6323
▁ধোনির	-6324
▁প্রসে	-6325
▁শুষ্ক	-6326
▁সুখবর	-6327
▁সুনীল	-6328
▁সেনার	-6329
ownload	-6330
▁অন্যের	-6331
▁দম্পতি	-6332
▁স্বাগত	-6333
▁ক্ষতিকর	-6334
▁সেন্টার	-6335
▁ক্ষেত্রেও	-6336
▁প্রজন্মের	-6337
▁অস্বাভাবিক	-6338
▁করোনাভাইরাস	-6339
=1	-6340
ঁচু	-6341
▁কৈ	-6342
মাকে	-6343
▁সিঁ	-6344
চ্চার	-6345
পাতের	-6346
▁ঋদ্ধ	-6347
▁একথা	-6348
▁টিপস	-6349
▁দখলে	-6350
▁বস্ত	-6351
▁রওনা	-6352
▁আস্থা	-6353
▁ক্যার	-6354
▁খুলতে	-6355
▁বসবাস	-6356
▁বিডিও	-6357
▁ছেলেকে	-6358
▁যুদ্ধে	-6359
▁সংখ্যক	-6360
▁কর্তারা	-6361
▁ক্রমাগত	-6362
▁খানিকটা	-6363
▁পার্শ্ব	-6364
▁অর্থনীতি	-6365
▁পরিচালনা	-6366
▁অপেক্ষায়	-6367
▁ত্রিপুরার	-6368
▁বিশ্বকাপে	-6369
১৮	-6370
esh	-6371
জান	-6372
ণার	-6373
মেন	-6374
তরাং	-6375
রক্ষ	-6376
াপুর	-6377
িউনি	-6378
ুরির	-6379
▁ধান	-6380
▁ভিজ	-6381
ব্যাক	-6382
▁কর্ক	-6383
▁দমকল	-6384
▁লেনদ	-6385
▁ষষ্ঠ	-6386
িপূর্ণ	-6387
▁জিততে	-6388
▁টমেটো	-6389
▁তিনিও	-6390
▁বারের	-6391
▁ভেতরে	-6392
▁মিঠুন	-6393
▁মেগাপ	-6394
ভিত্তিক	-6395
▁গুঞ্জন	-6396
▁ঝামেলা	-6397
▁ফাইনাল	-6398
▁সুতরাং	-6399
▁নিযুক্ত	-6400
▁নিশ্চয়	-6401
▁ব্যাটার	-6402
▁বিরোধিতা	-6403
▁সেখানকার	-6404
IV	-6405
mi	-6406
ant	-6407
les	-6408
গুণ	-6409
▁আছ	-6410
্ষিক	-6411
▁Pro	-6412
▁ডান	-6413
▁মজব	-6414
▁মোহ	-6415
ussia	-6416
▁Read	-6417
▁ওদের	-6418
▁কানা	-6419
▁বিবি	-6420
▁মনোজ	-6421
▁হারা	-6422
বিরোধী	-6423
▁গয়না	-6424
▁দর্শন	-6425
▁বাগান	-6426
▁সময়ই	-6427
িয়েছেন	-6428
▁অফিসের	-6429
▁আইসোলে	-6430
▁আধুনিক	-6431
▁দোকানে	-6432
▁পড়ুনঃ	-6433
▁বরাদ্দ	-6434
▁Related	-6435
▁প্রতীকী	-6436
▁মোর্চার	-6437
▁সংক্রাম	-6438
▁পদ্ধতিতে	-6439
▁মিডিয়ার	-6440
▁প্রতিপক্ষ	-6441
▁স্থানীয়রা	-6442
▁মুখোপাধ্যায়ের	-6443
োত	-6444
ear	-6445
kar	-6446
পাক	-6447
পুত	-6448
বাই	-6449
▁গল	-6450
ারেট	-6451
▁গাই	-6452
▁দলব	-6453
▁অপ্র	-6454
▁ইন্স	-6455
▁গন্ধ	-6456
▁নিঃস	-6457
▁সহজে	-6458
▁সাধু	-6459
হত্যার	-6460
ুড়িতে	-6461
▁করাতে	-6462
▁খাবেন	-6463
▁জানাল	-6464
▁মজবুত	-6465
▁শাড়ি	-6466
▁স্নান	-6467
▁যন্ত্র	-6468
▁গ্রামীণ	-6469
▁জরিমানা	-6470
▁নিচ্ছেন	-6471
▁নেগেটিভ	-6472
▁প্রকল্পে	-6473
▁প্রজাতির	-6474
▁বিরোধীরা	-6475
▁অক্সিজেনের	-6476
▁অ্যাকাউন্টে	-6477
▁বাধ্যতামূলক	-6478
▁রবীন্দ্রনাথ	-6479
!'	-6480
ূন	-6481
▁a	-6482
কৃত	-6483
বয়	-6484
▁>>	-6485
▁Te	-6486
ব্যে	-6487
য়েত	-6488
ালয়	-6489
িমের	-6490
▁নুন	-6491
▁শাম	-6492
▁হরি	-6493
▁৩০০	-6494
কারের	-6495
▁এলেন	-6496
▁মিউজ	-6497
▁অবনতি	-6498
▁ওয়াই	-6499
▁চ্যাট	-6500
▁তিনিই	-6501
▁আপত্তি	-6502
▁ঊর্ধ্ব	-6503
▁দুরন্ত	-6504
▁বলিউডে	-6505
▁শাস্তি	-6506
▁ক্ষতিপূ	-6507
▁ডিসপ্লে	-6508
▁মুম্বাই	-6509
▁গণতন্ত্র	-6510
▁বিজ্ঞাপন	-6511
▁মোকাবিলা	-6512
▁বর্ধমানের	-6513
▁ইন্ডাস্ট্র	-6514
▁মানবাধিকার	-6515
শার	-6516
ুবন	-6517
ুবে	-6518
▁হক	-6519
মরান	-6520
িশের	-6521
্লার	-6522
▁ওঠা	-6523
▁মকর	-6524
▁সাধ	-6525
ভাগ্য	-6526
াকালে	-6527
▁আচমক	-6528
▁উড়ে	-6529
▁কিংস	-6530
▁গার্	-6531
▁বজ্র	-6532
স্টাইল	-6533
▁অ্যাট	-6534
▁কয়লা	-6535
▁কর্কট	-6536
▁গুপ্ত	-6537
▁বুলেট	-6538
▁শত্রু	-6539
▁সন্ধে	-6540
▁আবেদনের	-6541
▁পর্দায়	-6542
▁মহামারী	-6543
▁শুকিয়ে	-6544
▁Download	-6545
▁আলোচনায়	-6546
▁ট্যুইটার	-6547
▁সম্মেলনে	-6548
▁ওয়েবসাইটে	-6549
▁স্টেডিয়ামে	-6550
me	-6551
tic	-6552
▁হদ	-6553
▁৩৮	-6554
anda	-6555
্টেন	-6556
▁অজি	-6557
▁পদক	-6558
▁ভবন	-6559
▁হোস	-6560
চারের	-6561
▁রাইড	-6562
যাত্রা	-6563
▁তোলেন	-6564
▁নামতে	-6565
▁ব্রেক	-6566
▁মেয়র	-6567
▁কমেন্ট	-6568
▁ডিভাইস	-6569
▁সমাবেশ	-6570
▁অপরাজিত	-6571
▁ফেলেছেন	-6572
▁যোগ্যতা	-6573
▁সুকান্ত	-6574
▁প্রচারের	-6575
▁মন্তব্যের	-6576
▁সমর্থকদের	-6577
▁জলপাইগুড়ি	-6578
▁মোকাবিলায়	-6579
▁মুখ্যমন্ত্রীকে	-6580
পল	-6581
২৮	-6582
মেশ	-6583
▁বগ	-6584
ব্যা	-6585
সুমে	-6586
ুজোর	-6587
▁Zee	-6588
▁পাখ	-6589
▁ভরে	-6590
right	-6591
কার্ড	-6592
▁তবেই	-6593
▁শহিদ	-6594
▁কান্দ	-6595
▁ঘটিয়ে	-6596
▁বন্দুক	-6597
▁বাইরের	-6598
▁সার্টি	-6599
▁আরিয়ান	-6600
▁বাণিজ্য	-6601
▁মিলিয়ন	-6602
▁উত্তরবঙ্গ	-6603
▁রাজ্যসভার	-6604
▁আত্মবিশ্বাস	-6605
ডিট	-6606
▁TV	-6607
▁হই	-6608
▁৪৬	-6609
শালী	-6610
▁আরব	-6611
▁জোগ	-6612
▁ঠোঁ	-6613
▁সিস	-6614
র্যের	-6615
▁Next	-6616
▁খোসা	-6617
▁গৌতম	-6618
▁গ্রী	-6619
▁পিছু	-6620
▁বয়ে	-6621
▁বেড়	-6622
▁লেবু	-6623
▁সেতু	-6624
ব্যাপী	-6625
▁কমায়	-6626
▁গোপাল	-6627
▁ঝাড়খ	-6628
▁তলায়	-6629
▁প্রণব	-6630
▁শুকনো	-6631
▁হ্যাঁ	-6632
▁latest	-6633
▁আচমকাই	-6634
▁ঐতিহ্য	-6635
▁নেমেছে	-6636
▁ভারসাম	-6637
▁শ্বশুর	-6638
▁শ্রেয়	-6639
▁স্বচ্ছ	-6640
▁পদত্যাগ	-6641
▁পুরুলিয়া	-6642
▁পেট্রোলের	-6643
উত	-6644
৩৫	-6645
োকে	-6646
বারে	-6647
▁উপে	-6648
শিল্প	-6649
▁উদাহ	-6650
▁কমতে	-6651
▁টাইট	-6652
▁তুমি	-6653
▁লাইভ	-6654
▁লাদা	-6655
▁হনুম	-6656
▁পেঁপে	-6657
▁ফেলার	-6658
▁বার্ত	-6659
▁শেষের	-6660
▁ওপেনার	-6661
▁প্রোডাক	-6662
▁মন্ত্রক	-6663
▁মহিলারা	-6664
▁ছাড়িয়ে	-6665
▁সংস্কৃতি	-6666
▁টিকাকরণের	-6667
▁মূল্যবৃদ্ধ	-6668
▁অভিযুক্তদের	-6669
১৭	-6670
য়ী	-6671
াগর	-6672
্রা	-6673
▁নং	-6674
▁৫৪	-6675
বদ্ধ	-6676
শুমে	-6677
▁করত	-6678
▁দাশ	-6679
▁সিম	-6680
চার্জ	-6681
রাটের	-6682
িংয়ে	-6683
▁অর্প	-6684
▁দামে	-6685
▁বসতে	-6686
▁যাকে	-6687
▁কুকুর	-6688
▁কোষ্ঠ	-6689
▁ক্রিস	-6690
▁ডেভিড	-6691
▁ঢুকতে	-6692
▁দ্বীপ	-6693
▁পার্ট	-6694
▁পেস্ট	-6695
▁হিসেব	-6696
▁হোটেল	-6697
ান্তরিত	-6698
▁দুজনের	-6699
▁প্রকোপ	-6700
▁বিচ্ছে	-6701
▁সেভাবে	-6702
▁স্পর্শ	-6703
▁অনুভূতি	-6704
▁বিদ্রোহ	-6705
▁ময়দানে	-6706
▁স্পিকার	-6707
▁হেফাজতে	-6708
▁শ্বাসকষ্ট	-6709
eb	-6710
্জ	-6711
age	-6712
গতি	-6713
ডিজ	-6714
দুর	-6715
▁vs	-6716
▁৪৭	-6717
▁৫৫	-6718
▁৬৪	-6719
চায়	-6720
বরাজ	-6721
িপ্ত	-6722
▁অসং	-6723
▁চোপ	-6724
▁ডেল	-6725
▁বেন	-6726
বন্দর	-6727
▁পাকা	-6728
ান্তিক	-6729
▁ইংরেজ	-6730
▁ছায়া	-6731
▁পাঞ্জ	-6732
▁ফেলেন	-6733
▁বৈশাখ	-6734
▁রকমের	-6735
▁উপায়ে	-6736
▁তুলেছে	-6737
▁বাঁচতে	-6738
▁মরশুমে	-6739
▁যুক্তি	-6740
▁শিশুকে	-6741
▁অধ্যাপক	-6742
▁সার্ভিস	-6743
▁আত্মঘাতী	-6744
▁ঐতিহাসিক	-6745
▁ভারসাম্য	-6746
▁প্রতিষেধক	-6747
▁বাচ্চাদের	-6748
▁লাইফস্টাইল	-6749
▁সেনাবাহিনীর	-6750
az	-6751
ka	-6752
তাব	-6753
বরণ	-6754
ভিউ	-6755
▁ধূ	-6756
▁রশ	-6757
সীমা	-6758
ুম্ব	-6759
ুল্য	-6760
▁ABP	-6761
▁ঝাল	-6762
▁বৃষ	-6763
▁রুজ	-6764
কাঠিন	-6765
ধুনিক	-6766
▁উষ্ণ	-6767
▁কেউই	-6768
▁পরতে	-6769
▁ফ্যা	-6770
▁বলাই	-6771
▁মঙ্গ	-6772
▁হাঁস	-6773
েন্ডার	-6774
▁অপরের	-6775
▁বিশ্র	-6776
▁ভারতী	-6777
▁সূচনা	-6778
▁আরেকটি	-6779
▁ট্যুইট	-6780
▁দেয়নি	-6781
▁পোস্টে	-6782
▁সঙ্গেও	-6783
▁আদিবাসী	-6784
▁সংঘর্ষে	-6785
▁প্রশান্ত	-6786
▁বিতর্কের	-6787
▁সৌন্দর্য	-6788
▁হায়দরাবাদ	-6789
১৬	-6790
▁i	-6791
ity	-6792
চাই	-6793
ডিএ	-6794
রাই	-6795
হাত	-6796
াসন	-6797
াসপ	-6798
োনো	-6799
▁যো	-6800
সাথে	-6801
ৃতির	-6802
▁আজই	-6803
▁বিজ	-6804
▁যেত	-6805
জাতিক	-6806
▁আধার	-6807
▁মশলা	-6808
কলকাতা	-6809
বাড়ির	-6810
াক্রমে	-6811
▁আছড়ে	-6812
▁তুলনা	-6813
▁মোড়ে	-6814
▁শিরোন	-6815
▁শ্রীর	-6816
▁স্টাফ	-6817
▁এফআইআর	-6818
▁চিঠিতে	-6819
▁সময়েই	-6820
▁নায়িকা	-6821
▁লক্ষ্মী	-6822
▁সমর্থনে	-6823
▁স্টোরেজ	-6824
▁ডিরেক্টর	-6825
▁বালুরঘাট	-6826
▁ওয়ার্নার	-6827
▁মর্মান্তিক	-6828
▁নন্দীগ্রামে	-6829
▁প্ল্যাটফর্ম	-6830
▁মেদিনীপুরের	-6831
▁স্থানীয়দের	-6832
চু	-6833
olk	-6834
কাউ	-6835
▁টন	-6836
▁মৈ	-6837
lick	-6838
রাইজ	-6839
ুগলি	-6840
▁বহন	-6841
ন্ডার	-6842
্কায়	-6843
▁গায়	-6844
▁জানে	-6845
▁পদের	-6846
▁হোটে	-6847
▁দাম্প	-6848
▁নেয়া	-6849
▁ব্যাগ	-6850
▁লাভের	-6851
▁স্টার	-6852
▁ইউটিউব	-6853
▁দেখছেন	-6854
▁রক্তের	-6855
▁অস্বস্তি	-6856
▁নিয়ন্ত্র	-6857
▁কর্মক্ষেত্রে	-6858
ভো	-6859
ীশ	-6860
ial	-6861
▁নখ	-6862
▁বট	-6863
▁Pub	-6864
▁কাত	-6865
▁ঢাক	-6866
▁বংশ	-6867
▁৪০০	-6868
স্টিং	-6869
▁অস্ত	-6870
▁ফাইল	-6871
ফিকেশন	-6872
▁এগুলি	-6873
▁ফ্যান	-6874
▁হ্যাক	-6875
▁উদাহরণ	-6876
▁দুর্গা	-6877
▁মহাকাশ	-6878
▁শনাক্ত	-6879
▁অবলম্বন	-6880
▁ইস্যুতে	-6881
▁কার্ডের	-6882
▁সুপারিশ	-6883
▁অভিষেকের	-6884
▁আন্দোলনে	-6885
▁বিতর্কিত	-6886
▁সেঞ্চুরি	-6887
▁ক্যান্সার	-6888
▁বিধায়কের	-6889
▁জানিয়েছিল	-6890
ঙা	-6891
টেন	-6892
িলে	-6893
ক্সে	-6894
ব্যব	-6895
িবির	-6896
্মান	-6897
▁অসহ	-6898
▁টেন	-6899
▁বেজ	-6900
▁রাগ	-6901
শ্চিক	-6902
াবর্ত	-6903
▁চালা	-6904
▁বচ্চ	-6905
▁খ্যাত	-6906
▁গ্লাস	-6907
▁ত্রাণ	-6908
▁দিবসে	-6909
▁মেনেই	-6910
▁রাখবে	-6911
▁লাইনে	-6912
▁উপলব্ধ	-6913
▁কর্মরত	-6914
▁চাওয়া	-6915
▁পর্যটন	-6916
▁রাউন্ড	-6917
▁Publish	-6918
▁ওয়ানডে	-6919
▁কমপক্ষে	-6920
▁গাড়িটি	-6921
▁প্রদেশে	-6922
▁বিবাহিত	-6923
▁ব্যারাক	-6924
▁বিস্ফোরণ	-6925
▁মৃত্যুতে	-6926
▁সুরক্ষিত	-6927
▁ইনস্টিটিউট	-6928
নু	-6929
▁X	-6930
ময়ে	-6931
ুকের	-6932
ুটির	-6933
▁get	-6934
▁ছিন	-6935
▁পাউ	-6936
▁বোত	-6937
▁মাথ	-6938
▁রাফ	-6939
▁রোধ	-6940
স্কের	-6941
▁উদয়	-6942
▁গ্যা	-6943
▁গ্রহ	-6944
▁চমকে	-6945
▁জেলে	-6946
▁নাটক	-6947
▁পাইল	-6948
▁রেজি	-6949
▁২০১১	-6950
য়ারের	-6951
▁অজানা	-6952
▁ইউজার	-6953
▁এবারে	-6954
▁করিনা	-6955
▁রাতেই	-6956
▁লোকের	-6957
▁সেন্স	-6958
▁প্রেমে	-6959
▁সহায়ক	-6960
▁সামনের	-6961
▁হোটেলে	-6962
▁আফ্রিকা	-6963
▁একদিনের	-6964
▁কার্তিক	-6965
▁টার্গেট	-6966
▁দেখেছেন	-6967
▁ধর্ষণের	-6968
▁শতাংশের	-6969
▁সিনেমায়	-6970
▁আকর্ষণীয়	-6971
▁শ্রীলঙ্কা	-6972
▁সেলসিয়াস	-6973
▁কোষ্ঠকাঠিন	-6974
GB	-6975
▁অট	-6976
▁ঋষ	-6977
▁ঘু	-6978
গড়া	-6979
মনের	-6980
▁উইল	-6981
▁একক	-6982
▁খাঁ	-6983
▁নেশ	-6984
▁সংয	-6985
বাসীর	-6986
াবাদী	-6987
▁পল্ল	-6988
▁পারদ	-6989
▁বাজি	-6990
▁ভাঙা	-6991
▁ভিতর	-6992
▁মসজি	-6993
▁মহাস	-6994
আমাদের	-6995
পশ্চিম	-6996
▁জীবাণ	-6997
▁তাত্‍	-6998
▁ভাবতে	-6999
▁ম্যাক	-7000
▁লাগছে	-7001
▁অন্দরে	-7002
▁চত্বরে	-7003
▁ছড়ায়	-7004
▁বাস্তব	-7005
▁বিদেশি	-7006
▁ভাঙচুর	-7007
▁রায়কে	-7008
▁জেলাশাসক	-7009
▁পেয়েছিল	-7010
▁ব্যাকটের	-7011
▁বিচ্ছিন্ন	-7012
▁লড়াইয়ের	-7013
▁ইস্টবেঙ্গল	-7014
▁যুক্তরাষ্ট্রের	-7015
oy	-7016
১৪	-7017
২৪	-7018
ভেন	-7019
▁Cr	-7020
▁ঘা	-7021
ঘড়ি	-7022
াফিক	-7023
েক্ট	-7024
▁অটো	-7025
▁আদৌ	-7026
▁১৯৮	-7027
াপত্র	-7028
▁ছত্র	-7029
▁ফলের	-7030
▁মজার	-7031
▁শাসন	-7032
olkata	-7033
িনিয়র	-7034
▁দেননি	-7035
▁বাঁধা	-7036
▁রেস্ত	-7037
▁অমিতাভ	-7038
▁ইন্দ্র	-7039
▁এভাবেই	-7040
▁তারকার	-7041
▁নিন্দা	-7042
▁পেশায়	-7043
▁বন্ধুর	-7044
▁মহানগর	-7045
▁সেগুলো	-7046
▁স্বর্ণ	-7047
▁updates	-7048
▁নজরদারি	-7049
▁পরিবেশন	-7050
▁বাঁকুড়	-7051
▁বৃশ্চিক	-7052
▁হাওড়ার	-7053
▁দাঁড়াতে	-7054
▁যথাক্রমে	-7055
▁স্বীকৃতি	-7056
▁অ্যান্ড্র	-7057
▁আমেরিকায়	-7058
▁পেয়েছিলেন	-7059
▁হারিয়েছেন	-7060
▁আফগানিস্তানে	-7061
▁শিক্ষামন্ত্রী	-7062
ID	-7063
হু	-7064
িফ	-7065
ind	-7066
নিম	-7067
মিশ	-7068
ষ্প	-7069
হান	-7070
ঘাটে	-7071
ছিলে	-7072
ুমের	-7073
▁নাস	-7074
▁মাখ	-7075
▁রিট	-7076
▁হিজ	-7077
ক্ষ্ম	-7078
▁উন্ম	-7079
▁পন্থ	-7080
য়াপ্ত	-7081
▁আকাশে	-7082
▁এগুলো	-7083
▁চর্বি	-7084
▁দেখান	-7085
▁স্কোর	-7086
▁গঙ্গার	-7087
▁ছাড়তে	-7088
▁প্রাণী	-7089
▁ভুগছেন	-7090
▁শর্মার	-7091
▁স্বভাব	-7092
▁আশেপাশে	-7093
▁উপেক্ষা	-7094
▁গান্ধীর	-7095
▁হামলায়	-7096
▁আফ্রিকার	-7097
▁ছাড়পত্র	-7098
▁দুর্গাপুর	-7099
▁আক্রান্তদের	-7100
▁)	-7101
আইএ	-7102
ব্ল	-7103
িকপ	-7104
িলি	-7105
▁ধা	-7106
ীর্থ	-7107
▁অনা	-7108
▁শাখ	-7109
▁ষড়	-7110
াবলিক	-7111
▁কথাই	-7112
▁গর্ভ	-7113
▁টেকন	-7114
▁তড়ি	-7115
▁বললে	-7116
▁লখনউ	-7117
▁সম্ব	-7118
▁হোয়	-7119
িকভাবে	-7120
▁চর্চা	-7121
▁উদ্বোধ	-7122
▁কর্ণাট	-7123
▁ক্ষতির	-7124
▁ঝুলন্ত	-7125
▁ধোঁয়া	-7126
▁পরাজিত	-7127
▁রিয়ার	-7128
▁সঞ্চাল	-7129
▁অনুশীলন	-7130
▁বিপক্ষে	-7131
▁বেড়াতে	-7132
▁ম্যানেজ	-7133
▁সংবিধান	-7134
▁নেটওয়ার	-7135
▁কিংবদন্তি	-7136
▁বাজেয়াপ্ত	-7137
▁প্রতিদ্বন্দ্ব	-7138
In	-7139
ভুত	-7140
▁13	-7141
▁Up	-7142
টাকে	-7143
স্কর	-7144
▁Res	-7145
▁অদ্	-7146
▁নোট	-7147
▁বেক	-7148
▁মেদ	-7149
orona	-7150
কারীর	-7151
▁দাপট	-7152
বিজেপি	-7153
স্বামী	-7154
▁আসেনি	-7155
▁করতেও	-7156
▁ম্যাগ	-7157
▁সফরের	-7158
▁ট্রেনে	-7159
▁প্রয়া	-7160
▁শোরগোল	-7161
▁সিপিআই	-7162
▁হেয়ার	-7163
▁বৃহত্তম	-7164
▁রক্তদান	-7165
▁প্রতিনিধ	-7166
▁সংক্রমণে	-7167
▁সেইসঙ্গে	-7168
▁ম্যানেজার	-7169
▁দুষ্কৃতীরা	-7170
▁মস্তিষ্কের	-7171
▁সেনাবাহিনী	-7172
২৩	-7173
তুর	-7174
লাভ	-7175
▁৪৯	-7176
edmi	-7177
inue	-7178
াব্য	-7179
িব্র	-7180
▁তপন	-7181
▁দশম	-7182
▁হিট	-7183
্মীরে	-7184
▁আরাম	-7185
▁বিনা	-7186
▁সাসপ	-7187
কাণ্ডে	-7188
▁দেহের	-7189
▁অশান্ত	-7190
▁বঞ্চিত	-7191
▁বিএসএফ	-7192
▁শরীরকে	-7193
▁কুমারের	-7194
▁নারীদের	-7195
▁পরিকল্প	-7196
▁শ্যাম্প	-7197
▁তড়িঘড়ি	-7198
▁নজরবন্দি	-7199
▁সংস্থাটি	-7200
▁সিপিএমের	-7201
▁পড়েছিলেন	-7202
▁প্রত্যক্ষ	-7203
▁প্রত্যেকে	-7204
▁অত্যাধুনিক	-7205
▁ফেব্রুয়ার	-7206
ছুর	-7207
নকে	-7208
মিল	-7209
র্ট	-7210
্ভব	-7211
▁থে	-7212
াঞ্চ	-7213
্রেড	-7214
▁for	-7215
▁এলা	-7216
▁ভাট	-7217
▁রোম	-7218
▁সবই	-7219
ানিতে	-7220
▁ঘটতে	-7221
▁থাকি	-7222
▁ধাপে	-7223
▁ব্রণ	-7224
ার্সের	-7225
▁অবসান	-7226
▁উপকূল	-7227
▁দেখলে	-7228
▁পড়লে	-7229
▁আর্দ্র	-7230
▁এইভাবে	-7231
▁ঠাণ্ডা	-7232
▁ফেলেছে	-7233
▁সর্বদা	-7234
▁সাক্ষী	-7235
▁স্থাপন	-7236
▁হেলিকপ	-7237
▁গ্রহণের	-7238
▁প্রথমেই	-7239
▁বাঙালির	-7240
▁সানরাইজ	-7241
▁হঠাত্‍ই	-7242
▁অস্থায়ী	-7243
▁জানুয়ার	-7244
▁জনপ্রিয়তা	-7245
খর	-7246
করণ	-7247
ফ্ল	-7248
▁এহ	-7249
তাকে	-7250
মন্ড	-7251
াত্য	-7252
োল্ড	-7253
▁গিল	-7254
▁দফা	-7255
▁বুম	-7256
রাজ্য	-7257
সংযোগ	-7258
্‍কার	-7259
▁মদ্য	-7260
▁মারণ	-7261
▁সৌগত	-7262
▁হুগল	-7263
ড়িয়া	-7264
▁কাছেই	-7265
▁ঘুরতে	-7266
▁টোকিও	-7267
▁দিকেই	-7268
▁প্যার	-7269
▁প্রিম	-7270
▁বাছাই	-7271
▁ব্রাজ	-7272
▁স্থিত	-7273
▁হুগলি	-7274
▁পড়লেন	-7275
▁অরবিন্দ	-7276
▁ডিফেন্স	-7277
▁পরিপ্রে	-7278
▁ব্যবসার	-7279
▁মেয়েরা	-7280
▁Continue	-7281
▁অলিম্পিক	-7282
▁চক্রবর্ত	-7283
▁দাঁড়ায়	-7284
▁ক্যাপ্টেন	-7285
▁সংখ্যালঘু	-7286
▁ক্রিকেটারদের	-7287
▁প্রতিকারগুলি	-7288
22	-7289
ld	-7290
ণ্	-7291
IVE	-7292
টাও	-7293
লান	-7294
াদু	-7295
▁Ch	-7296
▁En	-7297
▁৫৬	-7298
কাতে	-7299
ড়াও	-7300
্টের	-7301
▁জিও	-7302
▁ধনু	-7303
▁বমি	-7304
Phone	-7305
স্থাপ	-7306
▁LIVE	-7307
▁মায়	-7308
ticles	-7309
▁জোটের	-7310
▁নারীর	-7311
▁নোটিশ	-7312
▁পারছে	-7313
▁বেকার	-7314
▁মূর্ত	-7315
▁সমন্ব	-7316
কেন্দ্র	-7317
▁অসংখ্য	-7318
▁একসময়	-7319
▁কারখান	-7320
▁ক্ষেপণ	-7321
▁প্রসাদ	-7322
▁লাগাতে	-7323
▁Reading	-7324
▁অভিযানে	-7325
▁একাংশের	-7326
▁বাহুল্য	-7327
বিদ্যুত্‍	-7328
▁Articles	-7329
▁জানাচ্ছে	-7330
▁বিপর্যয়	-7331
▁পরবর্তীতে	-7332
ru	-7333
খার	-7334
▁Ph	-7335
▁৪৩	-7336
পন্থ	-7337
পালে	-7338
াতির	-7339
▁খনি	-7340
▁ঘাম	-7341
▁যথা	-7342
▁হেড	-7343
Click	-7344
▁গানে	-7345
▁মহার	-7346
▁শীতল	-7347
▁স্পে	-7348
সিয়াম	-7349
▁আসবেন	-7350
▁একটাই	-7351
▁এতটাই	-7352
▁ময়না	-7353
▁মিথুন	-7354
▁সামাল	-7355
▁অর্থের	-7356
▁আরসিবি	-7357
▁বিশেষত	-7358
▁অধ্যক্ষ	-7359
▁সিনিয়র	-7360
▁হার্টের	-7361
▁জঙ্গিদের	-7362
▁নিয়েছিল	-7363
▁প্রদর্শন	-7364
▁সমর্থকরা	-7365
▁মোহনবাগান	-7366
▁নেটিজেনদের	-7367
▁প্রাথমিকভাবে	-7368
কত	-7369
তই	-7370
out	-7371
টিও	-7372
বড়	-7373
বোধ	-7374
▁দা	-7375
▁নগ	-7376
পর্য	-7377
ান্দ	-7378
▁ওঠেন	-7379
▁ধারে	-7380
▁পর্ষ	-7381
▁পানি	-7382
▁ফেটে	-7383
▁মিলল	-7384
▁লোকে	-7385
▁শর্ত	-7386
▁স্টি	-7387
▁অসমের	-7388
▁ওয়াক	-7389
▁কোটির	-7390
▁ডিমের	-7391
▁সর্দি	-7392
▁বাচ্চা	-7393
▁বিচারক	-7394
▁সাইকেল	-7395
▁এমনিতেই	-7396
▁ট্রেনের	-7397
▁সেখানেও	-7398
▁পড়ুয়ারা	-7399
▁অভিযুক্তকে	-7400
▁ব্যানার্জি	-7401
▁ক্ষেপণাস্ত্র	-7402
▁সংবাদমাধ্যমের	-7403
16	-7404
.):	-7405
App	-7406
চয়	-7407
দুন	-7408
শিত	-7409
িডি	-7410
▁নই	-7411
াধীন	-7412
▁ওঁর	-7413
▁ভাঁ	-7414
▁সিড	-7415
কালেই	-7416
তাদের	-7417
ত্বের	-7418
নিম্ন	-7419
্যাটর	-7420
▁ফোর্	-7421
▁রুটি	-7422
কিন্তু	-7423
স্পর্শ	-7424
ালয়ের	-7425
িকাদের	-7426
োগ্রাফ	-7427
▁ওয়াশ	-7428
▁গ্রাফ	-7429
▁ছিলাম	-7430
▁ড্রাগ	-7431
▁দ্বিগ	-7432
▁নায়ক	-7433
▁সংসদে	-7434
ক্ষেত্র	-7435
▁অর্ধেক	-7436
▁উদযাপন	-7437
▁এজেন্ট	-7438
▁কেকেআর	-7439
▁রেসিপি	-7440
▁হাজিরা	-7441
▁নির্ধারণ	-7442
▁ডায়াবেটি	-7443
▁বিমানবন্দর	-7444
▁বেঙ্গালুরু	-7445
▁রাজস্থানের	-7446
▁বিমানবন্দরে	-7447
বাক	-7448
ভির	-7449
সেল	-7450
▁অদ	-7451
▁দো	-7452
▁বউ	-7453
stag	-7454
বোর্	-7455
মোহন	-7456
▁অবি	-7457
▁আঁচ	-7458
▁চুপ	-7459
▁তিল	-7460
▁পাপ	-7461
প্যাক	-7462
▁কবলে	-7463
▁কালে	-7464
▁দ্বি	-7465
▁নীতী	-7466
▁মাকে	-7467
▁মাতৃ	-7468
▁যেটা	-7469
▁রানি	-7470
▁সাগর	-7471
ীর্বাদ	-7472
▁ইমরান	-7473
▁ক্লিন	-7474
▁জনসভা	-7475
▁জেরেই	-7476
▁দুধের	-7477
▁নামার	-7478
▁ব্লাড	-7479
▁ভ্যাল	-7480
▁মত্‍স	-7481
▁রুপোর	-7482
▁কম্পিউ	-7483
▁দুজনেই	-7484
▁পর্বের	-7485
▁অপরদিকে	-7486
▁কর্তব্য	-7487
▁কালিয়া	-7488
▁প্রশাসক	-7489
▁বিলিয়ন	-7490
▁দাম্পত্য	-7491
▁বন্ধুত্ব	-7492
▁চেয়েছিলেন	-7493
▁পরিপ্রেক্ষিতে	-7494
all	-7495
টেও	-7496
নোর	-7497
▁টো	-7498
▁৫৯	-7499
▁৬৫	-7500
orld	-7501
তৃণম	-7502
স্বর	-7503
ূলের	-7504
ৃষ্ট	-7505
োরের	-7506
▁ধুল	-7507
▁রিম	-7508
কালের	-7509
জ্জনক	-7510
ভাবনা	-7511
শ্চার	-7512
▁Like	-7513
▁news	-7514
▁দেবা	-7515
▁পরার	-7516
▁ভুবন	-7517
▁অপমান	-7518
▁ফাঁকা	-7519
▁রাখলে	-7520
▁স্থির	-7521
▁স্যাম	-7522
stagram	-7523
▁আইসিসি	-7524
▁এসএসসি	-7525
▁নেতাকে	-7526
▁পদার্থ	-7527
▁মনোভাব	-7528
▁মরিয়া	-7529
▁মাঝারি	-7530
▁রাজপুত	-7531
▁অতিক্রম	-7532
▁একইভাবে	-7533
▁পাড়ায়	-7534
▁ভাইয়ের	-7535
▁লাগানোর	-7536
▁হোয়াইট	-7537
▁পার্থক্য	-7538
▁অনুরাগীরা	-7539
▁অফিসিয়াল	-7540
▁কর্মসূচির	-7541
▁ষড়যন্ত্র	-7542
▁ক্যালসিয়াম	-7543
▁দক্ষিণবঙ্গের	-7544
sh	-7545
▁0	-7546
ফান	-7547
▁৭২	-7548
তারা	-7549
াপতি	-7550
▁এগো	-7551
▁হাফ	-7552
াকাটা	-7553
▁আর্জ	-7554
▁ওরফে	-7555
▁ঘোরা	-7556
▁ঠিকই	-7557
▁ব্রি	-7558
▁সেমি	-7559
▁Redmi	-7560
▁আকারে	-7561
▁আপলোড	-7562
▁এবারও	-7563
▁জ্যাক	-7564
▁দেবের	-7565
▁পর্বে	-7566
▁বর্ষা	-7567
▁বিতরণ	-7568
▁বেড়া	-7569
▁মানের	-7570
▁স্বপন	-7571
▁হোসেন	-7572
ওয়ানের	-7573
▁Russia	-7574
▁আগ্রহী	-7575
▁দাঁতের	-7576
▁নিশানা	-7577
▁কিছুতেই	-7578
▁আশীর্বাদ	-7579
▁বিনিময়ে	-7580
▁যাতায়াত	-7581
ase	-7582
ঘ্ন	-7583
▁জস	-7584
▁ভৌ	-7585
▁৯৮	-7586
্যসা	-7587
▁অলি	-7588
▁বাট	-7589
নগরের	-7590
যুদ্ধ	-7591
শ্বাস	-7592
াপনের	-7593
▁এহেন	-7594
▁কেরল	-7595
▁ক্লা	-7596
▁গণনা	-7597
▁গরমে	-7598
▁গাছে	-7599
▁নেহা	-7600
▁বিরল	-7601
▁হয়ত	-7602
িয়ানা	-7603
▁অষ্টম	-7604
▁আড়াই	-7605
▁কারোর	-7606
▁গায়ক	-7607
▁জমিতে	-7608
▁মালদহ	-7609
▁লিগের	-7610
▁সাহিত	-7611
মেন্টের	-7612
▁ডেপুটি	-7613
▁মল্লিক	-7614
▁সব্যসা	-7615
▁হনুমান	-7616
▁Ukraine	-7617
▁অ্যাপ্ল	-7618
▁পৌঁছেছে	-7619
▁প্রচণ্ড	-7620
▁ব্যান্ড	-7621
▁এলাকাবাস	-7622
▁যন্ত্রণা	-7623
▁শান্তিপুর	-7624
▁বিদ্যালয়ের	-7625
▁চ্যাম্পিয়নশিপ	-7626
ai	-7627
oc	-7628
নজ	-7629
ঘরে	-7630
াইর	-7631
▁দী	-7632
▁৫৩	-7633
োচনা	-7634
্কার	-7635
▁আপন	-7636
▁ঘটল	-7637
▁তৃন	-7638
▁West	-7639
▁post	-7640
▁অপরি	-7641
▁আব্দ	-7642
▁টাইম	-7643
▁দৃঢ়	-7644
▁বলছি	-7645
▁ভবনে	-7646
▁মজুত	-7647
ায়নিক	-7648
্যাঞ্চ	-7649
▁জার্স	-7650
▁ট্রফি	-7651
▁প্রাই	-7652
▁মাছের	-7653
▁সংস্থ	-7654
▁ঘন্টার	-7655
▁ধারায়	-7656
▁ভক্তরা	-7657
▁অ্যাম্ব	-7658
▁সর্বশেষ	-7659
▁অভিনয়ের	-7660
▁হাতিয়ার	-7661
▁গোয়েন্দা	-7662
▁প্রতিবেশী	-7663
▁সম্পত্তির	-7664
▁সর্বনিম্ন	-7665
▁চক্রবর্তীর	-7666
▁রাজ্যজুড়ে	-7667
▁উত্তরপ্রদেশে	-7668
ফলে	-7669
াতন	-7670
▁ইট	-7671
▁গন	-7672
তরান	-7673
োক্ত	-7674
▁খেত	-7675
▁টিউ	-7676
▁টের	-7677
▁ন্য	-7678
▁ইচ্ছ	-7679
▁উঁচু	-7680
▁কপিল	-7681
▁দেহে	-7682
▁বাটা	-7683
▁বিরত	-7684
▁মেসি	-7685
ান্ডার	-7686
▁উল্টে	-7687
▁ব্লকে	-7688
▁রিয়ে	-7689
▁লিঙ্ক	-7690
▁অন্ধ্র	-7691
▁ওষুধের	-7692
▁বিদেশে	-7693
▁সঙ্গীর	-7694
▁সেন্সর	-7695
▁ক্লান্ত	-7696
▁বেশকিছু	-7697
▁লাফিয়ে	-7698
▁শরীরচর্	-7699
▁সভাপতির	-7700
▁সাজিয়ে	-7701
▁স্পোর্ট	-7702
▁উপস্থিতি	-7703
▁বিপজ্জনক	-7704
▁ভালোবাসা	-7705
▁সংস্পর্শ	-7706
▁মুহূর্তের	-7707
▁রাসায়নিক	-7708
▁প্রার্থীরা	-7709
কন	-7710
টাউ	-7711
দমে	-7712
সেই	-7713
▁ইভ	-7714
▁৫২	-7715
alme	-7716
কায়	-7717
ুটার	-7718
▁জোন	-7719
▁সিট	-7720
জ্ঞান	-7721
ন্নাথ	-7722
▁অপার	-7723
▁আনিস	-7724
▁কখনই	-7725
▁গণ্ড	-7726
▁ফাটল	-7727
▁বসেন	-7728
▁সিদ্	-7729
▁খোঁজে	-7730
▁চন্দন	-7731
▁বনগাঁ	-7732
▁ব্যাব	-7733
▁রাকেশ	-7734
▁সপ্তম	-7735
▁আশ্রয়	-7736
▁সাইবার	-7737
▁হত্যার	-7738
▁উত্তেজন	-7739
▁চিন্তার	-7740
▁জমায়েত	-7741
▁সচেতনতা	-7742
▁কংগ্রেসে	-7743
▁সম্ভাব্য	-7744
▁সুস্মিতা	-7745
▁আদিত্যনাথ	-7746
▁কম্পিউটার	-7747
▁পর্যটকদের	-7748
▁হস্তক্ষেপ	-7749
▁ভ্যারিয়েন্ট	-7750
▁করোনাভাইরাসের	-7751
কেত	-7752
লিত	-7753
ুমে	-7754
▁19	-7755
▁ঢো	-7756
নন্দ	-7757
্টিভ	-7758
্ডিং	-7759
▁পাট	-7760
▁মৌল	-7761
বাহিত	-7762
সমর্থ	-7763
▁Khan	-7764
▁অনিল	-7765
▁টাইপ	-7766
▁দাদা	-7767
▁নিলে	-7768
▁বলুন	-7769
▁ভেতর	-7770
▁শর্ক	-7771
▁হিমা	-7772
▁আস্তে	-7773
▁ক্রয়	-7774
▁দিলেও	-7775
▁নিজেও	-7776
▁ফ্যাক	-7777
▁বসানো	-7778
▁মাহাত	-7779
▁সেদ্ধ	-7780
▁জোরদার	-7781
▁প্যালে	-7782
▁মনোযোগ	-7783
▁মিছিলে	-7784
▁সামগ্র	-7785
▁হিংসার	-7786
▁গ্রীষ্ম	-7787
▁প্রভাবে	-7788
▁ফ্ল্যাট	-7789
▁মেট্রোর	-7790
▁সূর্যের	-7791
▁স্বার্থ	-7792
তান্ত্রিক	-7793
▁ট্রায়াল	-7794
▁ধাক্কায়	-7795
▁নিশ্চয়ই	-7796
▁পরিষেবার	-7797
▁ভালোভাবে	-7798
▁ডাক্তারের	-7799
▁পর্যায়ের	-7800
▁ব্যানার্জ	-7801
▁সিদ্ধার্থ	-7802
▁অনুরাগীদের	-7803
▁ভারতবর্ষের	-7804
▁রাজ্যপালের	-7805
▁মহারাষ্ট্রে	-7806
▁সানরাইজার্স	-7807
ok	-7808
শত	-7809
ala	-7810
hos	-7811
মিন	-7812
যদি	-7813
ূলে	-7814
িপার	-7815
োঁটা	-7816
্ল্ড	-7817
▁The	-7818
▁কীর	-7819
▁কেশ	-7820
▁ঘাঁ	-7821
▁তুর	-7822
▁তুষ	-7823
▁দীন	-7824
▁পিঠ	-7825
▁পির	-7826
▁মিট	-7827
াইনের	-7828
▁ঢেলে	-7829
▁দাবী	-7830
▁পটাশ	-7831
▁প্রি	-7832
▁রঞ্জ	-7833
▁সুরে	-7834
▁হাতি	-7835
▁জনসংখ	-7836
▁তুলসী	-7837
▁দৌড়ে	-7838
▁পুকুর	-7839
▁পেসার	-7840
▁ভাঙার	-7841
▁সঙ্কট	-7842
ার্থীরা	-7843
▁iPhone	-7844
▁আনুষ্ঠ	-7845
▁ভাবছেন	-7846
▁শতাধিক	-7847
▁অধিবেশন	-7848
▁পাহাড়ে	-7849
▁বিক্রির	-7850
▁ব্রাত্য	-7851
▁স্ক্রিন	-7852
▁স্ট্রিট	-7853
▁মিশ্রণটি	-7854
▁কর্মকর্তা	-7855
▁ট্রাম্পের	-7856
▁বিচারপতির	-7857
li	-7858
৯০	-7859
ard	-7860
টেক	-7861
হির	-7862
ীতি	-7863
▁at	-7864
▁৫৭	-7865
জনিত	-7866
হাটি	-7867
্যতা	-7868
্লাহ	-7869
▁এসি	-7870
▁গির	-7871
▁গেট	-7872
▁হাব	-7873
ীয়ান	-7874
▁করুক	-7875
▁কাগজ	-7876
▁মালদ	-7877
বাহিনী	-7878
▁অপসার	-7879
▁কার্ব	-7880
▁নোটিস	-7881
▁প্রিন	-7882
▁ফাস্ট	-7883
▁ফ্যাট	-7884
▁মেশিন	-7885
▁রেঞ্জ	-7886
▁সিনহা	-7887
▁সোশাল	-7888
▁পোশাকে	-7889
▁বিক্রে	-7890
▁নামিয়ে	-7891
▁সমস্যাও	-7892
▁সুস্বাদ	-7893
▁ক্যাপশনে	-7894
▁চিন্তায়	-7895
▁সাফল্যের	-7896
▁সুপ্রিমো	-7897
▁আইসোলেশনে	-7898
▁ক্ষতিপূরণ	-7899
▁দুনিয়ায়	-7900
▁আত্মহত্যার	-7901
▁আনুষ্ঠানিক	-7902
▁প্রেসকার্ড	-7903
▁অ্যান্ড্রয়েড	-7904
ূট	-7905
২৬	-7906
জাহ	-7907
লেশ	-7908
▁15	-7909
▁৭৩	-7910
▁৯৫	-7911
▁ছিট	-7912
▁বহি	-7913
▁ভেন	-7914
▁শাল	-7915
▁সিগ	-7916
▁১৫০	-7917
কেন্দ	-7918
বিত্ত	-7919
য়ালি	-7920
▁অসুখ	-7921
▁আয়ু	-7922
▁গঠিত	-7923
▁জমির	-7924
▁তালে	-7925
▁পরেশ	-7926
▁মুছে	-7927
▁মোটা	-7928
▁রীতি	-7929
▁লিগে	-7930
ক্ষমতা	-7931
নেত্রী	-7932
▁2021:	-7933
▁এরপরে	-7934
▁বিনয়	-7935
▁মিলছে	-7936
শৃঙ্খলা	-7937
▁খাবারে	-7938
▁খুললেন	-7939
▁গুজরাট	-7940
▁দেশটির	-7941
▁ধৃতদের	-7942
▁পৌঁছয়	-7943
▁রোগীকে	-7944
▁সংসদের	-7945
▁সাবমের	-7946
▁জগন্নাথ	-7947
▁ট্রান্স	-7948
▁প্রতিমা	-7949
▁উইলিয়াম	-7950
▁চাকরিপ্র	-7951
▁দুর্গন্ধ	-7952
▁অনুপস্থিত	-7953
▁নির্মাণের	-7954
▁প্রচেষ্টা	-7955
▁ব্যবস্থার	-7956
▁শ্রমিকদের	-7957
▁উত্তরবঙ্গে	-7958
▁কার্যালয়ে	-7959
▁তদন্তকারীরা	-7960
▁প্রতিযোগিতা	-7961
ep	-7962
ob	-7963
ঘণ	-7964
erv	-7965
বেক	-7966
লিন	-7967
লির	-7968
ৃতা	-7969
▁Sh	-7970
জীবন	-7971
বহুল	-7972
সম্প	-7973
াশিস	-7974
▁আনে	-7975
▁কেক	-7976
▁ঘাস	-7977
▁মসল	-7978
▁লিপ	-7979
আপনার	-7980
বিধার	-7981
াইলের	-7982
▁ঘেরা	-7983
▁ডেলি	-7984
▁ধরার	-7985
▁পারব	-7986
িমিটেড	-7987
▁ইঞ্চি	-7988
▁উপরের	-7989
▁উল্টো	-7990
▁কিডনি	-7991
▁ট্যাব	-7992
▁তাড়া	-7993
▁পাখির	-7994
▁পাশের	-7995
▁প্লাস	-7996
▁বগটুই	-7997
▁রুদ্র	-7998
▁শিশির	-7999
▁সেটাও	-8000
▁হেঁটে	-8001
গ্রামের	-8002
▁অর্ডার	-8003
▁আতঙ্কে	-8004
▁উপলক্ষ	-8005
▁একজনের	-8006
▁করানোর	-8007
▁অ্যাপের	-8008
▁ইউনিয়ন	-8009
▁খেলেছেন	-8010
▁জিতেছেন	-8011
▁ট্রাফিক	-8012
▁ট্র্যাক	-8013
▁ঢেউয়ের	-8014
▁মানুষজন	-8015
▁রিসার্চ	-8016
▁সায়ন্ত	-8017
▁দুষ্কৃতী	-8018
▁পৃথিবীতে	-8019
▁ব্যবহারে	-8020
▁শিয়ালদহ	-8021
▁সুস্বাদু	-8022
▁স্বার্থে	-8023
▁সার্টিফিকে	-8024
▁সিদ্ধান্তে	-8025
▁সংবাদমাধ্যম	-8026
২৭	-8027
ics	-8028
www	-8029
ঠাক	-8030
িংস	-8031
▁নক	-8032
োহিত	-8033
▁কনভ	-8034
▁দশক	-8035
▁রুম	-8036
▁সাউ	-8037
পিটাল	-8038
▁আর্ম	-8039
▁কেলে	-8040
▁চিনা	-8041
▁ডুবে	-8042
▁মেতে	-8043
▁রক্ষ	-8044
▁সেবা	-8045
গঞ্জের	-8046
▁খেলবে	-8047
▁পাইলট	-8048
▁মাটির	-8049
▁সংগীত	-8050
যাত্রার	-8051
▁অক্ষয়	-8052
▁কর্মসং	-8053
▁গোয়ার	-8054
▁ঠেকাতে	-8055
▁নির্দল	-8056
▁বাড়ার	-8057
▁চিন্তিত	-8058
▁ঠাকুরের	-8059
▁ফিরেছেন	-8060
▁বিদ্যাস	-8061
▁ভ্রমণের	-8062
▁সিংয়ের	-8063
▁নাবালিকা	-8064
▁শ্যাম্পু	-8065
▁ফ্রান্সের	-8066
▁বর্ষীয়ান	-8067
▁বিশেষভাবে	-8068
▁ভালোবাসার	-8069
▁চাঞ্চল্যকর	-8070
▁বিধায়কদের	-8071
▁মেগাপিক্সেল	-8072
ec	-8073
হো	-8074
pur	-8075
গাম	-8076
তিন	-8077
বাগ	-8078
বাল	-8079
▁is	-8080
▁ঋত	-8081
▁বৌ	-8082
▁৩৯	-8083
গড়ে	-8084
ুনের	-8085
▁BJP	-8086
▁একট	-8087
▁কেজ	-8088
▁গাজ	-8089
▁পূজ	-8090
▁ফটো	-8091
▁মহা	-8092
▁যতই	-8093
▁এইসব	-8094
▁এন্ট	-8095
▁চাপা	-8096
▁পিএস	-8097
▁ভিকি	-8098
▁মারে	-8099
▁সহ্য	-8100
▁অবতার	-8101
▁অবদান	-8102
▁ইউনিভ	-8103
▁বিভ্র	-8104
▁মর্যা	-8105
▁রাত্র	-8106
▁সামিল	-8107
▁অসহায়	-8108
▁পায়নি	-8109
▁প্যাকে	-8110
▁সিসিটি	-8111
▁ক্রেডিট	-8112
▁জাপানের	-8113
▁দ্বিগুণ	-8114
▁বিপরীতে	-8115
▁মাইক্রো	-8116
মন্ত্রকের	-8117
▁অস্ত্রোপ	-8118
▁স্ত্রীকে	-8119
▁পাঠিয়েছে	-8120
▁সংস্পর্শে	-8121
▁ব্যক্তিত্ব	-8122
▁স্বেচ্ছাসে	-8123
ani	-8124
ies	-8125
▁ঝর	-8126
▁নৃ	-8127
গ্রহ	-8128
দানি	-8129
িগ্ন	-8130
▁আধা	-8131
▁এলো	-8132
▁ধূম	-8133
▁নাও	-8134
▁নিত	-8135
▁ভিন	-8136
▁মাপ	-8137
প্রথম	-8138
শাসিত	-8139
▁আলুর	-8140
▁ইডির	-8141
▁কারো	-8142
▁গুড়	-8143
▁ঝুঁক	-8144
▁তৈরী	-8145
▁পিটি	-8146
নির্ভর	-8147
বাসীকে	-8148
▁খোঁচা	-8149
▁জগদীপ	-8150
▁জানাই	-8151
▁জ্ঞান	-8152
▁পুড়ে	-8153
▁ভবনের	-8154
▁ভ্যান	-8155
▁লঙ্কা	-8156
▁সারির	-8157
▁Realme	-8158
▁অদ্ভুত	-8159
▁অসম্ভব	-8160
▁জিতেছে	-8161
▁দেখেছি	-8162
▁নেটদুন	-8163
▁পৃথিবী	-8164
▁প্রদাহ	-8165
▁বানানো	-8166
▁বিহারে	-8167
▁শক্তির	-8168
▁স্তরের	-8169
▁স্বল্প	-8170
▁ওয়ার্ক	-8171
▁ক্যানিং	-8172
▁গোষ্ঠীর	-8173
▁বিতর্কে	-8174
▁ব্রিটেন	-8175
▁মাস্টার	-8176
▁সংখ্যাও	-8177
▁উদ্বিগ্ন	-8178
▁করেছিলাম	-8179
▁নেতিবাচক	-8180
▁মহামারীর	-8181
▁প্রার্থনা	-8182
▁ব্যাঙ্গাল	-8183
▁প্রজাতন্ত্র	-8184
IM	-8185
টপ	-8186
৬০	-8187
ast	-8188
ood	-8189
ভিল	-8190
োরি	-8191
▁অচ	-8192
▁কফ	-8193
ভায়	-8194
রিটি	-8195
াবিদ	-8196
ার্ভ	-8197
োড়া	-8198
্যাশ	-8199
▁এএন	-8200
▁কবি	-8201
▁গৌর	-8202
▁ডাই	-8203
▁ধনক	-8204
▁পশু	-8205
▁বাপ	-8206
▁মজা	-8207
▁মেহ	-8208
▁হুই	-8209
▁৫টি	-8210
কেলের	-8211
াকর্ম	-8212
▁আপেল	-8213
▁কল্প	-8214
▁জগতে	-8215
▁লাইট	-8216
▁সেলে	-8217
▁২০১৫	-8218
গুলোকে	-8219
বেলায়	-8220
▁অসন্ত	-8221
▁কামনা	-8222
▁দেখেই	-8223
▁দ্বাদ	-8224
▁পারছি	-8225
▁ফরাসি	-8226
▁মরসুম	-8227
▁সরঞ্জ	-8228
স্কৃতিক	-8229
▁জঙ্গলে	-8230
▁থাকছেন	-8231
▁ফিটনেস	-8232
▁ব্রিগে	-8233
▁দাশগুপ্ত	-8234
▁সঠিকভাবে	-8235
▁সন্তুষ্ট	-8236
▁সাসপেন্ড	-8237
▁সেনগুপ্ত	-8238
▁স্টেশনের	-8239
▁অ্যাপ্লিকে	-8240
▁কর্মসূচিতে	-8241
▁প্রত্যেকের	-8242
▁শিলিগুড়ির	-8243
ND	-8244
ঃস	-8245
োড	-8246
৮০	-8247
ana	-8248
ংরা	-8249
ফিক	-8250
বিন	-8251
রাম	-8252
রাশ	-8253
লাস	-8254
শংস	-8255
▁On	-8256
িয়র	-8257
্টিক	-8258
▁con	-8259
▁আলম	-8260
▁নাট	-8261
▁নিই	-8262
▁পুণ	-8263
▁মোল	-8264
▁লজ্	-8265
▁লতা	-8266
▁সুগ	-8267
▁২টি	-8268
প্রীত	-8269
▁অপশন	-8270
▁আইনে	-8271
▁কায়	-8272
▁নিকট	-8273
▁বলবে	-8274
▁লাঠি	-8275
▁সোনু	-8276
▁হদিশ	-8277
কংগ্রে	-8278
য়েলের	-8279
▁অংশের	-8280
▁খেলেন	-8281
▁চাপের	-8282
▁যাচাই	-8283
▁সস্তা	-8284
▁হয়েই	-8285
▁কোভিডে	-8286
▁তত্ত্ব	-8287
▁দক্ষতা	-8288
▁বাতাসে	-8289
▁শতাব্দ	-8290
▁অভ্যন্ত	-8291
▁পাঠানোর	-8292
▁পৌঁছায়	-8293
▁সোনিয়া	-8294
▁কাশ্মীরে	-8295
▁পার্টনার	-8296
▁ভোটারদের	-8297
▁রক্তাক্ত	-8298
▁অ্যাম্বুল	-8299
▁আশঙ্কাজনক	-8300
▁নেটিজেনরা	-8301
▁পরিকাঠামো	-8302
▁সাহায্যের	-8303
▁দীর্ঘদিনের	-8304
▁চিন্তাভাবনা	-8305
▁ব্যবসায়ীদের	-8306
▁নিউজিল্যান্ডের	-8307
িচ	-8308
িষ	-8309
emb	-8310
লেজ	-8311
াখা	-8312
ৃহে	-8313
▁(@	-8314
▁He	-8315
▁লগ	-8316
▁৮৫	-8317
hosh	-8318
irus	-8319
নগরে	-8320
পাতা	-8321
পিএফ	-8322
ভবনে	-8323
▁ছড়	-8324
▁রেশ	-8325
ওয়েল	-8326
ত্রীর	-8327
বায়ো	-8328
বিশ্ব	-8329
মুখ্য	-8330
ুয়েল	-8331
্নেয়	-8332
▁ঘটছে	-8333
▁পাখি	-8334
িকারের	-8335
▁এনডিএ	-8336
▁তুষার	-8337
▁প্রথা	-8338
▁শোকের	-8339
▁সার্ক	-8340
্টিয়ার	-8341
▁উত্তাল	-8342
▁কার্যক	-8343
▁ক্যাটর	-8344
▁গ্রহের	-8345
▁জার্সি	-8346
▁পুজোয়	-8347
▁ফাউন্ড	-8348
▁বরাবরই	-8349
▁বামফ্র	-8350
▁ব্রহ্ম	-8351
▁ডেলিভার	-8352
▁পেয়েছি	-8353
▁সিদ্দিক	-8354
▁স্কুটার	-8355
▁ক্ষয়ক্ষ	-8356
▁চিত্‍কার	-8357
▁তত্‍কালীন	-8358
▁বিশ্বজুড়ে	-8359
99	-8360
AT	-8361
বৈ	-8362
যথ	-8363
১৩	-8364
২৯	-8365
নিং	-8366
োলি	-8367
▁ইজ	-8368
▁বচ	-8369
▁৭৪	-8370
ক্রম	-8371
ফেরা	-8372
মন্দ	-8373
▁ওসি	-8374
▁থ্র	-8375
▁সেফ	-8376
ঙ্গার	-8377
ড়িতে	-8378
প্রেম	-8379
ৃত্তি	-8380
▁কাঁঠ	-8381
▁চারা	-8382
▁ধরেন	-8383
▁হর্ষ	-8384
প্রবাহ	-8385
যাত্রী	-8386
▁Ghosh	-8387
▁Updat	-8388
▁World	-8389
▁অনিয়	-8390
▁অনির্	-8391
▁অনিশ্	-8392
▁উত্তম	-8393
▁ডিজেল	-8394
▁তাণ্ড	-8395
▁পাম্প	-8396
▁বান্ধ	-8397
▁বাসের	-8398
▁মৈত্র	-8399
▁সংঘাত	-8400
▁আনন্দে	-8401
▁গৃহবধূ	-8402
▁ডেল্টা	-8403
▁মডেলের	-8404
▁যানবাহ	-8405
▁সন্ধ্য	-8406
▁সেজন্য	-8407
▁আগ্নেয়	-8408
▁বুস্টার	-8409
▁শিক্ষার	-8410
▁সুপ্রিয়	-8411
▁ফ্র্যাঞ্চ	-8412
▁নেতৃত্বাধীন	-8413
▁শান্তিপূর্ণ	-8414
▁জিজ্ঞাসাবাদের	-8415
ঁধ	-8416
ফর	-8417
TMC	-8418
ভিন	-8419
মণি	-8420
রোগ	-8421
লাল	-8422
াবু	-8423
াহা	-8424
এমআই	-8425
ময়ী	-8426
্দের	-8427
▁অখি	-8428
▁অপহ	-8429
▁কুশ	-8430
▁জোহ	-8431
▁পতন	-8432
▁পিত	-8433
▁বরফ	-8434
▁বেড	-8435
▁শংস	-8436
গুলিও	-8437
দারের	-8438
ধর্ষণ	-8439
বন্ধু	-8440
বিত্র	-8441
সিবির	-8442
িপাড়	-8443
্যস্ত	-8444
▁জনগণ	-8445
▁নীরজ	-8446
▁ভাজা	-8447
▁মধুর	-8448
▁ময়ে	-8449
▁রূপে	-8450
▁লঙ্ঘ	-8451
▁কাটতে	-8452
▁জামাই	-8453
▁দুর্য	-8454
▁পালটা	-8455
▁বুথের	-8456
▁হাঁটা	-8457
▁জন্মের	-8458
▁পরিবহন	-8459
▁প্রাইম	-8460
▁ফেললেন	-8461
▁মরসুমে	-8462
▁মানুষই	-8463
▁আনন্দের	-8464
▁জানানোর	-8465
▁পারফর্ম	-8466
▁প্রযোজক	-8467
▁প্রসেসর	-8468
▁প্রেক্ষ	-8469
▁ক্লান্তি	-8470
▁তৃণমূলকে	-8471
▁পাহাড়ের	-8472
▁বিধ্বস্ত	-8473
▁শাস্ত্রী	-8474
▁শিরোনামে	-8475
▁আসানসোলের	-8476
▁প্রতিদিনের	-8477
▁প্রভাবশালী	-8478
▁সাংস্কৃতিক	-8479
▁চিকিত্‍সায়	-8480
▁শিক্ষার্থীদের	-8481
এব	-8482
▁k	-8483
▁r	-8484
odi	-8485
এখন	-8486
এটা	-8487
গাছ	-8488
ড়ক	-8489
তীর	-8490
ুরী	-8491
▁চশ	-8492
এদিন	-8493
স্থল	-8494
িল্ড	-8495
্রাল	-8496
▁কূট	-8497
▁খাত	-8498
▁ডাঃ	-8499
▁পাঁ	-8500
▁শার	-8501
ক্ষের	-8502
িন্দর	-8503
▁একদল	-8504
▁কমছে	-8505
▁গুলো	-8506
▁ঢেকে	-8507
▁দূর্	-8508
▁বদলি	-8509
▁ভঙ্গ	-8510
▁মাইল	-8511
▁মানা	-8512
▁রোডে	-8513
▁সেসব	-8514
প্রসাদ	-8515
▁কর্না	-8516
▁গার্ড	-8517
▁চালান	-8518
▁তারাই	-8519
▁পাণ্ড	-8520
▁ব্রিজ	-8521
▁মুকেশ	-8522
▁মেজাজ	-8523
▁অস্থির	-8524
▁আচার্য	-8525
▁কমিউনি	-8526
▁গুজরাত	-8527
▁দেবনাথ	-8528
▁পাবলিক	-8529
▁প্রমুখ	-8530
▁সরকারী	-8531
▁গ্রুপের	-8532
▁প্রদর্শ	-8533
▁ব্যবধান	-8534
▁ব্যুরোঃ	-8535
▁শুনানির	-8536
▁অনুপ্রের	-8537
▁অভিনন্দন	-8538
▁জন্মদিনে	-8539
▁দেওয়ায়	-8540
▁প্রকাশের	-8541
▁সিসিটিভি	-8542
▁জ্বালানির	-8543
▁বিদ্যালয়	-8544
▁ব্রিটেনের	-8545
▁অভিযুক্তের	-8546
IT	-8547
aw	-8548
আউট	-8549
মৃত	-8550
▁আউ	-8551
▁ইল	-8552
▁৫১	-8553
বনের	-8554
য়েট	-8555
স্পর	-8556
াইলে	-8557
ৃত্ব	-8558
▁চকো	-8559
▁ডোম	-8560
▁দমক	-8561
▁ধর্	-8562
▁নাই	-8563
▁পিক	-8564
▁পেজ	-8565
▁বাধ	-8566
▁মিগ	-8567
▁মুক	-8568
▁১২০	-8569
পোর্ট	-8570
িমপুর	-8571
▁This	-8572
▁কাঁচ	-8573
▁ক্ষত	-8574
▁গাইড	-8575
▁জ্বল	-8576
▁যোজন	-8577
Mamata	-8578
চ্ছন্ন	-8579
▁অগস্ট	-8580
▁কর্তা	-8581
▁ছক্কা	-8582
▁তিনটে	-8583
▁পাড়া	-8584
▁পুতিন	-8585
▁বায়ু	-8586
▁বারাস	-8587
▁বেহাল	-8588
▁ব্যাং	-8589
▁যথাযথ	-8590
▁ল্যাপ	-8591
▁সমগ্র	-8592
▁সরস্ব	-8593
বাড়িতে	-8594
▁অশ্বিন	-8595
▁দ্রব্য	-8596
▁পারিনি	-8597
▁চারপাশে	-8598
▁তাদেরকে	-8599
▁পুরভোটে	-8600
▁শ্রীরাম	-8601
▁কর্তাদের	-8602
▁ডায়মন্ড	-8603
▁ভোটগ্রহণ	-8604
▁শাসকদলের	-8605
▁উপলক্ষ্যে	-8606
▁ব্র্যান্ড	-8607
▁কোয়ারেন্ট	-8608
▁প্রেক্ষিতে	-8609
ES	-8610
ah	-8611
uj	-8612
ডো	-8613
বছ	-8614
ric	-8615
ঘের	-8616
লেস	-8617
শুভ	-8618
▁বধ	-8619
▁র‍	-8620
ষয়ে	-8621
▁Jio	-8622
▁আগর	-8623
▁আছি	-8624
▁ঋষভ	-8625
▁ছোঁ	-8626
ংয়ের	-8627
ক্তির	-8628
হাটের	-8629
্যাকা	-8630
▁আরোপ	-8631
▁এটির	-8632
▁এন্ড	-8633
▁কাশি	-8634
▁দৌড়	-8635
▁পরাজ	-8636
▁বাদে	-8637
▁বেশী	-8638
▁রেখা	-8639
▁সলমন	-8640
▁স্তর	-8641
▁একাদশ	-8642
▁এসেছি	-8643
▁গঠনের	-8644
▁গোল্ড	-8645
▁জেতার	-8646
▁নিজাম	-8647
▁প্রতী	-8648
▁বচ্চন	-8649
▁মৌসুম	-8650
▁হয়েও	-8651
▁আব্দুল	-8652
▁তুললেন	-8653
▁পাঠাতে	-8654
▁রাশিতে	-8655
▁শাসকদল	-8656
▁সকালের	-8657
▁সমর্থক	-8658
▁অনুগামী	-8659
▁আমিরশাহ	-8660
▁উত্‍সবে	-8661
▁উন্নতির	-8662
▁পুরুষের	-8663
▁বিবেচিত	-8664
▁বিশ্রাম	-8665
▁ম্যাসাজ	-8666
▁সেলিব্র	-8667
▁অভিযানের	-8668
▁জ্বালানি	-8669
▁বিশ্লেষণ	-8670
▁Instagram	-8671
▁বাস্তবায়	-8672
▁বিক্ষোভের	-8673
▁ভবিষ্যতের	-8674
▁মুম্বইয়ে	-8675
▁সন্তানদের	-8676
▁নেটওয়ার্ক	-8677
▁সার্টিফিকেট	-8678
OP	-8679
if	-8680
গল	-8681
ivo	-8682
ult	-8683
কতা	-8684
কশন	-8685
সুল	-8686
▁গজ	-8687
▁তন	-8688
▁নৈ	-8689
িশনে	-8690
োপাধ	-8691
▁Rec	-8692
▁কোপ	-8693
▁ডুব	-8694
▁ততই	-8695
▁বুন	-8696
▁মীর	-8697
ports	-8698
য়ালে	-8699
াম্মদ	-8700
িরাগত	-8701
▁আশ্চ	-8702
▁নেপথ	-8703
▁ফুলে	-8704
▁বসেই	-8705
▁ভূমি	-8706
▁শর্ট	-8707
▁সচিন	-8708
▁হবার	-8709
▁১০টি	-8710
দিয়ার	-8711
িশিল্ড	-8712
▁ছিটকে	-8713
▁জনপ্র	-8714
▁জাহান	-8715
▁শুয়ে	-8716
▁সাফাই	-8717
▁সামলে	-8718
▁হিজাব	-8719
ওয়্যার	-8720
জ্ঞানিক	-8721
▁চায়ের	-8722
▁জালিয়	-8723
▁বেঙ্গল	-8724
▁অ্যালোভ	-8725
▁ডোনাল্ড	-8726
▁ফুটিয়ে	-8727
▁বাস্তবে	-8728
▁বিমানের	-8729
▁বিরাটের	-8730
▁পরিদর্শন	-8731
▁পরিযায়ী	-8732
▁অলিম্পিকে	-8733
▁অসুস্থতার	-8734
▁ঘূর্ণিঝড়	-8735
▁গ্রামবাসীরা	-8736
CC	-8737
ke	-8738
৫৫	-8739
rit	-8740
কুম	-8741
পেশ	-8742
ভেল	-8743
▁Am	-8744
এসটি	-8745
কাটা	-8746
ামান	-8747
াহ্ম	-8748
িমান	-8749
োটাই	-8750
▁প্য	-8751
▁ফুড	-8752
▁মরশ	-8753
হান্ট	-8754
▁আগমন	-8755
▁ঐক্য	-8756
▁গোলা	-8757
▁জল্প	-8758
▁বরুণ	-8759
▁সিএস	-8760
▁হননি	-8761
রাউন্ড	-8762
স্থানে	-8763
▁ইউনিট	-8764
▁কখনোই	-8765
▁কাঁধে	-8766
▁কালীপ	-8767
▁গরমের	-8768
▁নদীতে	-8769
▁সম্পদ	-8770
▁সার্জ	-8771
▁আন্ডার	-8772
▁গুঁড়া	-8773
▁জনগণের	-8774
▁দেশীয়	-8775
▁পর্যাল	-8776
▁প্রস্র	-8777
▁মমতাকে	-8778
▁রীতিমত	-8779
▁লেগেছে	-8780
▁সংশোধন	-8781
▁আতঙ্কিত	-8782
▁আশাবাদী	-8783
▁জয়েন্ট	-8784
▁রোনাল্ড	-8785
▁WhatsApp	-8786
▁আক্রমণের	-8787
▁প্রতারণা	-8788
▁মহেন্দ্র	-8789
▁সব্যসাচী	-8790
▁সময়সীমা	-8791
▁স্পোর্টস	-8792
▁স্বামীকে	-8793
▁ইস্টবেঙ্গ	-8794
▁প্রতিরোধে	-8795
▁রেখেছিলেন	-8796
▁বাংলাহান্ট	-8797
▁হেলিকপ্টার	-8798
▁সংবাদমাধ্যমে	-8799
▁স্যানিটাইজার	-8800
ঝি	-8801
day	-8802
ill	-8803
অভি	-8804
ক্ল	-8805
বিট	-8806
মহল	-8807
মেট	-8808
াসী	-8809
▁WB	-8810
▁মৃ	-8811
▁লখ	-8812
▁৮৯	-8813
ress	-8814
আপনি	-8815
ন্ডা	-8816
স্কো	-8817
▁ইভি	-8818
▁ঢাল	-8819
▁ফসল	-8820
▁হের	-8821
▁৬টি	-8822
কিপার	-8823
িনীকে	-8824
▁Vivo	-8825
▁দীপক	-8826
▁পেশা	-8827
Bangla	-8828
▁অন্তর	-8829
▁আইফোন	-8830
▁আয়ের	-8831
▁এজন্য	-8832
▁জাপান	-8833
▁জাহাজ	-8834
▁তথাগত	-8835
▁ত্রিপ	-8836
▁দেশকে	-8837
▁নজরুল	-8838
▁পাঠান	-8839
▁ফেডার	-8840
▁বলবেন	-8841
▁ময়লা	-8842
▁মারার	-8843
▁লাদাখ	-8844
▁সিভিক	-8845
▁গর্বিত	-8846
▁ঠিকঠাক	-8847
▁দাঁড়া	-8848
▁ধর্মের	-8849
▁পৌঁছতে	-8850
▁বন্ধের	-8851
▁সঞ্জীব	-8852
▁ঘুমানোর	-8853
▁দোকানের	-8854
▁মণ্ডলের	-8855
▁সামলাতে	-8856
▁স্কোয়া	-8857
▁উপাচার্য	-8858
▁কার্যকার	-8859
▁ঘটনাস্থল	-8860
▁চেয়েছেন	-8861
▁প্রধানের	-8862
▁শংসাপত্র	-8863
▁অ্যাসিস্ট	-8864
▁ইন্টারভিউ	-8865
▁প্রতিদিনই	-8866
▁রামপুরহাট	-8867
▁নির্যাতনের	-8868
▁অর্থমন্ত্রী	-8869
▁মুর্শিদাবাদের	-8870
।’	-8871
ass	-8872
der	-8873
lus	-8874
কোহ	-8875
টান	-8876
ষিত	-8877
িসা	-8878
৫০০	-8879
▁শৌ	-8880
▁৬২	-8881
▁৬৩	-8882
▁৭৮	-8883
সিটি	-8884
িতেও	-8885
▁কিষ	-8886
▁কোড	-8887
▁রাও	-8888
▁রোল	-8889
▁সাথ	-8890
▁হাট	-8891
▁অংশী	-8892
▁আম্ব	-8893
▁ইউরো	-8894
▁উত্থ	-8895
▁কাকে	-8896
▁চণ্ড	-8897
▁জালে	-8898
▁মদের	-8899
▁১২টি	-8900
ওয়ারি	-8901
▁দাসের	-8902
▁দেবীর	-8903
▁নীতীশ	-8904
▁নৃশংস	-8905
▁নোংরা	-8906
▁পাতার	-8907
▁ফুসফু	-8908
▁বায়ো	-8909
▁মাসেই	-8910
▁মোটেই	-8911
▁সীতার	-8912
▁হাজরা	-8913
চার্যের	-8914
▁অভিনীত	-8915
▁একটানা	-8916
▁প্রকার	-8917
▁বসিয়ে	-8918
▁বিজয়ী	-8919
▁বিমানে	-8920
▁বিরক্ত	-8921
▁লক্ষের	-8922
▁সৌরভের	-8923
▁স্প্রে	-8924
▁অন্যদের	-8925
▁দেওয়াল	-8926
▁বানানোর	-8927
▁সরঞ্জাম	-8928
▁অলরাউন্ড	-8929
▁সন্তানকে	-8930
▁সাবমেরিন	-8931
▁আবহাওয়ার	-8932
▁সমীক্ষায়	-8933
▁জেলাগুলিতে	-8934
▁ভারতীয়দের	-8935
▁ব্যবসায়ীরা	-8936
SC	-8937
গি	-8938
ধন	-8939
ূত	-8940
৭০	-8941
▁n	-8942
-19	-8943
abp	-8944
ভিও	-8945
▁তহ	-8946
▁মূ	-8947
▁৬৬	-8948
flic	-8949
ফলের	-8950
াইজি	-8951
ূনতম	-8952
▁TMC	-8953
▁কুই	-8954
▁ঘোর	-8955
▁দমন	-8956
▁নবম	-8957
▁সবে	-8958
flict	-8959
ণ্যের	-8960
িন্দম	-8961
▁আলাপ	-8962
▁ডিজি	-8963
▁থেমে	-8964
▁বড়ো	-8965
▁সীমা	-8966
▁স্নে	-8967
স্ট্রি	-8968
▁ইয়াস	-8969
▁কৈলাস	-8970
▁গর্ভব	-8971
▁গাঙ্গ	-8972
▁ঝড়ের	-8973
▁দিনেই	-8974
▁বোমাব	-8975
▁মারফত	-8976
▁মাসিক	-8977
▁সেলের	-8978
বাজারের	-8979
স্থায়ী	-8980
▁ইভেন্ট	-8981
▁এনিয়ে	-8982
▁কৃতজ্ঞ	-8983
▁দ্বাদশ	-8984
▁নেতাজি	-8985
▁পুরোনো	-8986
▁বুঝবেন	-8987
▁মেটাতে	-8988
▁শিশুটি	-8989
▁হাড়ের	-8990
▁অ্যাকশন	-8991
▁চার্জিং	-8992
▁দুর্যোগ	-8993
▁নবান্নে	-8994
▁সর্বত্র	-8995
▁সাহিত্য	-8996
▁হত্যাকা	-8997
▁অতিমারির	-8998
▁পার্টিতে	-8999
▁বৃষ্টিতে	-9000
▁কোভিশিল্ড	-9001
▁জনপ্রতিনি	-9002
▁পাঞ্জাবের	-9003
▁উপস্থিতিতে	-9004
▁প্রতিমন্ত্রী	-9005
OS	-9006
নাল	-9007
ব্ব	-9008
লকে	-9009
▁চম	-9010
▁পশ	-9011
▁৬৮	-9012
দ্বে	-9013
য়িক	-9014
িশীল	-9015
▁খাম	-9016
▁গরি	-9017
▁গাল	-9018
▁জিম	-9019
▁বকে	-9020
▁বিচ	-9021
▁মুন	-9022
▁শ্ম	-9023
▁আইডি	-9024
▁আমজন	-9025
▁খড়গ	-9026
▁সেজে	-9027
▁স্মি	-9028
মূর্তি	-9029
য়েন্স	-9030
▁আপনিও	-9031
▁এনআইএ	-9032
▁কাটার	-9033
▁কিছুর	-9034
▁গেয়ে	-9035
▁ফান্ড	-9036
▁বেকিং	-9037
▁যেতেই	-9038
▁হিসাব	-9039
▁Videos	-9040
▁কেয়ার	-9041
▁খেলায়	-9042
▁চোপড়া	-9043
▁ত্রুটি	-9044
▁দেয়ার	-9045
▁পক্ষের	-9046
▁পবিত্র	-9047
▁পাঠায়	-9048
▁মুদ্রা	-9049
▁সংসারে	-9050
▁সন্দীপ	-9051
▁অরিন্দম	-9052
▁কৃতিত্ব	-9053
▁গোয়ায়	-9054
▁দেখানোর	-9055
▁বাজারের	-9056
▁ব্রাহ্ম	-9057
▁অ্যাকটিভ	-9058
▁উদ্বেগের	-9059
▁গোস্বামী	-9060
▁চরিত্রের	-9061
▁নথিভুক্ত	-9062
▁মাত্রায়	-9063
▁মাধ্যমেই	-9064
▁থাকাকালীন	-9065
▁বাঁকুড়ার	-9066
▁সেন্ট্রাল	-9067
▁প্রত্যেকটি	-9068
▁ব্যাকটেরিয়া	-9069
ীদ	-9070
BJP	-9071
uly	-9072
গাস	-9073
ভাল	-9074
ভেদ	-9075
রান	-9076
সকে	-9077
সান	-9078
সিত	-9079
ানু	-9080
াপি	-9081
▁গহ	-9082
alth	-9083
eath	-9084
tain	-9085
ফাইল	-9086
বেশি	-9087
োদিত	-9088
▁অবহ	-9089
▁চিফ	-9090
▁টোল	-9091
▁তাজ	-9092
▁ফাল	-9093
▁শরণ	-9094
▁৬টা	-9095
পেক্ষ	-9096
স্বার	-9097
িয়াক	-9098
্বংসী	-9099
্যারি	-9100
▁অলিভ	-9101
▁অসমে	-9102
▁কন্ড	-9103
▁গাঢ়	-9104
▁চাঁদ	-9105
▁বহরম	-9106
▁মিশে	-9107
▁সিআই	-9108
▁্যাম	-9109
▁আয়রন	-9110
▁দশকের	-9111
▁দুদিন	-9112
▁নামবে	-9113
▁প্রাপ	-9114
▁ফোঁটা	-9115
▁বছরটা	-9116
▁ব্রাশ	-9117
▁ভরপুর	-9118
▁ময়দা	-9119
ডিজেলের	-9120
▁জটিলতা	-9121
▁ডায়েট	-9122
▁বলেছিল	-9123
▁রিয়াল	-9124
ষ্ট্রীয়	-9125
▁কারখানা	-9126
▁ট্যাঙ্ক	-9127
▁তালিকার	-9128
▁দিয়েছি	-9129
▁ন্যূনতম	-9130
▁ব্যাক্ত	-9131
▁মত্‍স্য	-9132
▁রাহুলের	-9133
▁উত্তেজিত	-9134
▁চক্রান্ত	-9135
▁নির্যাতন	-9136
▁রেস্তোরা	-9137
▁সমাজবাদী	-9138
▁ক্যামেরার	-9139
▁পর্যবেক্ষ	-9140
▁প্রতারণার	-9141
▁প্রত্যাশা	-9142
▁মেদিনীপুরে	-9143
▁নন্দীগ্রামের	-9144
▁স্মার্টফোনের	-9145
ss	-9146
ণী	-9147
াচ	-9148
স্র	-9149
▁ইঁ	-9150
▁ঝো	-9151
▁্য	-9152
ourt	-9153
দপ্ত	-9154
ধারন	-9155
াকাপ	-9156
▁আনল	-9157
▁ফিন	-9158
▁সিই	-9159
▁সেচ	-9160
পন্থী	-9161
▁2020	-9162
▁আশিস	-9163
▁এসসি	-9164
▁থাবা	-9165
▁মাইক	-9166
▁রাজু	-9167
▁রোদে	-9168
▁সিধু	-9169
▁অপারে	-9170
▁এবিপি	-9171
▁কাঁটা	-9172
▁কাছের	-9173
▁কাজেই	-9174
▁চারজন	-9175
▁ছন্দে	-9176
▁দীনেশ	-9177
▁দুবার	-9178
▁বিন্দ	-9179
▁রেহাই	-9180
▁সীমিত	-9181
▁আওয়াজ	-9182
▁আমদানি	-9183
▁উচ্ছ্ব	-9184
▁পাড়ার	-9185
▁যাচ্ছি	-9186
▁কর্মীকে	-9187
▁গবেষণার	-9188
▁জনসংযোগ	-9189
▁তোয়ালে	-9190
▁পেমেন্ট	-9191
▁প্রকৃতি	-9192
▁বিপত্তি	-9193
▁ভিত্তিক	-9194
▁লকডাউনে	-9195
▁শ্রেয়স	-9196
▁স্ট্রেন	-9197
▁আর্জেন্ট	-9198
▁জার্সিতে	-9199
▁শান্তিনি	-9200
▁শিক্ষকের	-9201
▁সাবস্ক্র	-9202
▁ব্যবস্থাপ	-9203
▁লিখেছিলেন	-9204
▁অস্বস্তিতে	-9205
▁স্বাধীনতার	-9206
▁স্বাস্থ্যবিধি	-9207
বৃ	-9208
৪৫	-9209
ধ্ব	-9210
বাজ	-9211
ভেট	-9212
ম্য	-9213
লাশ	-9214
শিট	-9215
িকম	-9216
▁খু	-9217
▁৯৪	-9218
থিতে	-9219
ন্টি	-9220
ীকরণ	-9221
োপসা	-9222
▁Ind	-9223
▁খাই	-9224
▁ছেঁ	-9225
▁তমল	-9226
▁দরি	-9227
▁দিঘ	-9228
▁মনি	-9229
▁রদব	-9230
▁১৯৬	-9231
গড়ের	-9232
ঘাটের	-9233
জন্যে	-9234
পুত্র	-9235
মহলের	-9236
সারের	-9237
স্থলে	-9238
▁অযথা	-9239
▁আমলে	-9240
▁কাঁপ	-9241
▁খায়	-9242
▁ভাইস	-9243
▁ভাবা	-9244
▁মঞ্জ	-9245
পক্ষের	-9246
বয়স্ক	-9247
▁অতীতে	-9248
▁উপকৃত	-9249
▁এইচডি	-9250
▁ওড়িশ	-9251
▁গানটি	-9252
▁দিব্য	-9253
▁দেবার	-9254
▁মায়া	-9255
▁মিটিং	-9256
▁সমিতি	-9257
ঃসত্ত্ব	-9258
ক্রান্ত	-9259
▁এসএসকে	-9260
▁ওভারের	-9261
▁কর্পোর	-9262
▁ছুঁড়ে	-9263
▁দপ্তরে	-9264
▁নির্মল	-9265
▁পায়েল	-9266
▁বকেয়া	-9267
▁বিষয়ক	-9268
▁বেড়েই	-9269
▁শিশুরা	-9270
▁সওয়াল	-9271
▁সকালেই	-9272
▁কাজকর্ম	-9273
▁নারায়ণ	-9274
▁মাথাব্য	-9275
▁সুন্দরী	-9276
▁অন্ধকারে	-9277
▁অস্তিত্ব	-9278
▁ইতিহাসের	-9279
▁নির্মাতা	-9280
▁ওয়ার্ল্ড	-9281
▁তাত্‍পর্য	-9282
▁মধ্যবিত্ত	-9283
▁শ্রাবন্তী	-9284
▁সংক্রামিত	-9285
▁স্ট্যান্ড	-9286
▁দুশ্চিন্তা	-9287
▁বিশ্ববিদ্যালয়ে	-9288
OV	-9289
ge	-9290
শই	-9291
▁ঔ	-9292
থির	-9293
বোন	-9294
৯৯৯	-9295
▁re	-9296
▁ডল	-9297
▁৫৮	-9298
ওড়া	-9299
বেগে	-9300
ম্বল	-9301
য়নে	-9302
ষ্কা	-9303
▁মিউ	-9304
▁হলফ	-9305
কেটের	-9306
ার্জন	-9307
িয়েত	-9308
ুটনিক	-9309
োত্‍স	-9310
▁টি২০	-9311
দায়িক	-9312
বাজারে	-9313
▁আসায়	-9314
▁উপত্য	-9315
▁কপালে	-9316
▁কাজটা	-9317
▁পূজার	-9318
▁সমাজে	-9319
▁হৃদয়	-9320
▁হেভিও	-9321
▁Mamata	-9322
▁চেয়েও	-9323
▁তন্দ্র	-9324
▁দীপিকা	-9325
▁বেঞ্চে	-9326
▁সাজানো	-9327
স্থানীয়	-9328
▁ইলেকট্র	-9329
▁ক্ষমতার	-9330
▁পোস্টের	-9331
▁শাস্তির	-9332
▁স্পিনার	-9333
▁হরিয়ান	-9334
▁আবিষ্কার	-9335
▁পুড়িয়ে	-9336
▁বার্তায়	-9337
▁বিজ্ঞানী	-9338
▁অধিকারীকে	-9339
▁পেঁয়াজের	-9340
▁ময়েশ্চার	-9341
▁ঊর্ধ্বমুখী	-9342
▁প্রতিষ্ঠিত	-9343
▁বিদ্যাসাগর	-9344
মুখ্যমন্ত্রী	-9345
▁গণতান্ত্রিক	-9346
'!	-9347
tw	-9348
কথ	-9349
ফট	-9350
ain	-9351
oor	-9352
ণ্ঠ	-9353
ভিং	-9354
োজি	-9355
▁সন	-9356
▁৮৮	-9357
▁৯৩	-9358
irst	-9359
over	-9360
র্পণ	-9361
োনোর	-9362
▁All	-9363
▁বৈধ	-9364
▁হিল	-9365
জনদের	-9366
ডেনের	-9367
নিয়া	-9368
াড়ির	-9369
িকারা	-9370
▁আশার	-9371
▁ইয়ে	-9372
▁টাউন	-9373
▁থাকত	-9374
▁দিশা	-9375
▁মারধ	-9376
▁মিমি	-9377
▁সত্‍	-9378
▁সভার	-9379
▁সাইন	-9380
▁সাহস	-9381
উদ্দিন	-9382
▁কাকলি	-9383
▁কেজরি	-9384
▁চুরির	-9385
▁টিমের	-9386
▁ট্রিপ	-9387
▁তরুণী	-9388
▁তাতেও	-9389
▁দামের	-9390
▁নাড্ড	-9391
▁বাইকে	-9392
▁রেডমি	-9393
▁সেতুর	-9394
▁এশিয়া	-9395
▁ফ্যাশন	-9396
▁মঙ্গেশ	-9397
▁মিউজিক	-9398
▁যেকোনও	-9399
▁রাখছেন	-9400
▁এখানকার	-9401
▁জঙ্গিরা	-9402
▁ধাওয়ান	-9403
▁নুসরতের	-9404
▁পোশাকের	-9405
▁প্রতিভা	-9406
▁রাজ্যকে	-9407
▁সম্মেলন	-9408
▁সার্বিক	-9409
▁প্রায়শই	-9410
▁বঙ্গোপসা	-9411
▁বিধ্বংসী	-9412
▁রাশিয়ান	-9413
▁লক্ষ্মীর	-9414
▁সংস্থাকে	-9415
▁কার্যকলাপ	-9416
▁প্রেমিকার	-9417
▁ব্যবসায়ীর	-9418
▁অন্তঃসত্ত্ব	-9419
▁নিয়ন্ত্রণের	-9420
▁সংবাদমাধ্যমকে	-9421
10	-9422
দূর	-9423
য়ত	-9424
লাই	-9425
িংহ	-9426
▁BS	-9427
▁ওম	-9428
▁মঠ	-9429
▁সশ	-9430
▁হি	-9431
ashi	-9432
iral	-9433
নামা	-9434
স্কে	-9435
াল্ট	-9436
োকের	-9437
োন্ন	-9438
▁অনি	-9439
▁ওকে	-9440
▁কোম	-9441
▁খাল	-9442
▁বুল	-9443
▁মেম	-9444
▁সেব	-9445
▁Chat	-9446
▁আইআই	-9447
▁আসরে	-9448
▁ইসরা	-9449
▁ঘটবে	-9450
▁তাপস	-9451
▁মেগা	-9452
▁সস্ত	-9453
▁সাইক	-9454
▁সাহে	-9455
▁২০২৪	-9456
▁আদায়	-9457
▁আয়কর	-9458
▁কামার	-9459
▁গবেষক	-9460
▁জন‍্য	-9461
▁টাইমস	-9462
▁ঢোকার	-9463
▁দিতেই	-9464
▁পাড়ি	-9465
▁পেগাস	-9466
▁পেলেও	-9467
▁বন্দি	-9468
▁মালাই	-9469
▁ম্য়া	-9470
▁যোদ্ধ	-9471
▁সংশয়	-9472
▁সেলফি	-9473
▁হজমের	-9474
▁হাতির	-9475
ওয়ালের	-9476
াইরয়েড	-9477
্যানেলে	-9478
▁ততক্ষণ	-9479
▁তৈরিতে	-9480
▁নদিয়া	-9481
▁পরিণতি	-9482
▁ফ্রন্ট	-9483
▁মহুয়া	-9484
▁রাখলেন	-9485
▁সময়টা	-9486
▁সায়নী	-9487
▁হারাতে	-9488
▁অর্পিতা	-9489
▁গণধর্ষণ	-9490
▁গর্ভবতী	-9491
▁ছাপিয়ে	-9492
▁ছেলেদের	-9493
▁দম্পতির	-9494
▁নেপথ্যে	-9495
▁পাচারের	-9496
▁প্যাটেল	-9497
▁বহিরাগত	-9498
▁ভিজিয়ে	-9499
▁অশান্তির	-9500
▁আগামিকাল	-9501
▁কয়েকবার	-9502
▁গ্রাহকরা	-9503
▁প্রচেষ্ট	-9504
▁সুরক্ষার	-9505
▁ইলেকট্রিক	-9506
▁জুলাইয়ের	-9507
▁বাড়াচ্ছে	-9508
▁বৈজ্ঞানিক	-9509
▁শিক্ষকদের	-9510
▁দুর্গাপুজো	-9511
▁পাকিস্তানে	-9512
▁নির্যাতিতার	-9513
▁পরবর্তীকালে	-9514
▁ডায়াবেটিসের	-9515
ung	-9516
কটি	-9517
ফিন	-9518
স্ফ	-9519
▁৪১	-9520
agar	-9521
atch	-9522
ঞ্চে	-9523
সনের	-9524
িংটন	-9525
্যুত	-9526
▁কাই	-9527
▁চেত	-9528
▁ধনে	-9529
▁ধরন	-9530
▁ফোর	-9531
▁ভেজ	-9532
endra	-9533
গুচ্ছ	-9534
চিন্ত	-9535
জিতের	-9536
মেয়ে	-9537
ম্বার	-9538
াঙ্গা	-9539
িস্তা	-9540
▁একাই	-9541
▁এফসি	-9542
▁ক্ষু	-9543
▁জোরে	-9544
▁টিআর	-9545
▁দেখি	-9546
▁পালা	-9547
▁বেবি	-9548
▁মুশক	-9549
▁হাউস	-9550
▁হেলথ	-9551
▁আমায়	-9552
▁একুশে	-9553
▁কাজটি	-9554
▁খাওয়	-9555
▁চত্বর	-9556
▁পরবেন	-9557
▁বলেছি	-9558
▁বিবরণ	-9559
▁বোঝাই	-9560
▁ব্রেন	-9561
▁মেঘলা	-9562
▁সাবান	-9563
▁সুখের	-9564
▁সৌমেন	-9565
▁হরমোন	-9566
িয়াসের	-9567
▁অঙ্কুশ	-9568
▁এনসিবি	-9569
▁গিয়েই	-9570
▁গুলিকে	-9571
▁ছুঁয়ে	-9572
▁টেলিকম	-9573
▁মতুয়া	-9574
▁মেলায়	-9575
▁লেনদেন	-9576
▁শোয়ের	-9577
▁স্মারক	-9578
▁অগ্নিকা	-9579
▁ট্যাক্স	-9580
▁শ্রেণীর	-9581
▁প্রবেশের	-9582
▁সমাধানের	-9583
▁জিনিসপত্র	-9584
▁জ্বালিয়ে	-9585
▁সম্প্রচার	-9586
▁নাবালিকাকে	-9587
▁স্বাভাবিকের	-9588
▁অ্যাপ্লিকেশন	-9589
▁চিকিত্‍সকেরা	-9590
▁ছাত্রছাত্রীদের	-9591
েড	-9592
৩৩	-9593
৪৭	-9594
কমা	-9595
গরি	-9596
চকে	-9597
নাট	-9598
নীল	-9599
ষের	-9600
ৃণা	-9601
▁অহ	-9602
▁ফস	-9603
ংসের	-9604
আরের	-9605
এমআর	-9606
স্তর	-9607
াক্স	-9608
্লীল	-9609
▁আসর	-9610
▁উন্	-9611
▁কুর	-9612
▁যেই	-9613
▁লিও	-9614
দায়ক	-9615
ান্তে	-9616
▁অজ্ঞ	-9617
▁উল্ল	-9618
▁ঐশ্ব	-9619
▁গলার	-9620
▁বাথর	-9621
▁মসৃণ	-9622
▁রশিদ	-9623
▁লেখক	-9624
সভাপতি	-9625
স্বরূপ	-9626
▁Video	-9627
▁কান্ড	-9628
▁কাপের	-9629
▁কেরলে	-9630
▁খুশির	-9631
▁গ্যাল	-9632
▁চাননি	-9633
▁চিকেন	-9634
▁ছুড়ে	-9635
▁নিখিল	-9636
▁বয়সি	-9637
▁বুকিং	-9638
▁মেশান	-9639
▁লায়ন	-9640
পর্যন্ত	-9641
▁অখিলেশ	-9642
▁আটকাতে	-9643
▁কেরলের	-9644
▁ডিজাইন	-9645
▁থাকতেন	-9646
▁পুরানো	-9647
▁বর্ষার	-9648
▁সেক্রে	-9649
▁কালিম্প	-9650
▁গায়িকা	-9651
▁ব্রাজিল	-9652
▁রিজার্ভ	-9653
▁রেখেছিল	-9654
▁শর্করার	-9655
▁সূক্ষ্ম	-9656
িশ্চন্দ্র	-9657
▁অ্যালকোহ	-9658
▁আমেরিকান	-9659
▁উদ্ধারের	-9660
▁পরিবেশের	-9661
▁অন্ধ্রপ্র	-9662
▁ইউনিয়নের	-9663
▁ক্যাপিটাল	-9664
▁চালিয়েছে	-9665
▁জিতেন্দ্র	-9666
▁ব্যক্তিরা	-9667
▁হেভিওয়েট	-9668
▁দুষ্কৃতীদের	-9669
▁ইস্টবেঙ্গলের	-9670
▁মধ্যপ্রদেশের	-9671
▁স্থানান্তরিত	-9672
▁প্রত্যক্ষদর্শ	-9673
An	-9674
og	-9675
বস	-9676
৪২	-9677
৫৭	-9678
কাজ	-9679
কাম	-9680
পর্	-9681
▁ডঃ	-9682
খেলা	-9683
টালে	-9684
্টোর	-9685
▁Sam	-9686
▁ছাগ	-9687
▁ছুট	-9688
▁লোভ	-9689
▁স্র	-9690
▁ছত্ত	-9691
▁জাতি	-9692
▁জেতা	-9693
▁বাসা	-9694
▁বিমল	-9695
▁১১টা	-9696
▁কাস্ট	-9697
▁কেননা	-9698
▁খেতাব	-9699
▁ঝোড়ো	-9700
▁থাকুক	-9701
▁দলবদল	-9702
▁দুবাই	-9703
▁নিলাম	-9704
▁বর্ষণ	-9705
▁বললেই	-9706
▁বিরতি	-9707
▁ভার্স	-9708
▁মুহুর	-9709
▁ল্যাব	-9710
মন্ত্রক	-9711
স্বার্থ	-9712
▁আত্মসম	-9713
▁একসাথে	-9714
▁কাহিনি	-9715
▁জীবাণু	-9716
▁তথ্যের	-9717
▁তেজস্ব	-9718
▁দ্রাবি	-9719
▁ন্যায়	-9720
▁পিরিয়	-9721
▁বাউন্ড	-9722
▁বানাতে	-9723
▁বামেরা	-9724
▁মুশকিল	-9725
▁সংযোজন	-9726
▁স্নায়	-9727
তালিকায়	-9728
বায়োটিক	-9729
্যাক্সিন	-9730
▁Twitter	-9731
▁অংশীদার	-9732
▁অন্যায়	-9733
▁ওয়াটার	-9734
▁প্রিন্স	-9735
▁বিষয়টা	-9736
▁শাস্ত্র	-9737
▁সংখ্যার	-9738
▁হিসেবেই	-9739
▁মস্তিষ্ক	-9740
▁রাইডার্স	-9741
▁ক্ষতিকারক	-9742
▁চালাচ্ছেন	-9743
▁নাবালিকার	-9744
▁প্রেমিকের	-9745
▁স্থিতিশীল	-9746
▁পর্যালোচনা	-9747
▁ভারপ্রাপ্ত	-9748
▁রাষ্ট্রীয়	-9749
▁বিশ্বব্যাপী	-9750
উড	-9751
গণ	-9752
গম	-9753
মাদ	-9754
সুর	-9755
াঁক	-9756
ুমি	-9757
▁14	-9758
▁Ex	-9759
▁ইত	-9760
ণায়	-9761
মণ্ড	-9762
াকৃত	-9763
ৃত্ত	-9764
েক্স	-9765
▁অবা	-9766
▁আলী	-9767
▁চলল	-9768
▁জাফ	-9769
▁জির	-9770
▁টয়	-9771
▁ধ্ব	-9772
▁সুল	-9773
▁সোহ	-9774
▁৩টি	-9775
▁ওনার	-9776
▁তখনও	-9777
▁বটেই	-9778
▁বসুর	-9779
▁বহাল	-9780
▁ব্রত	-9781
▁শাখা	-9782
▁সমীর	-9783
▁সেবন	-9784
avirus	-9785
▁2022)	-9786
▁অপরকে	-9787
▁আশায়	-9788
▁কাঁথি	-9789
▁ক্রিপ	-9790
▁চাইতে	-9791
▁ডক্টর	-9792
▁ডেঙ্গ	-9793
▁তারাও	-9794
▁দখলের	-9795
▁বন্দর	-9796
▁বর্মন	-9797
▁লড়তে	-9798
কাশ্মীর	-9799
▁ক্রীড়	-9800
▁তারিখে	-9801
▁দরিদ্র	-9802
▁পুনর্ব	-9803
▁পেয়েই	-9804
▁সমবায়	-9805
▁অনুষ্কা	-9806
▁কাটানোর	-9807
▁বুলেটিন	-9808
▁ম্যাক্স	-9809
▁শিবসেনা	-9810
▁হরমোনের	-9811
▁ইন্ডিজের	-9812
▁প্রজেক্ট	-9813
oronavirus	-9814
▁ক্যাটরিনা	-9815
▁আত্মপ্রকাশ	-9816
▁প্রত্যেকেই	-9817
▁বিশ্বভারতী	-9818
▁দক্ষিণবঙ্গে	-9819
▁বিজ্ঞানীদের	-9820
▁হরিশ্চন্দ্র	-9821
▁গ্রামবাসীদের	-9822
▁সাম্প্রদায়িক	-9823
CT	-9824
ff	-9825
উর	-9826
ঝে	-9827
োই	-9828
acc	-9829
esk	-9830
ith	-9831
ধাও	-9832
বডি	-9833
বাম	-9834
িসং	-9835
▁৬৭	-9836
▁৭৭	-9837
কীয়	-9838
ঙ্কট	-9839
নাকে	-9840
বিলে	-9841
ভূমি	-9842
য়েশ	-9843
িসিন	-9844
িসির	-9845
োসিস	-9846
্য়ে	-9847
▁app	-9848
▁আবু	-9849
▁এতো	-9850
▁পাথ	-9851
▁মণি	-9852
করোনা	-9853
খাস্ত	-9854
েলায়	-9855
▁Team	-9856
▁অত্য	-9857
▁ইমাম	-9858
▁কভার	-9859
▁গোলম	-9860
▁বসির	-9861
▁বোতল	-9862
▁ভাতা	-9863
▁ভার্	-9864
▁মনোর	-9865
▁রুজু	-9866
প্রায়	-9867
▁কিয়ে	-9868
▁ছুটির	-9869
▁জগতের	-9870
▁রোমান	-9871
▁লাগার	-9872
▁শুধুই	-9873
▁শোয়ে	-9874
▁সাতটি	-9875
▁হাসান	-9876
বাদীদের	-9877
▁আইয়ার	-9878
▁জলবায়	-9879
▁জ্বালা	-9880
▁বাটলার	-9881
▁সিঙ্গল	-9882
▁Bengali	-9883
▁একগুচ্ছ	-9884
▁বিষয়ের	-9885
▁মোটরসাই	-9886
▁যাত্রার	-9887
▁ক্যানসার	-9888
▁জিজ্ঞাসা	-9889
▁শিক্ষিকা	-9890
▁Published	-9891
▁উত্তেজনার	-9892
▁হারিয়েছে	-9893
▁অলরাউন্ডার	-9894
▁প্রতিনিয়ত	-9895
▁খেলোয়াড়দের	-9896
▁হায়দরাবাদের	-9897
▁প্রতিযোগিতায়	-9898
▁বজ্রবিদ্যুত্‍	-9899
AR	-9900
ER	-9901
ix	-9902
েস	-9903
৩৬	-9904
৩৯	-9905
iss	-9906
ote	-9907
ukh	-9908
এমন	-9909
পাট	-9910
বরা	-9911
রেট	-9912
৯০০	-9913
▁শয	-9914
জয়ী	-9915
দিনই	-9916
স্কি	-9917
▁আংশ	-9918
▁একর	-9919
▁নকল	-9920
▁নেব	-9921
▁মনী	-9922
▁২৫০	-9923
দিমির	-9924
মারের	-9925
াইয়া	-9926
িশনের	-9927
▁Modi	-9928
▁অন্ন	-9929
▁অরূপ	-9930
▁আভাস	-9931
▁আস্ত	-9932
▁এলেও	-9933
▁কুচি	-9934
▁চল্ল	-9935
▁দানা	-9936
▁নবীন	-9937
▁বারে	-9938
▁মহাপ	-9939
▁মিলন	-9940
▁সল্ট	-9941
▁সোডা	-9942
terjee	-9943
▁Covid	-9944
▁অপহরণ	-9945
▁ডান্স	-9946
▁মাঠের	-9947
▁রোডের	-9948
▁সংশোধ	-9949
▁সড়কে	-9950
▁স্পিড	-9951
কংগ্রেস	-9952
বর্ধমান	-9953
মাধ্যমে	-9954
▁আহতদের	-9955
▁ইরানের	-9956
▁উচ্চতা	-9957
▁একজনকে	-9958
▁ঘটেছিল	-9959
▁চকোলেট	-9960
▁জোগাড়	-9961
▁দমকলের	-9962
▁দৈনন্দ	-9963
▁প্রসেন	-9964
▁ফাইটার	-9965
▁মোর্চা	-9966
▁মোল্লা	-9967
▁হালদার	-9968
▁গৃহবধূর	-9969
▁ডায়েটে	-9970
▁তোলপাড়	-9971
▁প্রজাতি	-9972
▁বার্ষিক	-9973
▁শিল্পীর	-9974
▁আগরওয়াল	-9975
▁বিধাননগর	-9976
▁সার্ভিসে	-9977
▁হেফাজতের	-9978
▁ওমিক্রনের	-9979
▁জাতিকাদের	-9980
▁বিক্ষিপ্ত	-9981
▁বৃষ্টিপাত	-9982
▁সমালোচনার	-9983
▁অভিনেত্রীকে	-9984
▁তামিলনাড়ুর	-9985
▁মন্ত্রিসভার	-9986
▁সিলিন্ডারের	-9987
▁প্রত্যাহারের	-9988
▁টুর্নামেন্টের	-9989
▁নিরাপত্তারক্ষ	-9990
ঁর	-9991
োশ	-9992
৩৪	-9993
▁.	-9994
rom	-9995
এটি	-9996
ফেল	-9997
রীণ	-9998
হয়	-9999
▁22	-10000
▁st	-10001
▁খি	-10002
▁গি	-10003
▁চু	-10004
▁ফট	-10005
▁৯৯	-10006
অন্য	-10007
এক্স	-10008
যোগে	-10009
িরাম	-10010
েয়ে	-10011
▁ডিউ	-10012
▁নগদ	-10013
▁পুষ	-10014
▁ভের	-10015
▁মর্	-10016
▁রোপ	-10017
তলায়	-10018
ন্ধান	-10019
ম্ভীর	-10020
সেন্স	-10021
হাটির	-10022
▁উধাও	-10023
▁কথার	-10024
▁গন্ত	-10025
▁চশমা	-10026
▁বসার	-10027
▁বেলে	-10028
▁ভরতি	-10029
▁ভোরে	-10030
▁মিরর	-10031
▁রেগে	-10032
▁সূচি	-10033
▁সৈকত	-10034
▁স্যু	-10035
▁১০টা	-10036
▁১১টি	-10037
▁২০১২	-10038
▁আয়ুষ	-10039
▁কোচের	-10040
▁ট্রাই	-10041
▁ড্রেস	-10042
▁দিতেন	-10043
▁পার্ব	-10044
▁ফুটেজ	-10045
▁ভৌমিক	-10046
▁মুর্ম	-10047
▁মোটেও	-10048
▁লবঙ্গ	-10049
▁শঙ্কর	-10050
পাড়ায়	-10051
▁ইংরেজি	-10052
▁ছোঁয়া	-10053
▁নদীয়া	-10054
▁নববর্ষ	-10055
▁নারীরা	-10056
▁পাল্লা	-10057
▁পুরাতন	-10058
▁পেট্রল	-10059
▁ফেরাতে	-10060
▁ভর্তির	-10061
▁মোদীকে	-10062
▁রোগীরা	-10063
▁শিরোপা	-10064
▁হিমাচল	-10065
▁পরগনায়	-10066
▁বাকিদের	-10067
▁বায়োটে	-10068
▁বিশ্লেষ	-10069
▁ভালবাসা	-10070
▁মন্ত্রণ	-10071
▁অফিসারের	-10072
▁ঝাঁপিয়ে	-10073
▁দক্ষিণের	-10074
▁দৈনন্দিন	-10075
▁বুদ্ধদেব	-10076
▁রাজপুতের	-10077
▁উচ্চমাধ্য	-10078
▁ট্রেন্ডিং	-10079
▁পটাশিয়াম	-10080
▁শরীরচর্চা	-10081
▁অগ্নিমিত্র	-10082
▁অ্যালোভেরা	-10083
▁প্রিমিয়ার	-10084
▁বিদ্যালয়ে	-10085
▁কর্মকর্তারা	-10086
▁দুর্গাপুজোর	-10087
▁বিজ্ঞপ্তিতে	-10088
▁কোলেস্টেরলের	-10089
▁নিউজিল্যান্ড	-10090
▁আগ্নেয়াস্ত্র	-10091
▁চ্যালেঞ্জার্স	-10092
▁অ্যাসিস্ট্যান্ট	-10093
14	-10094
50	-10095
ry	-10096
বত	-10097
াং	-10098
ans	-10099
থিল	-10100
ারস	-10101
ীতা	-10102
▁16	-10103
▁অখ	-10104
OVID	-10105
যোগী	-10106
ীতের	-10107
োগ্য	-10108
▁For	-10109
▁কুক	-10110
▁কেঁ	-10111
▁চিপ	-10112
▁জেট	-10113
▁জৈব	-10114
▁ঝাম	-10115
▁পিঁ	-10116
▁ফোট	-10117
▁ভোল	-10118
▁মাধ	-10119
▁সিএ	-10120
▁হোন	-10121
গানের	-10122
মানুষ	-10123
রাতের	-10124
লাকার	-10125
াবদ্ধ	-10126
ীক্ষা	-10127
ুদ্রে	-10128
▁অশুভ	-10129
▁কলার	-10130
▁গুজব	-10131
▁তাজা	-10132
▁তালা	-10133
▁নৌকা	-10134
▁পোর্	-10135
▁প্রম	-10136
▁রত্ন	-10137
▁শিবশ	-10138
▁শোভা	-10139
▁সিআর	-10140
▁সিইও	-10141
কর্মীর	-10142
ন্দেহে	-10143
▁ইএমআই	-10144
▁এনেছে	-10145
▁গুরুং	-10146
▁ঘেরাও	-10147
▁ঘোষিত	-10148
▁ডার্ক	-10149
▁পেনশন	-10150
▁রাজাপ	-10151
▁সারার	-10152
▁স্যাল	-10153
ত্যাশিত	-10154
বেদনশীল	-10155
▁এড়ানো	-10156
▁খুঁজতে	-10157
▁গড়লেন	-10158
▁গ্রাহক	-10159
▁পালনের	-10160
▁পেরেছে	-10161
▁মাহাতো	-10162
▁সম্মতি	-10163
▁সহকারী	-10164
▁সোনালি	-10165
▁স্নাতক	-10166
▁হারানো	-10167
▁হুগলির	-10168
▁ঘুরিয়ে	-10169
▁ট্রেলার	-10170
▁দাঁড়াল	-10171
▁পোস্টটি	-10172
▁বাংলাকে	-10173
▁অধিবেশনে	-10174
▁কালিম্পং	-10175
▁ক্যালোরি	-10176
▁ডেলিভারি	-10177
▁নিঃশ্বাস	-10178
▁মুখার্জি	-10179
▁সংখ্যায়	-10180
▁গ্র্যান্ড	-10181
▁দাঁড়ানোর	-10182
▁প্রাইমারি	-10183
▁ব্যাপারটা	-10184
▁সুপারস্টার	-10185
▁ক্রিকেটারের	-10186
▁কোষ্ঠকাঠিন্য	-10187
▁অ্যাসোসিয়েশন	-10188
ou	-10189
ool	-10190
্ধু	-10191
▁৮৭	-10192
▁৯৭	-10193
ঘাটা	-10194
ছড়া	-10195
নিউজ	-10196
প্রণ	-10197
াধিক	-10198
িটের	-10199
▁And	-10200
▁Cop	-10201
▁কিট	-10202
▁গুর	-10203
▁পাব	-10204
▁বৈদ	-10205
▁ভুট	-10206
▁শিউ	-10207
▁১৪৪	-10208
eared	-10209
ওয়াত	-10210
গুড়ি	-10211
ণ্ডিত	-10212
সংবাদ	-10213
▁অডিও	-10214
▁ইন্ট	-10215
▁কর্ন	-10216
▁কাঁক	-10217
▁জড়ো	-10218
▁টোটো	-10219
▁নিষ্	-10220
▁বর্জ	-10221
▁শীতে	-10222
▁সৌদি	-10223
ওয়ালা	-10224
▁first	-10225
▁অবসাদ	-10226
▁আংশিক	-10227
▁কুড়ি	-10228
▁কোয়া	-10229
▁গঙ্গা	-10230
▁গুয়া	-10231
▁চমত্‍	-10232
▁ঝগড়া	-10233
▁দিদির	-10234
▁নামছে	-10235
▁বিবেক	-10236
▁ভাবেন	-10237
▁মর্মে	-10238
▁রক্ষণ	-10239
▁সাথেই	-10240
▁সুগার	-10241
ন্ত্রিত	-10242
বার্ষিক	-10243
ানেত্রী	-10244
িয়ানের	-10245
▁Ananda	-10246
▁কমপ্লে	-10247
▁কাহিনী	-10248
▁কিংসের	-10249
▁ক্রমেই	-10250
▁চালকের	-10251
▁জিএসটি	-10252
▁ঠিকানা	-10253
▁দেখেছে	-10254
▁ধরেছেন	-10255
▁পাতায়	-10256
▁মিথ্যে	-10257
▁রয়েছি	-10258
▁হয়েছি	-10259
▁ইউরোপের	-10260
▁উপার্জন	-10261
▁কমিশনকে	-10262
▁পরিদর্শ	-10263
▁প্রভৃতি	-10264
▁বরখাস্ত	-10265
▁ভালভাবে	-10266
▁মাদ্রাস	-10267
▁সরস্বতী	-10268
▁সৌজন্যে	-10269
▁স্ট্রোক	-10270
▁ইউনিভার্	-10271
▁টেলিভিশন	-10272
▁পুষ্টিকর	-10273
▁মন্তব্যে	-10274
▁যোগদানের	-10275
▁লাইসেন্স	-10276
▁স্বস্তির	-10277
▁হাওড়ায়	-10278
▁উজ্জ্বলতা	-10279
▁কারখানায়	-10280
▁কার্যক্রম	-10281
▁Chatterjee	-10282
▁আধিকারিকের	-10283
▁উপনির্বাচন	-10284
▁কিছুক্ষণের	-10285
▁ইন্ডিয়ান্স	-10286
▁ধারাবাহিকের	-10287
▁বিদেশমন্ত্রী	-10288
▁বন্দোপাধ্যায়	-10289
co	-10290
কট	-10291
জম	-10292
৫৪	-10293
000	-10294
ina	-10295
ode	-10296
rat	-10297
টিত	-10298
তুল	-10299
মিস	-10300
াপে	-10301
াসহ	-10302
▁NE	-10303
▁PM	-10304
▁শট	-10305
▁৮৬	-10306
ruit	-10307
ংকার	-10308
এসপি	-10309
চলতি	-10310
চালক	-10311
নিতে	-10312
সাথী	-10313
াসীন	-10314
▁Cha	-10315
▁Day	-10316
▁কমা	-10317
▁খুচ	-10318
▁ধাত	-10319
▁পরম	-10320
▁রেস	-10321
▁শুল	-10322
▁৯টা	-10323
দেবের	-10324
পুলিশ	-10325
বিচার	-10326
ামুটি	-10327
▁এটাও	-10328
▁কোমল	-10329
▁গরিব	-10330
▁ছবিও	-10331
▁ডাকে	-10332
▁তারও	-10333
▁দোষী	-10334
▁ফ্লে	-10335
▁মালা	-10336
▁যখনই	-10337
▁সামল	-10338
▁সেটে	-10339
শ্বরের	-10340
▁right	-10341
▁অনুপম	-10342
▁ইভিএম	-10343
▁কানের	-10344
▁গাফিল	-10345
▁চাষের	-10346
▁জানলে	-10347
▁বয়ান	-10348
▁মেলার	-10349
▁লাগাম	-10350
▁সিকিউ	-10351
▁সুদের	-10352
াবার্তা	-10353
▁আব্বাস	-10354
▁ইন্ডিজ	-10355
▁গম্ভীর	-10356
▁নিয়মে	-10357
▁পাউডার	-10358
▁বন্যার	-10359
▁বিদ্যু	-10360
▁ভরিয়ে	-10361
▁মানবিক	-10362
▁মেজাজে	-10363
▁সকলেরই	-10364
▁হাইপার	-10365
▁জনসভায়	-10366
▁জুনিয়র	-10367
▁পুরোহিত	-10368
▁ফলাফলের	-10369
▁বৃহত্তর	-10370
▁রেলওয়ে	-10371
▁আশেপাশের	-10372
▁জানাচ্ছি	-10373
▁বিছানায়	-10374
▁স্পুটনিক	-10375
▁উত্‍সাহিত	-10376
▁বাণিজ্যিক	-10377
▁পরিচালনায়	-10378
▁অধিনায়কত্ব	-10379
▁কর্মচারীদের	-10380
▁কার্যকারিতা	-10381
",	-10382
CB	-10383
ib	-10384
ys	-10385
ছা	-10386
ডু	-10387
fal	-10388
ঠনে	-10389
তাহ	-10390
নাক	-10391
ভান	-10392
রুম	-10393
ুমা	-10394
২০০	-10395
▁Ab	-10396
▁যম	-10397
গমের	-10398
ভিতে	-10399
মিতে	-10400
মিনি	-10401
িকিউ	-10402
্বার	-10403
▁উপদ	-10404
▁এএফ	-10405
▁কুপ	-10406
▁ডেন	-10407
▁দাখ	-10408
▁শান	-10409
▁৬০০	-10410
▁2016	-10411
▁কলের	-10412
▁কোমর	-10413
▁খাতে	-10414
▁খুনে	-10415
▁গড়া	-10416
▁চাকা	-10417
▁ছোটো	-10418
▁জুতো	-10419
▁টাটা	-10420
▁থাকল	-10421
▁দড়ি	-10422
▁শিখর	-10423
▁সুখী	-10424
▁সুমন	-10425
▁২০০৭	-10426
eather	-10427
yright	-10428
মধ্যেই	-10429
োগ্রাম	-10430
▁Court	-10431
▁আইএসএ	-10432
▁ওটিটি	-10433
▁কনফার	-10434
▁কমানো	-10435
▁গাঁজা	-10436
▁গেলেই	-10437
▁দাদার	-10438
▁ধার্য	-10439
▁পর্ষদ	-10440
▁প্রাস	-10441
▁ফাঙ্গ	-10442
▁বোঝার	-10443
▁শামিল	-10444
▁সাগরে	-10445
▁স্মিথ	-10446
twitter	-10447
িয়ালের	-10448
▁অমরনাথ	-10449
▁আইপিএস	-10450
▁কন্ডিশ	-10451
▁চক্রের	-10452
▁তৃনমূল	-10453
▁দিয়েও	-10454
▁পারলেন	-10455
▁পৌরসভা	-10456
▁বহুদিন	-10457
▁মাইগ্র	-10458
▁স্পেসি	-10459
tainment	-10460
▁অপরাধের	-10461
▁আতঙ্কের	-10462
▁আলিয়ার	-10463
▁আশ্চর্য	-10464
▁এবিষয়ে	-10465
▁ওয়াকিব	-10466
▁করোনাকে	-10467
▁কর্ণধার	-10468
▁চুক্তির	-10469
▁ছাড়লেন	-10470
▁পেগাসাস	-10471
▁প্রাঙ্গ	-10472
▁বিচ্ছেদ	-10473
▁বিরুদ্ধ	-10474
▁বিষাক্ত	-10475
▁ব্রিগেড	-10476
▁মর্যাদা	-10477
▁রানাঘাট	-10478
▁লাগোয়া	-10479
▁সংস্করণ	-10480
▁সমন্বয়	-10481
▁স্ট্রেস	-10482
▁appeared	-10483
▁conflict	-10484
▁অসুস্থতা	-10485
▁চেষ্টায়	-10486
▁তারকাদের	-10487
▁দেখাচ্ছে	-10488
▁প্রযোজনা	-10489
▁বিক্ষোভে	-10490
▁মোটামুটি	-10491
▁অ্যালকোহল	-10492
▁উচ্ছ্বসিত	-10493
▁কংগ্রেসকে	-10494
▁ডিসেম্বরে	-10495
▁পুষ্টিগুণ	-10496
▁লেটেস্টলি	-10497
▁অভিভাবকদের	-10498
▁নিঃসন্দেহে	-10499
▁বায়ুসেনার	-10500
▁স্যানিটাইজ	-10501
▁অপ্রত্যাশিত	-10502
▁কর্মসংস্থান	-10503
▁টুর্নামেন্টে	-10504
▁নেটদুনিয়ায়	-10505
▁প্ল্যাটফর্মে	-10506
▁তাত্‍পর্যপূর্ণ	-10507
bs	-10508
যা	-10509
ৈত	-10510
ৌপ	-10511
৩৮	-10512
are	-10513
চির	-10514
পিও	-10515
ুকি	-10516
োচন	-10517
▁৭৬	-10518
icle	-10519
rike	-10520
গুরু	-10521
পিজি	-10522
লেখা	-10523
হাটা	-10524
ুমুর	-10525
▁CBI	-10526
▁উপশ	-10527
▁এমএ	-10528
▁পলি	-10529
▁হকি	-10530
▁হান	-10531
erved	-10532
ওয়ের	-10533
তিক্র	-10534
বেদনা	-10535
মিয়া	-10536
▁আলোর	-10537
▁একশো	-10538
▁গনেশ	-10539
▁চার্	-10540
▁জেপি	-10541
▁তকমা	-10542
▁পর্ন	-10543
▁বছরই	-10544
▁বদলা	-10545
▁মরিচ	-10546
▁যাঁর	-10547
▁শ্রম	-10548
গড়ায়	-10549
▁ইউনাই	-10550
▁ইনস্ট	-10551
▁ওয়েল	-10552
▁চোটের	-10553
▁জরুরী	-10554
▁তীর্থ	-10555
▁নাচের	-10556
▁পার্ল	-10557
▁বেগুন	-10558
▁বোনের	-10559
▁ভুগতে	-10560
▁রদবদল	-10561
▁সরানো	-10562
▁সেক্স	-10563
▁হতাশা	-10564
▁হান্ট	-10565
িয়েটার	-10566
▁অঙ্কের	-10567
▁অজ্ঞাত	-10568
▁এক্সচে	-10569
▁জাতিসং	-10570
▁তাণ্ডব	-10571
▁তোমাকে	-10572
▁ধরিয়ে	-10573
▁পরিমান	-10574
▁পারলেও	-10575
▁প্রবীর	-10576
▁বেলুড়	-10577
▁মৃতদের	-10578
▁রিয়েল	-10579
▁শীতলকু	-10580
▁অপারেশন	-10581
▁কাণ্ডের	-10582
▁কাপড়ের	-10583
▁কোনওরকম	-10584
▁জল্পনার	-10585
▁টলিউডের	-10586
▁দুপুরের	-10587
▁বিস্ময়	-10588
▁শীতকালে	-10589
▁সমুদ্রে	-10590
▁সাংসদের	-10591
▁ইউরোপীয়	-10592
▁চমত্‍কার	-10593
▁ছড়াচ্ছে	-10594
▁প্রাইভেট	-10595
▁প্ল্যানে	-10596
▁বর্ধমানে	-10597
▁সংখ্যাটা	-10598
▁সপ্তাহেই	-10599
▁সমুদ্রের	-10600
▁Copyright	-10601
▁কেবলমাত্র	-10602
▁কোনওভাবেই	-10603
▁জার্মানির	-10604
▁টোয়েন্টি	-10605
▁দীর্ঘক্ষণ	-10606
▁প্রত্যন্ত	-10607
▁বিরুদ্ধেও	-10608
▁রাজস্থানে	-10609
▁কেজরিওয়াল	-10610
▁তত্‍পরতায়	-10611
▁পুলিশকর্মী	-10612
▁সম্প্রদায়	-10613
▁ক্যান্সারের	-10614
▁চেন্নাইয়ের	-10615
▁ফ্র্যাঞ্চাইজি	-10616
▁বিক্ষোভকারীদের	-10617
আস	-10618
চই	-10619
৩২	-10620
৪৮	-10621
▁+	-10622
ack	-10623
ite	-10624
man	-10625
মেড	-10626
শোর	-10627
▁1.	-10628
▁US	-10629
▁৭৯	-10630
একটি	-10631
ন্দি	-10632
বাদে	-10633
রাধে	-10634
িমার	-10635
ৈর্য	-10636
▁ডিল	-10637
▁দুল	-10638
▁পন্	-10639
▁ফরম	-10640
▁বাউ	-10641
▁ভূত	-10642
▁মাশ	-10643
▁মিম	-10644
▁রিক	-10645
▁লিড	-10646
▁সাদ	-10647
▁৮টা	-10648
ব্লিউ	-10649
ারাতি	-10650
▁আদেশ	-10651
▁আমলা	-10652
▁ছিলো	-10653
▁ডোজ়	-10654
▁পারত	-10655
▁ফ্রে	-10656
▁বচসা	-10657
▁বিড়	-10658
▁ভদ্র	-10659
▁মেখে	-10660
▁যুগে	-10661
▁শনির	-10662
▁সর্ষ	-10663
▁সাউথ	-10664
▁সাথী	-10665
▁২০০৮	-10666
▁২০১৩	-10667
এছাড়া	-10668
শিল্পী	-10669
ার্জির	-10670
▁অ্যার	-10671
▁আপনজন	-10672
▁আয়ার	-10673
▁কাবুল	-10674
▁জীবনয	-10675
▁তহবিল	-10676
▁তুলবে	-10677
▁দাড়ি	-10678
▁ন্যাট	-10679
▁বলিরে	-10680
▁বিঘ্ন	-10681
▁ভোগেন	-10682
▁মাধুর	-10683
▁লঙ্ঘন	-10684
▁শাখার	-10685
▁সবটাই	-10686
▁হতবাক	-10687
▁হাঁসখ	-10688
রাজ্যের	-10689
▁উত্তোল	-10690
▁এনেছেন	-10691
▁জানতেন	-10692
▁ত্রিপা	-10693
▁দীপাবল	-10694
▁ধূমপান	-10695
▁পর্যটক	-10696
▁বর্ণনা	-10697
▁বিকিনি	-10698
▁বিপাকে	-10699
▁ভেঙ্গে	-10700
▁যোজনার	-10701
▁রাজনাথ	-10702
▁শিল্পা	-10703
▁সড়কের	-10704
▁সন্তোষ	-10705
▁সেক্টর	-10706
ruitment	-10707
▁Kolkata	-10708
▁অধিকর্ত	-10709
▁চেষ্টার	-10710
▁ছিনিয়ে	-10711
▁নির্মিত	-10712
▁প্রতিটা	-10713
▁বিয়েতে	-10714
▁শান্তনু	-10715
▁স্ক্রাব	-10716
▁হারানোর	-10717
▁পঞ্জাবের	-10718
▁পাওয়ায়	-10719
▁প্রতিবছর	-10720
▁মোহাম্মদ	-10721
▁রাতারাতি	-10722
▁সংঘর্ষের	-10723
▁হরিয়ানা	-10724
▁Elections	-10725
▁কিছুদিনের	-10726
▁ক্যালকাটা	-10727
▁দুর্ভাগ্য	-10728
▁প্রশাসনকে	-10729
▁প্লাস্টিক	-10730
▁বিচ্ছেদের	-10731
▁স্ট্রোকের	-10732
▁ওয়াকিবহাল	-10733
▁চ্যাম্পিয়	-10734
▁তামিলনাড়ু	-10735
▁উপনির্বাচনে	-10736
▁প্রত্যাবর্ত	-10737
▁শিলিগুড়িতে	-10738
▁ম্যানেজমেন্ট	-10739
ণি	-10740
লভ	-10741
্ফ	-10742
৭৭	-10743
old	-10744
ope	-10745
বেই	-10746
ুঁত	-10747
▁Hi	-10748
▁Tr	-10749
▁ধু	-10750
কোটি	-10751
চ্ছু	-10752
বদ্য	-10753
য়াব	-10754
সবজি	-10755
াশ্র	-10756
্যাজ	-10757
▁অসা	-10758
▁ইতি	-10759
▁কবর	-10760
▁খাট	-10761
▁চিব	-10762
▁শশী	-10763
▁সবর	-10764
▁সুজ	-10765
দ্দার	-10766
বছরের	-10767
মূল্য	-10768
▁আঙ্গ	-10769
▁আড়া	-10770
▁ঈশান	-10771
▁কাঁদ	-10772
▁কাজল	-10773
▁খনিজ	-10774
▁গন্ড	-10775
▁টপকে	-10776
▁প্রল	-10777
▁মিউট	-10778
▁মিটে	-10779
▁১০০০	-10780
দাওয়া	-10781
শিয়াল	-10782
▁উদ্ধব	-10783
▁গভর্ন	-10784
▁ঘাড়ে	-10785
▁ট্রোল	-10786
▁পাশেই	-10787
▁প্রাম	-10788
▁বাবুর	-10789
▁মৃতার	-10790
▁র‍্যা	-10791
▁লটারি	-10792
▁শুভাশ	-10793
article	-10794
বাহিনীর	-10795
ব্যবহার	-10796
▁Corona	-10797
▁Strike	-10798
▁অনবদ্য	-10799
▁ক্রাইম	-10800
▁খেলবেন	-10801
▁গোলাপি	-10802
▁জয়ন্ত	-10803
▁পাল্টে	-10804
▁পুলিশে	-10805
▁বিপদের	-10806
▁বিপরীত	-10807
▁বৈদ্যু	-10808
▁ব্যাহত	-10809
▁যতক্ষণ	-10810
▁শূন্যপ	-10811
▁স্ট্রে	-10812
▁হলুদের	-10813
▁অত্যধিক	-10814
▁এগোচ্ছে	-10815
▁কয়েকটা	-10816
▁চাকরিতে	-10817
▁দিলীপের	-10818
▁পুলিসের	-10819
▁প্রচলিত	-10820
▁বাতিলের	-10821
▁মালদহের	-10822
▁মিটিয়ে	-10823
▁রহমানের	-10824
▁স্টোরিজ	-10825
▁হোটেলের	-10826
▁দ্বন্দ্ব	-10827
▁প্রকৃতির	-10828
▁আন্তজাতিক	-10829
▁কাঠগড়ায়	-10830
▁কেন্দ্রকে	-10831
▁তালিবানের	-10832
▁বিদ্যুতের	-10833
▁বিষ্ণুপুর	-10834
▁শিল্পীদের	-10835
▁সংবেদনশীল	-10836
▁অভ্যন্তরীণ	-10837
▁অলিম্পিক্স	-10838
▁বাড়িয়েছে	-10839
▁বিশ্বজিত্‍	-10840
▁শেষপর্যন্ত	-10841
▁স্থগিতাদেশ	-10842
▁অন্তঃসত্ত্বা	-10843
▁অ্যাসোসিয়েশনের	-10844
24	-10845
ওই	-10846
ঠা	-10847
৫৬	-10848
IPL	-10849
hah	-10850
এসি	-10851
গরম	-10852
টিই	-10853
দাল	-10854
রিত	-10855
র্দ	-10856
িজম	-10857
োনি	-10858
▁2.	-10859
▁টস	-10860
▁নূ	-10861
▁পী	-10862
▁ফৌ	-10863
olly	-10864
নজরে	-10865
নতুন	-10866
মোহর	-10867
হাটে	-10868
াকড়	-10869
্রিম	-10870
▁কুচ	-10871
▁কোট	-10872
▁গুগ	-10873
▁তৈম	-10874
▁থের	-10875
▁দলই	-10876
▁ধনী	-10877
▁মতই	-10878
▁শিক	-10879
▁সেখ	-10880
▁৪টি	-10881
ক্রিম	-10882
▁অধীন	-10883
▁অমৃত	-10884
▁চম্প	-10885
▁জিরা	-10886
▁দিঘা	-10887
▁বদ্ধ	-10888
▁মহেশ	-10889
▁যেটি	-10890
▁লাহি	-10891
▁শপিং	-10892
▁শোষণ	-10893
▁সানি	-10894
▁সুড়	-10895
▁হইচই	-10896
ঞ্চলিক	-10897
▁অনন্য	-10898
▁গড়ার	-10899
▁ঘাঁটি	-10900
▁জাতির	-10901
▁জেলেন	-10902
▁টেনিস	-10903
▁দাখিল	-10904
▁দারুন	-10905
▁ফুলের	-10906
▁বিলাস	-10907
▁যুগের	-10908
▁রাজেশ	-10909
▁সরবরা	-10910
▁সৈন্য	-10911
▁স্টিভ	-10912
বিধানিক	-10913
যুদ্ধের	-10914
▁Health	-10915
▁নিখুঁত	-10916
▁প্রাণে	-10917
▁ফিরলেন	-10918
▁ফ্যাটি	-10919
▁বিয়ার	-10920
▁রাত্রি	-10921
▁সমাপ্ত	-10922
কেন্দ্রে	-10923
নেসিয়াম	-10924
▁article	-10925
▁অন্ধকার	-10926
▁কঙ্গনার	-10927
▁কমিটিতে	-10928
▁কল্যাণী	-10929
▁ছাত্রীর	-10930
▁নিয়োগে	-10931
▁ভবিষ্যত	-10932
▁শিবশংকর	-10933
▁শুভশ্রী	-10934
▁শ্রেষ্ঠ	-10935
▁সমাধানে	-10936
▁স্বাক্ষ	-10937
▁হিসেবেও	-10938
▁উপদেষ্টা	-10939
▁জওয়ানরা	-10940
▁প্রেমিকা	-10941
▁ফেসপ্যাক	-10942
▁শ্রমিকরা	-10943
▁স্বভাবতই	-10944
▁জনস্বার্থ	-10945
▁জন্মদিনের	-10946
▁নির্ভরশীল	-10947
▁পদক্ষেপের	-10948
▁মিডিয়াতে	-10949
▁কেরিয়ারের	-10950
▁নিম্নচাপের	-10951
▁পাসওয়ার্ড	-10952
▁অস্ত্রোপচার	-10953
▁মূল্যবৃদ্ধির	-10954
▁ব্যবহারকারীরা	-10955
dd	-10956
ey	-10957
ma	-10958
৪৬	-10959
▁@	-10960
▁Z	-10961
IST	-10962
ree	-10963
চিন	-10964
ছবি	-10965
লিট	-10966
াণী	-10967
াদা	-10968
িরি	-10969
ীনা	-10970
ীবন	-10971
্কর	-10972
▁।"	-10973
▁মক	-10974
▁রজ	-10975
endu	-10976
এমএস	-10977
কেতন	-10978
খানি	-10979
জায়	-10980
জীবী	-10981
তাভর	-10982
ত্বে	-10983
ন্ধে	-10984
হারে	-10985
াহিম	-10986
▁IND	-10987
▁আঁক	-10988
▁গুহ	-10989
▁ডের	-10990
▁তৈল	-10991
▁ধীর	-10992
▁বনধ	-10993
▁বলল	-10994
▁বেধ	-10995
▁১০৮	-10996
খানেক	-10997
গঞ্জে	-10998
চক্রে	-10999
ঞ্জের	-11000
টিয়া	-11001
র্ভাব	-11002
▁Case	-11003
▁more	-11004
▁চুলক	-11005
▁জমান	-11006
▁জর্জ	-11007
▁জায়	-11008
▁ট্রা	-11009
▁ঠেলে	-11010
▁নামল	-11011
▁বেসন	-11012
▁ভলান	-11013
মন্দির	-11014
স্তরের	-11015
▁অ্যাথ	-11016
▁ঋতাভর	-11017
▁চলমান	-11018
▁চালিত	-11019
▁দ্রৌপ	-11020
▁বসন্ত	-11021
▁বিনোদ	-11022
▁ব্যাল	-11023
▁মরদেহ	-11024
▁রিলিজ	-11025
▁শাসিত	-11026
▁শিথিল	-11027
▁সাহেব	-11028
▁স্থাপ	-11029
ashifal	-11030
ত্যাগের	-11031
িশিয়াল	-11032
▁আক্ষেপ	-11033
▁আয়ুর্	-11034
▁আরোগ্য	-11035
▁গতকালই	-11036
▁তরুণীর	-11037
▁তিস্তা	-11038
▁নাড্ডা	-11039
▁নিলামে	-11040
▁ফিরছেন	-11041
▁ফুসফুস	-11042
▁বাস্তু	-11043
▁বৈশাখী	-11044
▁ভেন্টি	-11045
▁মাথাভা	-11046
▁যেগুলি	-11047
▁লাগালে	-11048
▁সল্টলে	-11049
▁আঞ্চলিক	-11050
▁এন্ট্রি	-11051
▁কাপুরের	-11052
▁ক্ষুদ্র	-11053
▁দুর্ভোগ	-11054
▁ভেরিয়ে	-11055
▁যানবাহন	-11056
▁স্বপ্নে	-11057
▁উদ্যোক্ত	-11058
▁উন্নয়নে	-11059
▁বোমাবাজি	-11060
▁মূল্যবান	-11061
▁যাত্রীরা	-11062
▁শ্রীলঙ্ক	-11063
▁হাজারেরও	-11064
▁প্রতিরক্ষ	-11065
▁বায়ুসেনা	-11066
▁বিপর্যস্ত	-11067
▁জঙ্গলমহলের	-11068
▁বিস্ফোরণের	-11069
▁হ্যান্ডেলে	-11070
▁ক্রিকেটাররা	-11071
▁গোয়েন্দারা	-11072
▁জনপ্রতিনিধি	-11073
▁প্রক্রিয়ায়	-11074
▁মন্ত্রিসভায়	-11075
▁চ্যাম্পিয়ন্স	-11076
▁ম্যাগনেসিয়াম	-11077
বক	-11078
৪৯	-11079
anj	-11080
ick	-11081
উটি	-11082
চেল	-11083
দাস	-11084
▁Sp	-11085
▁লং	-11086
▁৮২	-11087
roid	-11088
upta	-11089
দক্ষ	-11090
পিসি	-11091
াড়ে	-11092
িপতি	-11093
ুনার	-11094
▁করো	-11095
▁কুস	-11096
▁খেজ	-11097
▁দোল	-11098
▁ধ্য	-11099
▁নাত	-11100
▁৫জি	-11101
অ্যাক	-11102
খ্যান	-11103
ণ্ডার	-11104
বিহীন	-11105
হাজার	-11106
▁Gang	-11107
▁অকাল	-11108
▁উর্ধ	-11109
▁করান	-11110
▁গৌরব	-11111
▁চড়ে	-11112
▁চিনে	-11113
▁জিটি	-11114
▁নামা	-11115
▁পারা	-11116
▁ফোলা	-11117
▁বিলি	-11118
▁মলয়	-11119
▁মাখন	-11120
▁২০১০	-11121
াধিকার	-11122
েন্সের	-11123
▁আবদুল	-11124
▁ইয়ার	-11125
▁এটিতে	-11126
▁চারটে	-11127
▁চেহার	-11128
▁টানাপ	-11129
▁নেননি	-11130
▁পৃথ্ব	-11131
▁বাতাস	-11132
▁যেখান	-11133
▁রাফাল	-11134
▁রুটিন	-11135
▁লস্কর	-11136
▁সাপের	-11137
▁অনন্যা	-11138
▁একনজরে	-11139
▁কমবেশি	-11140
▁কৃষ্ণা	-11141
▁চাইলেন	-11142
▁ডিসকাউ	-11143
▁তাঁরাও	-11144
▁পড়েনি	-11145
▁বাঁধতে	-11146
▁বাগানে	-11147
▁বিক্রম	-11148
▁সংকটের	-11149
▁অনাস্থা	-11150
▁অনেকদিন	-11151
▁অ্যাটাক	-11152
▁গোবিন্দ	-11153
▁জলবায়ু	-11154
▁ট্রেনিং	-11155
▁নদীয়ার	-11156
▁নিয়েছি	-11157
▁নির্মলা	-11158
▁প্যাকেজ	-11159
▁মদ্যপান	-11160
▁ম্যাচটি	-11161
▁রিচার্জ	-11162
▁শিল্পের	-11163
▁সমবেদনা	-11164
▁আইনজীবীর	-11165
▁গবেষকদের	-11166
▁চার্জশিট	-11167
▁পুরসভায়	-11168
▁প্রস্রাব	-11169
▁বাঁচিয়ে	-11170
▁রাজকুমার	-11171
▁লক্ষাধিক	-11172
▁অনুপ্রবেশ	-11173
▁আবেদনপত্র	-11174
▁জওয়ানদের	-11175
▁প্রেক্ষাপ	-11176
▁প্রোজেক্ট	-11177
▁উইকেটকিপার	-11178
▁ক্ষয়ক্ষতি	-11179
▁পুরুলিয়ার	-11180
▁অগ্নিমিত্রা	-11181
▁উত্তরাখণ্ডের	-11182
▁তদন্তকারীদের	-11183
''	-11184
ED	-11185
HO	-11186
৩১	-11187
৫২	-11188
arn	-11189
জিও	-11190
পিস	-11191
হেড	-11192
িকো	-11193
িতি	-11194
▁৬১	-11195
▁Mar	-11196
▁দাহ	-11197
▁পিস	-11198
▁বটে	-11199
▁বেদ	-11200
▁মোড	-11201
কন্যা	-11202
থিয়া	-11203
ধরনের	-11204
লাইনে	-11205
সূত্র	-11206
ীয়ার	-11207
্টারে	-11208
▁অমান	-11209
▁আচার	-11210
▁এতটা	-11211
▁কাজও	-11212
▁কারি	-11213
▁ভাঙন	-11214
▁শচীন	-11215
▁শহীদ	-11216
▁সিলে	-11217
▁হয়র	-11218
▁২০০৯	-11219
গ্রস্থ	-11220
পাড়ার	-11221
শিক্ষা	-11222
িশ্বাস	-11223
িস্তান	-11224
ুদ্দিন	-11225
্যালের	-11226
▁Newsb	-11227
▁অক্ষর	-11228
▁আখতার	-11229
▁কাঞ্চ	-11230
▁ক্যাশ	-11231
▁খানকে	-11232
▁তমলুক	-11233
▁নামেন	-11234
▁নেপাল	-11235
▁পলিসি	-11236
▁বাপ্প	-11237
▁বিকাল	-11238
▁মসলিন	-11239
▁রঞ্জন	-11240
▁রুক্ষ	-11241
▁সবজির	-11242
▁সবমিল	-11243
▁সাহার	-11244
র্গ্যান	-11245
স্পৃষ্ট	-11246
▁অনুদান	-11247
▁আইসিইউ	-11248
▁কারবার	-11249
▁কেরালা	-11250
▁ঘাসফুল	-11251
▁পথচলতি	-11252
▁ফ্রিজে	-11253
▁বস্ত্র	-11254
▁ব্যথার	-11255
▁মালদার	-11256
▁যত্নের	-11257
▁রসুনের	-11258
▁লিখলেন	-11259
▁শেষমেশ	-11260
▁শ্রদ্ধ	-11261
▁সাধারন	-11262
▁সুগন্ধ	-11263
▁হাইস্ক	-11264
▁কিশোরের	-11265
▁কোরিয়া	-11266
▁গুটিয়ে	-11267
▁চাপিয়ে	-11268
▁বাগানের	-11269
▁ভিক্টোর	-11270
▁মার্চের	-11271
▁মিছিলের	-11272
▁মোবাইলে	-11273
▁যাদবপুর	-11274
▁ল্যান্ড	-11275
▁স্ক্যান	-11276
▁পুরভোটের	-11277
▁ফেসবুকের	-11278
▁ফ্ল্যাটে	-11279
▁ভালবাসার	-11280
▁যাত্রায়	-11281
▁শিবসেনার	-11282
▁সূত্রপাত	-11283
▁স্বপ্নের	-11284
▁কার্যালয়	-11285
▁জায়গাতেই	-11286
▁ভবানীপুরে	-11287
▁যাচ্ছিলেন	-11288
▁যোগাযোগের	-11289
▁সংরক্ষণের	-11290
▁সবমিলিয়ে	-11291
▁সিস্টেমের	-11292
▁স্পেশ্যাল	-11293
▁ক্যারিয়ার	-11294
▁Recruitment	-11295
▁প্রসেনজিত্‍	-11296
▁বৃষ্টিপাতের	-11297
▁ব্যবহারকারীদের	-11298
AN	-11299
ুথ	-11300
৩৭	-11301
rol	-11302
ron	-11303
এনএ	-11304
ড়ন	-11305
নেক	-11306
পিড	-11307
শির	-11308
সেপ	-11309
সেস	-11310
িশে	-11311
▁18	-11312
▁জট	-11313
▁৬৯	-11314
▁৭১	-11315
▁৯২	-11316
cope	-11317
আপের	-11318
এফআই	-11319
কারণ	-11320
প্তি	-11321
য়াই	-11322
রায়	-11323
োজনা	-11324
▁100	-11325
▁Air	-11326
▁Roy	-11327
▁আবহ	-11328
▁কড়	-11329
▁খাস	-11330
▁তীর	-11331
▁বন্	-11332
▁যাদ	-11333
▁রোদ	-11334
▁লুট	-11335
▁লুঠ	-11336
▁সিউ	-11337
▁৫টা	-11338
▁৭টা	-11339
andhi	-11340
ক্ষাগ	-11341
মাসের	-11342
মেয়া	-11343
রক্ষক	-11344
▁Live	-11345
▁অনুক	-11346
▁আমিও	-11347
▁আরাধ	-11348
▁ইরান	-11349
▁এসডি	-11350
▁খিদে	-11351
▁জামা	-11352
▁পশ্চ	-11353
▁মধুম	-11354
▁মুলত	-11355
▁রপ্ত	-11356
▁রুখে	-11357
▁শরিক	-11358
▁সাইট	-11359
▁সূচক	-11360
▁১২টা	-11361
▁২০২৩	-11362
তৃণমূল	-11363
পমেন্ট	-11364
ীকান্ত	-11365
োত্‍সব	-11366
▁উচ্ছে	-11367
▁কাঠাম	-11368
▁গির্জ	-11369
▁জনতার	-11370
▁জলীয়	-11371
▁জেরার	-11372
▁ডেপুট	-11373
▁নিরাম	-11374
▁বিপদে	-11375
▁মহাদে	-11376
▁মৌলিক	-11377
▁যত্নে	-11378
▁শতরান	-11379
▁সংকেত	-11380
▁সাগ্ন	-11381
▁সুনাম	-11382
▁সুরেশ	-11383
▁অবহেলা	-11384
▁ওড়িশা	-11385
▁কিশোরী	-11386
▁ক্লাবে	-11387
▁ঠিকমতো	-11388
▁ডলারের	-11389
▁তিনবার	-11390
▁নজরদার	-11391
▁নিউটাউ	-11392
▁পেস্তা	-11393
▁বিড়াল	-11394
▁সঞ্চয়	-11395
▁হাঁটতে	-11396
যাত্রায়	-11397
▁অসন্তোষ	-11398
▁ওয়ার্ন	-11399
▁ক্রীড়া	-11400
▁জামাকাপ	-11401
▁দর্শকরা	-11402
▁নেত্রীর	-11403
▁বিবেকান	-11404
▁বীরভূমে	-11405
▁ম্যাজিক	-11406
▁রেজাল্ট	-11407
▁লখিমপুর	-11408
▁ল্যাপটপ	-11409
▁সাময়িক	-11410
ছাত্রীদের	-11411
▁অর্জুনের	-11412
▁অ্যামাজন	-11413
▁কূটনৈতিক	-11414
▁চিত্রনাট	-11415
▁চ্যানেলে	-11416
▁জনসংখ্যা	-11417
▁ডাক্তারি	-11418
▁দুর্বলতা	-11419
▁নবান্নের	-11420
▁পরিষদীয়	-11421
▁প্রকাশ্য	-11422
▁বাঁচানোর	-11423
▁ব্যাংকের	-11424
▁লোকসভায়	-11425
▁শুনানিতে	-11426
▁সিপিআইএম	-11427
▁সিরিয়াল	-11428
▁কন্ডিশনার	-11429
▁কর্তব্যরত	-11430
▁দেখিয়েছে	-11431
▁প্রেক্ষাগ	-11432
▁বিশ্বাসের	-11433
▁হরিয়ানার	-11434
▁আইনশৃঙ্খলা	-11435
▁গণতন্ত্রের	-11436
▁ব্যারাকপুর	-11437
▁দীর্ঘস্থায়ী	-11438
▁স্পেসিফিকেশন	-11439
▁চট্টোপাধ্যায়কে	-11440
▁প্রধানমন্ত্রীকে	-11441
NL	-11442
uv	-11443
শব	-11444
▁★	-11445
arm	-11446
utt	-11447
টোর	-11448
নাশ	-11449
বৃহ	-11450
যার	-11451
সেট	-11452
সেন	-11453
াকু	-11454
ুইস	-11455
▁আং	-11456
▁রব	-11457
▁৯৬	-11458
edit	-11459
নয়া	-11460
ফর্ম	-11461
ভঙ্গ	-11462
াতেন	-11463
াহার	-11464
▁Med	-11465
▁আইশ	-11466
▁এআই	-11467
▁ছাদ	-11468
▁ঝলক	-11469
▁বডি	-11470
▁বেহ	-11471
▁মদত	-11472
▁শুট	-11473
▁সইফ	-11474
apoor	-11475
ঞ্চার	-11476
ঞ্জয়	-11477
▁আনেন	-11478
▁এমপি	-11479
▁কথোপ	-11480
▁জেগে	-11481
▁দুধে	-11482
▁বলের	-11483
▁বাবর	-11484
▁বাসে	-11485
▁মহিষ	-11486
▁রোহি	-11487
▁লজ্জ	-11488
▁লুকে	-11489
▁সমেত	-11490
▁হবেই	-11491
▁হেসে	-11492
▁আবদ্ধ	-11493
▁কার্প	-11494
▁গ্লোব	-11495
▁ঘোষকে	-11496
▁চড়াও	-11497
▁ছবিটা	-11498
▁জোগান	-11499
▁ডেভেল	-11500
▁ঢাকার	-11501
▁ধৈর্য	-11502
▁নীতির	-11503
▁ফিঞ্চ	-11504
▁বারুই	-11505
▁বৈষ্ণ	-11506
▁মাঙ্ক	-11507
▁রায়ে	-11508
▁সেকথা	-11509
arendra	-11510
ওয়েস্ট	-11511
গামীদের	-11512
স্থানের	-11513
▁চিতাবা	-11514
▁ছিনতাই	-11515
▁পড়ছেন	-11516
▁পরিয়ে	-11517
▁বাড়লে	-11518
▁বিস্তর	-11519
▁বেধড়ক	-11520
▁বেলায়	-11521
▁মনোনীত	-11522
▁মাল্টি	-11523
▁সুত্রে	-11524
▁স্বরূপ	-11525
ন্যাশনাল	-11526
▁আক্রমণে	-11527
▁চাওয়ার	-11528
▁চৌধুরীর	-11529
▁জিনিসের	-11530
▁নদিয়ার	-11531
▁ম্যাচেই	-11532
▁সেদিকেই	-11533
ল্যান্ডের	-11534
▁অনেকগুলি	-11535
▁আর্দ্রতা	-11536
▁উত্তীর্ণ	-11537
▁উদ্বোধনী	-11538
▁ক্রিসমাস	-11539
▁থিয়েটার	-11540
▁ফটোগ্রাফ	-11541
▁ফুসফুসের	-11542
▁সীমাবদ্ধ	-11543
▁ওয়াশিংটন	-11544
▁করোনাকালে	-11545
▁পজিটিভিটি	-11546
▁প্রতিবন্ধ	-11547
▁বিষয়গুলি	-11548
▁ভালোবাসেন	-11549
▁মাথাব্যথা	-11550
▁প্রিয়জনের	-11551
▁কর্তৃপক্ষকে	-11552
▁প্রক্রিয়ার	-11553
▁ব্যবহারকারী	-11554
▁কেন্দ্রশাসিত	-11555
18	-11556
qu	-11557
উই	-11558
▁y	-11559
/20	-11560
ach	-11561
ery	-11562
mit	-11563
ppo	-11564
চাঁ	-11565
তেজ	-11566
মাই	-11567
রেক	-11568
সিস	-11569
িণী	-11570
্লভ	-11571
▁কষ	-11572
▁ঘে	-11573
▁ডো	-11574
▁বণ	-11575
West	-11576
oros	-11577
rata	-11578
ওভার	-11579
করের	-11580
চড়ে	-11581
ড়িত	-11582
বস্ত	-11583
বিসি	-11584
শালা	-11585
সপ্ত	-11586
স্যা	-11587
িপশন	-11588
িমূল	-11589
▁অযো	-11590
▁আমল	-11591
▁ছিঁ	-11592
▁দৃশ	-11593
▁সুব	-11594
Photo	-11595
embly	-11596
gress	-11597
ident	-11598
istan	-11599
পুরুষ	-11600
াবাদে	-11601
▁ইনভে	-11602
▁কক্ষ	-11603
▁খানে	-11604
▁গোর্	-11605
▁জোড়	-11606
▁দমদম	-11607
▁ধরুন	-11608
▁নাজে	-11609
▁নামও	-11610
▁নাশক	-11611
▁নেশা	-11612
▁পকেট	-11613
▁পিসি	-11614
▁পেশী	-11615
▁ফলেই	-11616
▁বেরো	-11617
▁ব্লু	-11618
▁ভাঁজ	-11619
▁মীরা	-11620
▁রঙিন	-11621
▁রানী	-11622
▁শ্বে	-11623
▁সঙ্ঘ	-11624
▁সুফল	-11625
ভারতের	-11626
সমেন্ট	-11627
্যাটের	-11628
▁State	-11629
▁অরুণা	-11630
▁আড্ডা	-11631
▁আর্টি	-11632
▁কাছেও	-11633
▁খেলাধ	-11634
▁চওড়া	-11635
▁জুড়ি	-11636
▁জুনের	-11637
▁দারুচ	-11638
▁পলাতক	-11639
▁ফিলিপ	-11640
▁বদলের	-11641
▁বাজিম	-11642
▁বাষ্প	-11643
▁বিউটি	-11644
▁ভাঙতে	-11645
▁যোজনা	-11646
▁রাতভর	-11647
▁রাসেল	-11648
▁লেভেল	-11649
▁সিরাজ	-11650
▁সেরকম	-11651
▁হারান	-11652
াপ্রসাদ	-11653
▁Update	-11654
▁আইআইটি	-11655
▁আঘাতের	-11656
▁একযোগে	-11657
▁এলপিজি	-11658
▁তাড়াহ	-11659
▁দত্তের	-11660
▁নেয়নি	-11661
▁পরিশ্র	-11662
▁পূর্বে	-11663
▁বর্জ্য	-11664
▁মঞ্জুর	-11665
▁মহারাজ	-11666
▁শতাংশই	-11667
▁স্তম্ভ	-11668
oroscope	-11669
প্রার্থী	-11670
▁Android	-11671
▁এজেন্সি	-11672
▁এশিয়ার	-11673
▁খড়গপুর	-11674
▁গতকালের	-11675
▁গোপনীয়	-11676
▁ছাড়ছেন	-11677
▁তেলেঙ্গ	-11678
▁বিল্ডিং	-11679
▁মূর্তির	-11680
▁লিমিটেড	-11681
তাবস্থায়	-11682
▁ইত্যাদির	-11683
▁গাইডলাইন	-11684
▁তত্‍পরতা	-11685
▁তিওয়ারি	-11686
▁পুরষ্কার	-11687
▁প্রযোজ্য	-11688
▁মাদ্রাসা	-11689
▁মানসিকতা	-11690
▁মানুষেরা	-11691
▁যুদ্ধজাহ	-11692
▁পররাষ্ট্র	-11693
▁প্রশংসায়	-11694
▁বক্তব্যের	-11695
▁যোদ্ধাদের	-11696
▁অনুগামীদের	-11697
▁তাপমাত্রার	-11698
▁ধারাবাহিকে	-11699
▁রাজনীতিবিদ	-11700
▁মূল্যবৃদ্ধি	-11701
▁অস্ট্রেলিয়ান	-11702
▁ময়েশ্চারাইজার	-11703
▁গঙ্গোপাধ্যায়ের	-11704
AC	-11705
IN	-11706
ST	-11707
da	-11708
কৌ	-11709
লু	-11710
াড	-11711
ীষ	-11712
ust	-11713
খবর	-11714
ফিউ	-11715
শোধ	-11716
হোক	-11717
▁Ed	-11718
▁উড	-11719
▁৮১	-11720
জানা	-11721
তিকর	-11722
বর্গ	-11723
মগ্ন	-11724
রূপে	-11725
হাতে	-11726
াপ্প	-11727
‍্যে	-11728
▁Cup	-11729
▁Odd	-11730
▁কনট	-11731
▁কনস	-11732
▁নিভ	-11733
▁সেভ	-11734
▁৭টি	-11735
▁৭০০	-11736
hikar	-11737
ঙ্গিক	-11738
জারের	-11739
দ্বেষ	-11740
রঞ্জন	-11741
স্টোন	-11742
িনাটি	-11743
্যাণে	-11744
▁গর্ত	-11745
▁জমাট	-11746
▁জয়ে	-11747
▁জাদে	-11748
▁টক্স	-11749
▁ঠোঁট	-11750
▁ডাবল	-11751
▁থমকে	-11752
▁নীরব	-11753
▁পনির	-11754
▁পরলে	-11755
▁পিতা	-11756
▁প্রহ	-11757
▁ব্রো	-11758
▁লড়ে	-11759
▁লাগা	-11760
▁সৃজন	-11761
▁২০০০	-11762
কমার্স	-11763
ক্ষেপে	-11764
নামূলক	-11765
▁উড়াল	-11766
▁উপরেই	-11767
▁কাটান	-11768
▁কালার	-11769
▁কৌশিক	-11770
▁গণ্ডি	-11771
▁গোলের	-11772
▁চিনির	-11773
▁ছড়াল	-11774
▁জুটির	-11775
▁ধ্যান	-11776
▁নোবেল	-11777
▁পকেটে	-11778
▁পোড়া	-11779
▁ফর্মে	-11780
▁ফেলবে	-11781
▁বার্ধ	-11782
▁বার্স	-11783
▁বোল্ড	-11784
▁ভয়েস	-11785
▁মুস্ত	-11786
▁স্কিম	-11787
ফাইনালে	-11788
ায়েন্স	-11789
▁Latest	-11790
▁অতীতের	-11791
▁কাঁঠাল	-11792
▁ক্ষোভে	-11793
▁টেকনোল	-11794
▁টেবিলে	-11795
▁তিনদিন	-11796
▁থাকতেই	-11797
▁দূষণের	-11798
▁পণ্ডিত	-11799
▁পরাজয়	-11800
▁পাঁচটা	-11801
▁বাজেটে	-11802
▁ময়দান	-11803
▁যাদবের	-11804
▁যেগুলো	-11805
▁রায়না	-11806
▁সত্যতা	-11807
▁সিন্ধু	-11808
▁অন্যরকম	-11809
▁আন্তরিক	-11810
▁জানাবেন	-11811
▁নাড্ডার	-11812
▁পাহাড়ি	-11813
▁পুষ্টির	-11814
▁বলিরেখা	-11815
▁বেঞ্চের	-11816
▁মাংসপেশ	-11817
▁মাহিন্দ	-11818
▁মেডিসিন	-11819
▁রোহিতের	-11820
▁লোকসভার	-11821
▁সৌভাগ্য	-11822
▁ক্রিপ্টো	-11823
▁জীবনসঙ্গ	-11824
▁প্রতারিত	-11825
▁বিশ্বনাথ	-11826
▁সুরজিত্‍	-11827
▁তুলেছিলেন	-11828
▁বাংলাদেশি	-11829
▁ব্যাঙ্কিং	-11830
▁মস্তিষ্কে	-11831
▁সম্ভাবনাও	-11832
▁ঐতিহ্যবাহী	-11833
▁প্রথমবারের	-11834
▁সংস্থাগুলি	-11835
▁সহযোগিতায়	-11836
▁অ্যান্টিবডি	-11837
▁প্রতিষ্ঠাতা	-11838
▁ব্র্যান্ডের	-11839
▁আত্মবিশ্বাসী	-11840
▁প্রতিনিধিত্ব	-11841
▁প্রত্যাখ্যান	-11842
▁প্রেসিডেন্টের	-11843
DD	-11844
ax	-11845
৫৮	-11846
দূত	-11847
র্ঘ	-11848
হাণ	-11849
▁IR	-11850
▁pr	-11851
▁অক	-11852
▁ইড	-11853
▁খন	-11854
▁খল	-11855
▁খস	-11856
▁ব়	-11857
▁সজ	-11858
▁৮৪	-11859
চিতে	-11860
জোড়	-11861
ভাজন	-11862
সাইড	-11863
ালার	-11864
▁Ass	-11865
▁টার	-11866
▁ডার	-11867
▁ভাদ	-11868
▁মটর	-11869
▁মিজ	-11870
▁হবু	-11871
ইউক্র	-11872
এদিকে	-11873
ঘণ্টা	-11874
দেহের	-11875
বিধির	-11876
ারিতে	-11877
িমূলক	-11878
▁আইটি	-11879
▁আনুম	-11880
▁এসপি	-11881
▁খুঁট	-11882
▁খ্রি	-11883
▁চারি	-11884
▁চেনা	-11885
▁নাড়	-11886
▁ভ্লা	-11887
▁মহাজ	-11888
▁মিশন	-11889
▁লকেট	-11890
▁হাইড	-11891
াবাড়ি	-11892
িয়নের	-11893
ুলিয়া	-11894
্যায়ন	-11895
▁Mahan	-11896
▁অনায়	-11897
▁ইনফেক	-11898
▁এঁদের	-11899
▁এএনএম	-11900
▁একপ্র	-11901
▁কাদের	-11902
▁চ্যাপ	-11903
▁দিনেও	-11904
▁দিলেই	-11905
▁পরিচর	-11906
▁মদ্যপ	-11907
▁মেরাম	-11908
▁লিস্ট	-11909
▁শুল্ক	-11910
▁শোনার	-11911
▁সেবার	-11912
▁সৈনিক	-11913
▁Gandhi	-11914
▁আগুনের	-11915
▁এমএএইচ	-11916
▁কমিশনে	-11917
▁কল্পনা	-11918
▁কোয়েল	-11919
▁ড্রাইভ	-11920
▁দিচ্ছি	-11921
▁ধর্মঘট	-11922
▁প্রসার	-11923
▁বাইকের	-11924
▁মিয়ান	-11925
▁যাইহোক	-11926
▁রোজগার	-11927
▁শব্দের	-11928
▁সংবর্ধ	-11929
▁সোমনাথ	-11930
▁হাসিনা	-11931
েইনমেন্ট	-11932
▁ওড়িশার	-11933
▁গোলমরিচ	-11934
▁জিজ্ঞেস	-11935
▁নবদ্বীপ	-11936
▁নাজেহাল	-11937
▁নেতাজির	-11938
▁পিটিয়ে	-11939
▁ফার্স্ট	-11940
▁বাজিমাত	-11941
▁মালাইকা	-11942
▁মুসলমান	-11943
▁সুবিধার	-11944
▁আনুমানিক	-11945
▁উঠেছিলেন	-11946
▁এসএসকেএম	-11947
▁কোরিয়ার	-11948
▁নাগরিকের	-11949
▁বলেছিলাম	-11950
▁লেনদেনের	-11951
▁সংক্রামক	-11952
▁স্ট্রাইক	-11953
▁ভুবনেশ্বর	-11954
▁দীর্ঘমেয়া	-11955
▁প্রার্থীকে	-11956
11	-11957
▁©	-11958
hab	-11959
ংশু	-11960
কোর	-11961
চলে	-11962
চিক	-11963
নীর	-11964
পাঠ	-11965
ভ্র	-11966
সুখ	-11967
িওর	-11968
িমে	-11969
▁3.	-11970
▁Ac	-11971
▁ঘষ	-11972
▁ধস	-11973
▁রম	-11974
hann	-11975
mage	-11976
জ্ঞা	-11977
মমতা	-11978
মাসে	-11979
রেখা	-11980
র্জন	-11981
িত্‍	-11982
২০২১	-11983
▁কির	-11984
▁চাট	-11985
▁চাদ	-11986
▁ছাঁ	-11987
▁ডিও	-11988
▁তরল	-11989
▁দিই	-11990
▁নেল	-11991
▁পৌষ	-11992
▁ফুর	-11993
▁বেত	-11994
▁রোব	-11995
▁লিক	-11996
▁১টি	-11997
▁১১০	-11998
কাণ্ড	-11999
দীপ্ত	-12000
বিক্ষ	-12001
শূন্য	-12002
ারদের	-12003
▁BSNL	-12004
▁আরজে	-12005
▁আলোক	-12006
▁আসাম	-12007
▁ইউএস	-12008
▁উগরে	-12009
▁এমবি	-12010
▁এলেই	-12011
▁কলিং	-12012
▁গাঁধ	-12013
▁চরমে	-12014
▁ছুরি	-12015
▁ডিসি	-12016
▁তনুশ	-12017
▁দামি	-12018
▁মুন্	-12019
▁যানজ	-12020
▁সাজা	-12021
▁অপশনে	-12022
▁ওয়াং	-12023
▁খড়্গ	-12024
▁খুলছে	-12025
▁জাহ্ন	-12026
▁ডিজাই	-12027
▁তাবড়	-12028
▁দায়ে	-12029
▁দিকেও	-12030
▁দেশেই	-12031
▁নিশান	-12032
▁নূপুর	-12033
▁পুদিন	-12034
▁পেলেই	-12035
▁প্রের	-12036
▁ফেরেন	-12037
▁বিধবা	-12038
▁বিস্ক	-12039
▁মসজিদ	-12040
▁মিক্স	-12041
▁লন্ডন	-12042
▁লাগতে	-12043
▁সবরকম	-12044
▁সার্চ	-12045
▁স্বজন	-12046
▁হাঁটু	-12047
বাড়ন্ত	-12048
স্টিকের	-12049
▁কিডনির	-12050
▁গোয়াল	-12051
▁গ্রহাণ	-12052
▁চামড়া	-12053
▁ছোটদের	-12054
▁জলমগ্ন	-12055
▁টিআরপি	-12056
▁ধারালো	-12057
▁পারতেন	-12058
▁প্রথমত	-12059
▁বহুবার	-12060
▁বোঝাতে	-12061
▁মঞ্চের	-12062
▁ম্যাজি	-12063
▁সতীর্থ	-12064
য়েন্টের	-12065
▁Adhikar	-12066
▁অতিমারি	-12067
▁অন্যত্র	-12068
▁আইশ্যাড	-12069
▁কৃত্রিম	-12070
▁জামিনের	-12071
▁তেজস্বী	-12072
▁তৈলাক্ত	-12073
▁দেশটিতে	-12074
▁নিরাপদে	-12075
▁পুরোটাই	-12076
▁প্রজন্ম	-12077
▁ফলোয়ার	-12078
▁বিবাদের	-12079
▁মহাসচিব	-12080
▁মাওবাদী	-12081
▁যুক্তরা	-12082
▁সোমবারই	-12083
▁Reserved	-12084
▁অর্থবর্ষ	-12085
▁কেনাকাটা	-12086
▁থাইরয়েড	-12087
▁পরিপূর্ণ	-12088
▁প্রয়াণে	-12089
▁সন্ধ্যার	-12090
রাষ্ট্রপতি	-12091
▁Horoscope	-12092
▁Mahanagar	-12093
▁উদ্বেগজনক	-12094
▁তাড়াহুড়	-12095
▁তুলনামূলক	-12096
▁পূর্ণাঙ্গ	-12097
▁ফাউন্ডেশন	-12098
▁সত্যজিত্‍	-12099
▁সভানেত্রী	-12100
▁স্পিকারের	-12101
▁Publishers	-12102
▁অধিনায়কের	-12103
▁কয়েকদিনের	-12104
▁উচ্চমাধ্যমিক	-12105
▁বিসিসিআইয়ের	-12106
▁মুর্শিদাবাদে	-12107
▁ইন্ডিয়ান্সের	-12108
ভস	-12109
শট	-12110
০৫	-12111
anc	-12112
ber	-12113
এতে	-12114
এবং	-12115
গুন	-12116
গোপ	-12117
গ্ল	-12118
টেজ	-12119
বংশ	-12120
াইব	-12121
িজি	-12122
ingh	-12123
sung	-12124
এমের	-12125
ধর্ম	-12126
প্যা	-12127
হানি	-12128
▁অবত	-12129
▁আইড	-12130
▁আড়	-12131
▁কৌত	-12132
▁চিল	-12133
▁চুম	-12134
▁জৈন	-12135
▁বিট	-12136
▁মাফ	-12137
▁মিন	-12138
abpan	-12139
গ্রাফ	-12140
ফোর্ড	-12141
বেলার	-12142
োনায়	-12143
▁Note	-12144
▁Poll	-12145
▁উদার	-12146
▁কবীর	-12147
▁ঘরেই	-12148
▁ঘাটে	-12149
▁চললে	-12150
▁চাইল	-12151
▁দলটি	-12152
▁দেশি	-12153
▁ফেরা	-12154
▁বাঁশ	-12155
▁শামি	-12156
▁সুজন	-12157
▁স্কি	-12158
▁স্টক	-12159
▁হিরো	-12160
গরিষ্ঠ	-12161
বার্তা	-12162
রাজ্যে	-12163
ামুক্ত	-12164
িনায়ক	-12165
▁অপ্রী	-12166
▁এইরকম	-12167
▁কলম্ব	-12168
▁কাটছে	-12169
▁তুলছে	-12170
▁দিনভর	-12171
▁দূরের	-12172
▁পর্দা	-12173
▁বিদ্য	-12174
▁বুড়ো	-12175
▁ভাইপো	-12176
▁রেফার	-12177
▁সুবিধ	-12178
▁হাতেন	-12179
▁একান্ত	-12180
▁ঐন্দ্র	-12181
▁জয়লাভ	-12182
▁জেলাতে	-12183
▁টাইগার	-12184
▁তলিয়ে	-12185
▁পড়তেই	-12186
▁পড়বেন	-12187
▁পরিশোধ	-12188
▁বোধহয়	-12189
▁ব্যাথা	-12190
▁যুবরাজ	-12191
▁শেষকৃত	-12192
▁সমাজসে	-12193
▁সর্ষের	-12194
য়োজনীয়	-12195
▁ঐশ্বর্য	-12196
▁কাটোয়া	-12197
▁ক্যান্ট	-12198
▁খাদ্যাভ	-12199
▁জাতকদের	-12200
▁দর্শকের	-12201
▁দাঁড়ান	-12202
▁দেবাশিস	-12203
▁দ্রৌপদী	-12204
▁পিক্সেল	-12205
▁পেট্রোপ	-12206
▁পোর্টাল	-12207
▁মহকুমার	-12208
▁শুভাশুভ	-12209
▁সদস্যকে	-12210
▁সহকর্মী	-12211
▁অনির্বাণ	-12212
▁ছাত্রদের	-12213
▁বৃদ্ধিতে	-12214
▁অনুসন্ধান	-12215
▁অভিজ্ঞতার	-12216
▁অর্থনীতির	-12217
▁আয়ুষ্মান	-12218
▁কথাবার্তা	-12219
▁জন্মগ্রহণ	-12220
▁নিম্নমুখী	-12221
▁বামফ্রন্ট	-12222
▁বিস্ফোরণে	-12223
▁ভ্লাদিমির	-12224
▁ম্যাজিস্ট	-12225
▁ঝাড়খণ্ডের	-12226
▁সাংবিধানিক	-12227
▁এমতাবস্থায়	-12228
▁বিশ্বভারতীর	-12229
▁সেমিফাইনালে	-12230
▁প্রতিনিধিদের	-12231
▁ভট্টাচার্যের	-12232
▁ইঞ্জিনিয়ারিং	-12233
▁খাদ্যতালিকায়	-12234
73	-12235
ef	-12236
ei	-12237
ts	-12238
ডম	-12239
যো	-12240
সই	-12241
সৌ	-12242
৪৩	-12243
adh	-12244
eep	-12245
ens	-12246
und	-12247
ইডি	-12248
খাট	-12249
গাল	-12250
টেল	-12251
দিঘ	-12252
ধাম	-12253
মনে	-12254
রীর	-12255
সোম	-12256
▁4.	-12257
▁Fl	-12258
▁Lo	-12259
▁sp	-12260
▁কক	-12261
▁পজ	-12262
▁৮৩	-12263
ital	-12264
এমকে	-12265
গাঁও	-12266
ঘটনা	-12267
ডায়	-12268
দপুর	-12269
পারে	-12270
বাসে	-12271
লক্ষ	-12272
লিটি	-12273
সন্ত	-12274
াবতী	-12275
িপাল	-12276
ুক্ম	-12277
্সেস	-12278
▁Pol	-12279
▁Sub	-12280
▁নাজ	-12281
▁পুঁ	-12282
▁পোক	-12283
▁মিত	-12284
▁রতন	-12285
▁লোগ	-12286
▁শরদ	-12287
▁শাশ	-12288
ocial	-12289
বিদ্ধ	-12290
মার্ক	-12291
ম্বলড	-12292
রক্ষা	-12293
িক্ষা	-12294
িয়েট	-12295
‍্যান	-12296
▁Oppo	-12297
▁from	-12298
▁অম্ব	-12299
▁আনলক	-12300
▁উক্ত	-12301
▁করাও	-12302
▁করিম	-12303
▁গাঁট	-12304
▁গেলো	-12305
▁চন্দ	-12306
▁জনসন	-12307
▁নড়ে	-12308
▁পথেই	-12309
▁পারল	-12310
▁পিঠে	-12311
▁রচনা	-12312
াক্ষিক	-12313
▁Price	-12314
▁অর্ধশ	-12315
▁আয়োজ	-12316
▁আসছিল	-12317
▁ঈশ্বর	-12318
▁উড়ান	-12319
▁এটিএম	-12320
▁করিনি	-12321
▁ক্যাচ	-12322
▁গ্যাং	-12323
▁চাকুর	-12324
▁জিঙ্ক	-12325
▁জিয়া	-12326
▁টেক্স	-12327
▁তামাং	-12328
▁ধোয়া	-12329
▁পুণ্য	-12330
▁বঙ্গে	-12331
▁বহির্	-12332
▁রাখছে	-12333
▁রেডিও	-12334
▁লিপ্ত	-12335
▁সফলতা	-12336
▁সিভিল	-12337
▁সেটআপ	-12338
▁স্নেহ	-12339
াবৃত্তি	-12340
িপাড়ার	-12341
▁আটকানো	-12342
▁ইন্সটা	-12343
▁কথোপকথ	-12344
▁ক্যারি	-12345
▁তাঁরাই	-12346
▁তারপরও	-12347
▁বুদ্ধি	-12348
▁রক্ষার	-12349
▁রূপচর্	-12350
▁লন্ডনে	-12351
▁শাসকের	-12352
▁শ্রেণি	-12353
▁সেসময়	-12354
কাউন্টার	-12355
▁অঙ্কিতা	-12356
▁অতিমারী	-12357
▁উইম্বলড	-12358
▁কিশোরীর	-12359
▁জায়গার	-12360
▁দক্ষিণী	-12361
▁নিয়মের	-12362
▁পরিচিতি	-12363
▁পুতিনের	-12364
▁প্রতিফল	-12365
▁প্রশ্নে	-12366
▁বক্তৃতা	-12367
▁বলছিলেন	-12368
▁বাচ্চার	-12369
▁মার্কেট	-12370
▁মুকুলের	-12371
▁শৃঙ্খলা	-12372
▁সন্দেহে	-12373
▁হাওয়ার	-12374
▁অধিকর্তা	-12375
▁উচ্চতায়	-12376
▁জায়ান্ট	-12377
▁ডেপুটেশন	-12378
▁তদন্তভার	-12379
▁দারুচিনি	-12380
▁দ্রাবিড়	-12381
▁নিরপেক্ষ	-12382
▁প্রথমার্	-12383
▁ফাইনালের	-12384
▁বহিষ্কার	-12385
▁রামকৃষ্ণ	-12386
▁লিপস্টিক	-12387
▁শ্রমিকের	-12388
▁সরবরাহের	-12389
▁সামগ্রিক	-12390
▁হাতেনাতে	-12391
▁হৃদরোগের	-12392
▁নাগরিকত্ব	-12393
▁নির্দেশের	-12394
▁পরিচালনার	-12395
▁প্রোডাক্ট	-12396
▁বেড়াচ্ছে	-12397
▁ব্যতিক্রম	-12398
▁রেজিস্ট্র	-12399
▁রেস্তোরাঁ	-12400
▁সংস্কারের	-12401
▁হিন্দুত্ব	-12402
▁আত্মনির্ভর	-12403
▁আত্মসমর্পণ	-12404
▁ঘটনাস্থলেই	-12405
▁দেখিয়েছেন	-12406
▁বিপর্যয়ের	-12407
▁মধ্যপ্রদেশ	-12408
▁মাধ্যমিকের	-12409
▁সেক্রেটারি	-12410
▁স্পেশালিটি	-12411
▁চলচ্চিত্রের	-12412
▁দ্বিতীয়বার	-12413
▁প্রচেষ্টায়	-12414
▁বাড়বাড়ন্ত	-12415
▁ভলান্টিয়ার	-12416
▁শান্তিনিকেতন	-12417
▁সংখ্যাগরিষ্ঠ	-12418
▁স্বেচ্ছাসেবী	-12419
▁ভ্যারিয়েন্টের	-12420
IC	-12421
IR	-12422
RR	-12423
৪৪	-12424
▁&	-12425
ons	-12426
tra	-12427
yan	-12428
কিক	-12429
চলা	-12430
ডিং	-12431
মুজ	-12432
যুব	-12433
৪টি	-12434
▁উন	-12435
oday	-12436
বন্ত	-12437
মহলে	-12438
মার্	-12439
সম্ম	-12440
ামিষ	-12441
▁SSC	-12442
▁খের	-12443
▁গলে	-12444
▁দোর	-12445
▁ধনখ	-12446
▁ফোক	-12447
▁সরল	-12448
▁সাক	-12449
▁সুপ	-12450
adesh	-12451
ক্যের	-12452
চ্ছুক	-12453
ধান্য	-12454
নীতিক	-12455
য়ারা	-12456
▁আটটা	-12457
▁আরটি	-12458
▁ইব্র	-12459
▁ইমেল	-12460
▁কণ্ঠ	-12461
▁করবো	-12462
▁তরজা	-12463
▁দশকে	-12464
▁নর্থ	-12465
▁পালং	-12466
▁বর্গ	-12467
▁মেধা	-12468
▁মোকা	-12469
▁রশ্ম	-12470
▁রুটে	-12471
▁সতেজ	-12472
▁সিজন	-12473
▁স্পন	-12474
ritant	-12475
প্রশাস	-12476
ব্রহ্ম	-12477
মেয়ের	-12478
সপ্তাহ	-12479
ায়ত্ত	-12480
ার্থীর	-12481
েন্টের	-12482
▁আগুনে	-12483
▁আবারো	-12484
▁কান্ন	-12485
▁গড়বে	-12486
▁ঝাঁটা	-12487
▁টলিউড	-12488
▁পয়লা	-12489
▁বললেও	-12490
▁বাঙাল	-12491
▁যাননি	-12492
▁যুবতী	-12493
▁রেকর্	-12494
▁লজ্জা	-12495
▁সময়ও	-12496
▁সরগরম	-12497
▁স্কিন	-12498
▁স্টোক	-12499
ational	-12500
▁Credit	-12501
▁আচরণের	-12502
▁উভয়ের	-12503
▁ঘুমাতে	-12504
▁টিউমার	-12505
▁ডিভোর্	-12506
▁নিবন্ধ	-12507
▁পড়ায়	-12508
▁পাথরের	-12509
▁পুকুরে	-12510
▁বদলাতে	-12511
▁বাবাকে	-12512
▁ভয়ংকর	-12513
▁ভুলবেন	-12514
▁মজাদার	-12515
▁মাঝামা	-12516
▁মূল্যে	-12517
▁রাইফেল	-12518
▁রাখতেই	-12519
▁রাহানে	-12520
▁লাইব্র	-12521
▁লোকদের	-12522
▁সাঁতার	-12523
▁অগ্রগতি	-12524
▁অনুরাগী	-12525
▁ইসলামিক	-12526
▁কর্ণাটক	-12527
▁কার্বোহ	-12528
▁কোনওদিন	-12529
▁ক্যারেট	-12530
▁গঙ্গায়	-12531
▁চিকিত্স	-12532
▁টাওয়ার	-12533
▁টেবিলের	-12534
▁দিনহাটা	-12535
▁প্যান্ট	-12536
▁বন্ধুরা	-12537
▁মামলাটি	-12538
▁মালিকের	-12539
▁লিভারের	-12540
▁লোকজনের	-12541
▁শিক্ষিত	-12542
▁Adhikari	-12543
▁অঙ্গীকার	-12544
▁আশঙ্কায়	-12545
▁কর্মচারী	-12546
▁গান্ধীকে	-12547
▁গুজরাতের	-12548
▁দেওয়ালে	-12549
▁প্রতিকূল	-12550
▁প্রতিশোধ	-12551
▁মুহুর্তে	-12552
▁খুঁটিনাটি	-12553
▁গুলিবিদ্ধ	-12554
▁ডিসকাউন্ট	-12555
▁পড়াশোনার	-12556
▁প্রোটিনের	-12557
▁বর্ষাকালে	-12558
▁বাউন্ডারি	-12559
▁বিজয়বর্গ	-12560
▁বিভ্রান্ত	-12561
▁ভাবমূর্তি	-12562
▁সেকেন্ডের	-12563
▁কোচবিহারের	-12564
▁ক্যানসারের	-12565
▁ঘূর্ণাবর্ত	-12566
▁নিষ্ক্রিয়	-12567
▁প্রিয়ঙ্কা	-12568
▁ব্যবসায়িক	-12569
▁Newsbritant	-12570
▁অলিম্পিক্সে	-12571
▁খাদ্যাভ্যাস	-12572
▁নিয়ন্ত্রিত	-12573
▁ইন্ডাস্ট্রির	-12574
▁কর্মকর্তাদের	-12575
▁বিমানবন্দরের	-12576
▁সন্ত্রাসবাদী	-12577
▁আনুষ্ঠানিকভাবে	-12578
12	-12579
ET	-12580
eg	-12581
থন	-12582
পী	-12583
ara	-12584
ঁচি	-12585
▁তপ	-12586
▁নল	-12587
▁পড	-12588
উন্ট	-12589
দুর্	-12590
ফায়	-12591
র্কি	-12592
শেষে	-12593
িজীব	-12594
ুটের	-12595
ুলার	-12596
ৃশ্য	-12597
▁কিম	-12598
▁কোণ	-12599
▁ঘটা	-12600
▁ফিজ	-12601
▁বোট	-12602
▁১২৫	-12603
উত্তর	-12604
দেবীর	-12605
বাগান	-12606
াল্টি	-12607
▁অসাম	-12608
▁আটটি	-12609
▁আনবে	-12610
▁আরএস	-12611
▁ইজরা	-12612
▁ইয়া	-12613
▁ইলিশ	-12614
▁উপশম	-12615
▁এসইউ	-12616
▁করুণ	-12617
▁কেএল	-12618
▁গহনা	-12619
▁টিকে	-12620
▁থাকব	-12621
▁প্রী	-12622
▁ভেদে	-12623
▁সৈয়	-12624
▁স্রে	-12625
অনলাইন	-12626
ারেটের	-12627
▁আলাপন	-12628
▁কাঠের	-12629
▁কানেক	-12630
▁কিষাণ	-12631
▁দাবির	-12632
▁নেতাজ	-12633
▁পিস্ত	-12634
▁ফাঁকে	-12635
▁বাম্প	-12636
▁ভাইকে	-12637
▁মিহির	-12638
▁রাজার	-12639
▁লিঙ্গ	-12640
▁হ্যাট	-12641
দুয়ারে	-12642
্যালাসে	-12643
▁উত্থান	-12644
▁উপকারি	-12645
▁ঋতাভরী	-12646
▁কামড়ে	-12647
▁কোনরকম	-12648
▁ক্রেতা	-12649
▁গভর্নর	-12650
▁গর্ভাব	-12651
▁গুগলের	-12652
▁টুইটের	-12653
▁প্যারা	-12654
▁বিচারে	-12655
▁হাঁটার	-12656
▁হাইড্র	-12657
▁হারায়	-12658
▁অগ্নিপথ	-12659
▁আশ্বস্ত	-12660
▁গ্লোবাল	-12661
▁জিতেছিল	-12662
▁ঝুলিয়ে	-12663
▁তারকারা	-12664
▁তুলেছিল	-12665
▁দলত্যাগ	-12666
▁নম্বরের	-12667
▁পেরেছেন	-12668
▁প্রামাণ	-12669
▁ফুটবলের	-12670
▁মাদ্রাজ	-12671
▁মূল্যের	-12672
▁রাউন্ডে	-12673
▁শতাব্দী	-12674
▁শিশুটির	-12675
▁সময়মতো	-12676
▁সশস্ত্র	-12677
▁কাউন্টার	-12678
▁ক্যাম্পে	-12679
▁জার্মানি	-12680
▁নায়িকার	-12681
▁পুনরুদ্ধ	-12682
▁রাজধানীর	-12683
▁স্মারকলি	-12684
নয়াদিল্লি	-12685
▁ইনস্টিটিউ	-12686
▁কেলেঙ্কার	-12687
▁প্রাধান্য	-12688
▁বিষয়টিকে	-12689
▁ব্যর্থতার	-12690
▁রাষ্ট্রসং	-12691
▁হিন্দুদের	-12692
▁কার্বোহাইড	-12693
▁পাঠিয়েছেন	-12694
▁অবসরপ্রাপ্ত	-12695
▁প্রতিনিধিরা	-12696
▁সেপ্টেম্বরে	-12697
▁স্বাস্থ্যসাথী	-12698
▁গোষ্ঠীদ্বন্দ্ব	-12699
Al	-12700
KR	-12701
xy	-12702
আল	-12703
দো	-12704
পট	-12705
যত	-12706
৬৭	-12707
▁e	-12708
গর্	-12709
জিং	-12710
পাঁ	-12711
বিউ	-12712
বিত	-12713
বেস	-12714
সমা	-12715
াপা	-12716
াপী	-12717
াশা	-12718
▁17	-12719
▁ছো	-12720
▁নথ	-12721
isit	-12722
itra	-12723
krab	-12724
অনেক	-12725
অভিন	-12726
আইসি	-12727
এরপর	-12728
কেলে	-12729
টাকা	-12730
ধারা	-12731
ন্দা	-12732
বিএস	-12733
বিধে	-12734
বেসে	-12735
য়াক	-12736
র্বি	-12737
শায়	-12738
ীয়া	-12739
ুবের	-12740
ুস্র	-12741
▁Mur	-12742
▁উর্	-12743
▁ওটস	-12744
▁কিস	-12745
▁গ্ৰ	-12746
▁ঘুষ	-12747
▁চেল	-12748
▁জিহ	-12749
▁থিম	-12750
▁পোজ	-12751
▁বোর	-12752
জ্জিত	-12753
টার্স	-12754
ফিল্ড	-12755
বিভাগ	-12756
লেটের	-12757
শঙ্কর	-12758
▁High	-12759
▁this	-12760
▁আধিপ	-12761
▁আনছে	-12762
▁উদ্ভ	-12763
▁উস্ক	-12764
▁এলাচ	-12765
▁গতির	-12766
▁টানে	-12767
▁নবাব	-12768
▁নামী	-12769
▁বন্য	-12770
▁বরাত	-12771
▁বহুত	-12772
▁বীমা	-12773
▁মহাশ	-12774
▁যশের	-12775
▁রোশন	-12776
▁স্বত	-12777
▁হজমে	-12778
▁হাঁপ	-12779
▁হুইল	-12780
ন্ত্রে	-12781
পত্রের	-12782
পেক্টর	-12783
মাত্রা	-12784
াত্ম্য	-12785
েন্সির	-12786
▁ওখানে	-12787
▁কোচিং	-12788
▁ক্লিপ	-12789
▁খরচের	-12790
▁ঘটেনি	-12791
▁চণ্ডী	-12792
▁দূষিত	-12793
▁দ্বিপ	-12794
▁ধরেছে	-12795
▁ধুন্ধ	-12796
▁নাহলে	-12797
▁নেদার	-12798
▁ফ্লোর	-12799
▁ভাষণে	-12800
▁মাইতি	-12801
▁মুড়ে	-12802
▁যাবার	-12803
▁লেখার	-12804
▁শার্ট	-12805
▁শুনলে	-12806
▁সবকটি	-12807
▁সেইসব	-12808
▁সেনের	-12809
▁হাসতে	-12810
িয়ামের	-12811
ীয়ার্ধ	-12812
্যাপারে	-12813
▁আশ্রিত	-12814
▁উপকূলে	-12815
▁ঋতুস্র	-12816
▁একাদশী	-12817
▁কোয়াল	-12818
▁খেলেছে	-12819
▁গঙ্গাস	-12820
▁গাওয়া	-12821
▁চাঙ্গা	-12822
▁টেক্কা	-12823
▁পাচ্ছি	-12824
▁বেহালা	-12825
▁মায়ান	-12826
▁লিঙ্কে	-12827
আক্রান্ত	-12828
প্রণোদিত	-12829
▁উত্তরের	-12830
▁গন্তব্য	-12831
▁চেয়ারে	-12832
▁তথ্যপ্র	-12833
▁নিরামিষ	-12834
▁পার্কের	-12835
▁প্র্যাক	-12836
▁বার্সেল	-12837
▁বিকাশের	-12838
▁ব্রোঞ্জ	-12839
▁মন্ডলের	-12840
▁মানিয়ে	-12841
▁ম্যাক্র	-12842
▁রাজভবনে	-12843
▁শান্তির	-12844
▁সম্প্রী	-12845
▁হৃদরোগে	-12846
▁অনিশ্চিত	-12847
▁অস্থিরতা	-12848
▁ইউজারদের	-12849
▁ঋদ্ধিমান	-12850
▁কাউন্সেল	-12851
▁জনসাধারণ	-12852
▁জ্যোতিষশ	-12853
▁টানাপোড়	-12854
▁থ্যালাসে	-12855
▁পরিস্কার	-12856
▁প্যালেসে	-12857
▁প্লেয়ার	-12858
▁বাইডেনের	-12859
▁মর্গ্যান	-12860
▁মাঝামাঝি	-12861
▁মেয়েটির	-12862
▁অপ্রীতিকর	-12863
▁কোচবিহারে	-12864
▁দেশবাসীকে	-12865
▁ধুন্ধুমার	-12866
▁প্ল্যানের	-12867
▁বিক্ষুব্ধ	-12868
▁বীরেন্দ্র	-12869
▁বেশিরভাগই	-12870
▁মুহূর্তেই	-12871
▁সিকিউরিটি	-12872
▁অভিযুক্তরা	-12873
▁এনকাউন্টার	-12874
▁দুর্ঘটনাটি	-12875
▁পদপ্রার্থী	-12876
▁পাকিস্তানি	-12877
▁প্রত্যেকটা	-12878
▁প্রতিষ্ঠানের	-12879
▁ব্যারাকপুরের	-12880
▁শ্বশুরবাড়ির	-12881
▁হরিশ্চন্দ্রপুর	-12882
?"	-12883
WS	-12884
ঁক	-12885
অধ	-12886
ali	-12887
ect	-12888
ips	-12889
ran	-12890
ube	-12891
কুন	-12892
কোষ	-12893
থান	-12894
ভোজ	-12895
মাট	-12896
মিং	-12897
রবি	-12898
ুখী	-12899
োকল	-12900
▁21	-12901
▁30	-12902
▁উর	-12903
orty	-12904
এবার	-12905
এমসি	-12906
কলেজ	-12907
ক্ষন	-12908
খাটো	-12909
গোনা	-12910
পল্ল	-12911
বলের	-12912
য়িং	-12913
র্ণা	-12914
শানে	-12915
হলুদ	-12916
াজ্য	-12917
ার্ঘ	-12918
ার্ম	-12919
াহিক	-12920
▁অচল	-12921
▁ইংল	-12922
▁খতম	-12923
▁ঝরে	-12924
▁ধুম	-12925
▁নিচ	-12926
▁পিন	-12927
▁প্ৰ	-12928
▁ভাজ	-12929
▁মুগ	-12930
▁মেধ	-12931
▁রাব	-12932
▁শোধ	-12933
নায়ক	-12934
ফ্রেশ	-12935
ার্জী	-12936
ুল্লা	-12937
োত্তর	-12938
▁কচ্ছ	-12939
▁কাড়	-12940
▁কালি	-12941
▁কুড়	-12942
▁ছাদে	-12943
▁জাঁক	-12944
▁জোহর	-12945
▁টালি	-12946
▁পঙ্ক	-12947
▁পশুপ	-12948
▁বাপি	-12949
▁বেজে	-12950
▁মনোম	-12951
▁রাউত	-12952
▁রুপো	-12953
▁লাগু	-12954
▁শিখে	-12955
▁সম্র	-12956
▁সুখে	-12957
ations	-12958
uvendu	-12959
জাতীয়	-12960
বাবুকে	-12961
▁Photo	-12962
▁Watch	-12963
▁today	-12964
▁এসবের	-12965
▁কড়াই	-12966
▁কড়াক	-12967
▁কবিতা	-12968
▁কামরা	-12969
▁গতবছর	-12970
▁চাপান	-12971
▁চিরাগ	-12972
▁জগত্‍	-12973
▁দাপটে	-12974
▁দুজনে	-12975
▁ধনকড়	-12976
▁নিচের	-12977
▁প্রোম	-12978
▁বাঁধে	-12979
▁বোনকে	-12980
▁মিলের	-12981
▁লেন্স	-12982
▁সাইটে	-12983
▁সিরাম	-12984
্যান্ডে	-12985
▁আইএসএফ	-12986
▁আড়ালে	-12987
▁উচ্চপদ	-12988
▁উদ্দীপ	-12989
▁কীর্তি	-12990
▁খাচ্ছে	-12991
▁গিয়েও	-12992
▁ছত্তিশ	-12993
▁ছিঁড়ে	-12994
▁ঝুলিতে	-12995
▁টক্সিন	-12996
▁দুয়েক	-12997
▁দেরিতে	-12998
▁ধোয়ার	-12999
▁পার্কে	-13000
▁শ্মশান	-13001
▁সরকারে	-13002
▁সিংহের	-13003
▁অধ্যায়	-13004
▁অভিভাবক	-13005
▁অভ্যস্ত	-13006
▁অরুণাচল	-13007
▁এনসিবির	-13008
▁খ্রিস্ট	-13009
▁টেস্টিং	-13010
▁ডুবিয়ে	-13011
▁দলবদলের	-13012
▁দোষীদের	-13013
▁পেশাদার	-13014
▁বান্ধবী	-13015
▁বিস্তৃত	-13016
▁ব্লেন্ড	-13017
▁মাস্কের	-13018
▁মেয়েটি	-13019
▁যুবকদের	-13020
▁রিটার্ন	-13021
▁শুনেছেন	-13022
▁শূন্যপদ	-13023
▁হলফনামা	-13024
▁অতিমারীর	-13025
▁অবিশ্বাস	-13026
▁আইসক্রিম	-13027
▁ইউনাইটেড	-13028
▁উন্মুক্ত	-13029
▁কেকেআরের	-13030
▁জওয়ানের	-13031
▁ডিজাইনার	-13032
▁দাঁড়াবে	-13033
▁ব্যাঙ্কে	-13034
▁সেন্টারে	-13035
▁অভিভাবকরা	-13036
▁অ্যাক্টিভ	-13037
▁নভেম্বরের	-13038
▁পরিদর্শনে	-13039
▁প্রান্তের	-13040
▁বিধায়ককে	-13041
▁উত্তরাখণ্ড	-13042
▁ব্যাপকভাবে	-13043
▁ব্যায়ামের	-13044
▁মানসিকভাবে	-13045
▁স্মারকলিপি	-13046
▁গঙ্গারামপুর	-13047
▁পুনরাবৃত্তি	-13048
▁মোহনবাগানের	-13049
▁শ্রীলঙ্কায়	-13050
▁স্মার্টফোনে	-13051
▁স্মৃতিশক্তি	-13052
▁উপনির্বাচনের	-13053
▁প্রিয়াঙ্কার	-13054
▁ব্যবহারকারীর	-13055
▁ম্যাক্সওয়েল	-13056
▁প্রাপ্তবয়স্ক	-13057
▁হোয়াটসঅ্যাপে	-13058
▁অ্যাম্বুল্যান্স	-13059
30	-13060
৭৯	-13061
৮৮	-13062
idd	-13063
ove	-13064
urg	-13065
ফির	-13066
ফেস	-13067
মিট	-13068
মিপ	-13069
সাং	-13070
ারো	-13071
্কি	-13072
্কে	-13073
▁23	-13074
▁50	-13075
▁Cl	-13076
▁Em	-13077
▁ইক	-13078
▁কস	-13079
ইয়ে	-13080
ক্ষু	-13081
গিরি	-13082
চলের	-13083
জলদি	-13084
ভক্ত	-13085
ভারে	-13086
যদিও	-13087
য়াজ	-13088
সিকে	-13089
িয়ো	-13090
▁Com	-13091
▁ODD	-13092
▁দেও	-13093
▁ফৌজ	-13094
▁মতন	-13095
▁মশা	-13096
▁রজন	-13097
▁শেট	-13098
▁সফট	-13099
▁সোভ	-13100
আগামী	-13101
কয়েক	-13102
টারির	-13103
স্কৃত	-13104
াজানি	-13105
াবিটি	-13106
োবস্ত	-13107
▁অজিত	-13108
▁অবগত	-13109
▁অর্ণ	-13110
▁আরোহ	-13111
▁গেইল	-13112
▁চড়া	-13113
▁ছাগল	-13114
▁টায়	-13115
▁টিকি	-13116
▁ডিআর	-13117
▁দণ্ড	-13118
▁নাসা	-13119
▁পিষে	-13120
▁ফাটা	-13121
▁বাণী	-13122
▁বারা	-13123
▁বেগে	-13124
▁ল্যা	-13125
▁সাজে	-13126
hannel	-13127
বিয়ান	-13128
স্পরিক	-13129
হাটিতে	-13130
্রেটেড	-13131
▁একত্র	-13132
▁একহাত	-13133
▁ওয়াস	-13134
▁কিস্ত	-13135
▁কুচকা	-13136
▁কুসুম	-13137
▁গড়তে	-13138
▁গাইতে	-13139
▁গ্রন্	-13140
▁ছোড়া	-13141
▁জলপ্র	-13142
▁নিলেও	-13143
▁প্লাব	-13144
▁ফিরবে	-13145
▁ফ্লাই	-13146
▁বছরেই	-13147
▁বিশাখ	-13148
▁বৈদ্য	-13149
▁মর্গে	-13150
▁মারতে	-13151
▁যেদিন	-13152
▁শুক্ল	-13153
▁শুনেই	-13154
▁হাসির	-13155
ওয়াড়ি	-13156
চন্দ্রন	-13157
নারায়ণ	-13158
স্ক্রিন	-13159
োপাধ্য়	-13160
▁একাদশে	-13161
▁চটজলদি	-13162
▁চল্লিশ	-13163
▁চাঁদের	-13164
▁জমিয়ে	-13165
▁জেরায়	-13166
▁ট্রিপল	-13167
▁তাহলেই	-13168
▁তুরস্ক	-13169
▁দেখলেন	-13170
▁নিবেদন	-13171
▁পণ্যের	-13172
▁পেরেছি	-13173
▁প্রসেস	-13174
▁প্রীতি	-13175
▁বুমরাহ	-13176
▁বোলপুর	-13177
▁মনগড়া	-13178
▁শতাংশে	-13179
▁শত্রুর	-13180
▁সাউন্ড	-13181
▁স্পনসর	-13182
kraborty	-13183
অন্যদিকে	-13184
াপ্তাহিক	-13185
▁Samsung	-13186
▁Weather	-13187
▁অভিনয়ে	-13188
▁অভিযোগও	-13189
▁আমজনতার	-13190
▁ইনিংসের	-13191
▁চলাফেরা	-13192
▁তারপরেও	-13193
▁দুর্গার	-13194
▁পৌঁছনোর	-13195
▁প্রচন্ড	-13196
▁বিনিময়	-13197
▁মাঙ্কিপ	-13198
▁মারধরের	-13199
▁লক্ষেরও	-13200
▁শুভেচ্ছ	-13201
▁সংগ্রাম	-13202
▁সিগারেট	-13203
▁সিরিয়া	-13204
▁সোচ্চার	-13205
▁অপারেটিং	-13206
▁অমরিন্দর	-13207
▁আন্দামান	-13208
▁উত্‍সর্গ	-13209
▁তত্ত্বাব	-13210
▁তুরস্কের	-13211
▁দুর্গাপূ	-13212
▁নভেম্বরে	-13213
▁নানাভাবে	-13214
▁বায়োটেক	-13215
▁বাহিনীকে	-13216
▁ব্যর্থতা	-13217
▁রূপান্তর	-13218
▁রোনাল্ডো	-13219
▁শিক্ষানী	-13220
▁অক্টোবরের	-13221
▁অফিসারদের	-13222
▁অ্যাটাকের	-13223
▁আমন্ত্রিত	-13224
▁উচ্চপদস্থ	-13225
▁কর্ণাটকের	-13226
▁সংস্কৃতির	-13227
▁অগ্রাধিকার	-13228
▁পর্যবেক্ষক	-13229
▁বিনিয়োগের	-13230
▁রাজ্যসভায়	-13231
▁সেলিব্রিটি	-13232
▁নিরাপত্তায়	-13233
▁মুম্বাইয়ের	-13234
▁দ্বিতীয়ার্ধ	-13235
▁ইন্ডাস্ট্রিতে	-13236
▁কোষ্ঠকাঠিন্যের	-13237
▁পারফরম্যান্সের	-13238
AP	-13239
ঘন	-13240
ফু	-13241
ীম	-13242
০৬	-13243
ell	-13244
oss	-13245
ইয়	-13246
এএস	-13247
কথা	-13248
ভবন	-13249
ভুল	-13250
যান	-13251
র্প	-13252
লজি	-13253
স্ম	-13254
াঁস	-13255
াতর	-13256
াবো	-13257
ুনে	-13258
ুলা	-13259
োলো	-13260
্ধব	-13261
▁Un	-13262
▁sh	-13263
▁গম	-13264
irat	-13265
গতির	-13266
ঘাতে	-13267
ঙ্গন	-13268
ঙ্গী	-13269
বাবা	-13270
বেদী	-13271
মিতা	-13272
মেগা	-13273
ালিন	-13274
্যকর	-13275
্লুত	-13276
▁এমব	-13277
▁নীচ	-13278
▁মোর	-13279
▁৮টি	-13280
icron	-13281
ক্যাল	-13282
জীবনে	-13283
ঞ্জার	-13284
টেডের	-13285
দিল্ল	-13286
বিশেষ	-13287
মুম্ব	-13288
াগারে	-13289
োয়ান	-13290
▁Bank	-13291
▁Shah	-13292
▁আদতে	-13293
▁আধ্য	-13294
▁আম্প	-13295
▁এঁরা	-13296
▁কাঁধ	-13297
▁কৌতূ	-13298
▁গেহল	-13299
▁থ্রি	-13300
▁দলিত	-13301
▁পরুন	-13302
▁পাগল	-13303
▁বইতে	-13304
▁মুখর	-13305
▁রোমা	-13306
▁রোহন	-13307
▁সিসি	-13308
bangla	-13309
অভিনেত	-13310
দক্ষিণ	-13311
সোমবার	-13312
▁visit	-13313
▁ঋদ্ধি	-13314
▁করলাম	-13315
▁গেটের	-13316
▁চিত্ত	-13317
▁জন্মে	-13318
▁জাভেদ	-13319
▁টাকাও	-13320
▁ট্যুর	-13321
▁ডিলার	-13322
▁ডোজের	-13323
▁তরমুজ	-13324
▁ধৃতের	-13325
▁নিষ্ঠ	-13326
▁পঙ্কজ	-13327
▁পরমাণ	-13328
▁প্যাস	-13329
▁ফারুক	-13330
▁ফিরোজ	-13331
▁বসেছে	-13332
▁বারাক	-13333
▁ভালোই	-13334
▁ভাষার	-13335
▁যতদিন	-13336
▁সাবেক	-13337
▁সৈয়দ	-13338
▁স্রেফ	-13339
Kolkata	-13340
য়েন্টে	-13341
স্ট্রাজ	-13342
▁অপসারণ	-13343
▁অর্গান	-13344
▁উন্মাদ	-13345
▁কর্নাট	-13346
▁গান্ধি	-13347
▁জাদেজা	-13348
▁নিমেষে	-13349
▁নেটফ্ল	-13350
▁বাদুড়	-13351
▁বাসস্ট	-13352
▁মাংসের	-13353
▁মাত্রই	-13354
▁লাদাখে	-13355
▁শাখায়	-13356
▁সমীকরণ	-13357
▁সিএসকে	-13358
▁সুবাদে	-13359
▁সেরাটা	-13360
facebook	-13361
িস্তানের	-13362
▁অর্জনের	-13363
▁উদ্যোগী	-13364
▁কর্নাটক	-13365
▁কর্মকার	-13366
▁ক্যাপশন	-13367
▁চর্চায়	-13368
▁চুলকানি	-13369
▁ডিরেক্ট	-13370
▁তনুশ্রী	-13371
▁দিনক্ষণ	-13372
▁নিজেরাই	-13373
▁নেমেছিল	-13374
▁পত্রিকা	-13375
▁পরিবেশে	-13376
▁পর্ষদের	-13377
▁পূর্বের	-13378
▁রিফ্রেশ	-13379
▁সঙ্গীকে	-13380
▁সাবধানে	-13381
▁হারালেন	-13382
▁অনুপ্রাণ	-13383
▁আসানসোলে	-13384
▁একপ্রকার	-13385
▁কারখানার	-13386
▁খোলামেলা	-13387
▁ঘোরাফেরা	-13388
▁পূর্ণিমা	-13389
▁ফ্যাক্টর	-13390
▁বাহিনীতে	-13391
▁মাধ্যমের	-13392
▁সাংসদদের	-13393
▁অর্ধশতরান	-13394
▁আয়ুর্বেদ	-13395
▁এক্সচেঞ্জ	-13396
▁কর্পোরেশন	-13397
▁কেরিয়ারে	-13398
▁গ্যাস্ট্র	-13399
▁জিনিসগুলি	-13400
▁ডায়াবিটি	-13401
▁পরিবর্তিত	-13402
▁পারস্পরিক	-13403
▁ভিত্তিহীন	-13404
▁শ্রীকৃষ্ণ	-13405
▁সাপ্তাহিক	-13406
স্বাস্থ্যকর	-13407
▁অত্যাচারের	-13408
▁অ্যালার্জি	-13409
▁ইংরেজবাজার	-13410
▁ইলেকট্রনিক	-13411
▁ডিসেম্বরের	-13412
▁পরিকল্পনার	-13413
▁মঙ্গলবারের	-13414
▁জনপ্রিয়তার	-13415
▁দৃষ্টিশক্তি	-13416
▁প্রত্যাবর্তন	-13417
▁যুক্তরাষ্ট্রে	-13418
▁আলিপুরদুয়ারের	-13419
▁স্বাস্থ্যকর্মী	-13420
/0	-13421
রক	-13422
০৮	-13423
ari	-13424
ile	-13425
oni	-13426
অপর	-13427
চীর	-13428
জাম	-13429
নীত	-13430
বুধ	-13431
মেল	-13432
শনি	-13433
াগন	-13434
্বর	-13435
▁25	-13436
▁AT	-13437
▁be	-13438
▁উজ	-13439
▁ঝক	-13440
▁ঝল	-13441
▁তফ	-13442
▁নট	-13443
▁মথ	-13444
▁হস	-13445
▁০৫	-13446
----	-13447
ence	-13448
otos	-13449
ইন্ড	-13450
তলার	-13451
দেবী	-13452
রীয়	-13453
হাতি	-13454
ীপ্ত	-13455
োটিন	-13456
▁Fil	-13457
▁Koh	-13458
▁Min	-13459
▁POP	-13460
▁আনফ	-13461
▁একজ	-13462
▁গোস	-13463
▁জাদ	-13464
▁টহল	-13465
▁দাল	-13466
▁নাথ	-13467
▁বনি	-13468
▁মুঠ	-13469
▁মোম	-13470
▁রিচ	-13471
India	-13472
ক্সের	-13473
ঞ্জলি	-13474
বৈশাখ	-13475
র্জনা	-13476
াক্ষী	-13477
াজনের	-13478
ায়েল	-13479
িপত্র	-13480
▁Bhat	-13481
▁অতীত	-13482
▁আঁচে	-13483
▁আমিষ	-13484
▁উমেশ	-13485
▁কাজই	-13486
▁কাটে	-13487
▁কোলা	-13488
▁জয়া	-13489
▁জুড়	-13490
▁ট্রে	-13491
▁ফাইভ	-13492
▁ভালই	-13493
▁সিগন	-13494
▁হাঁক	-13495
▁১৫টি	-13496
চিন্তা	-13497
ারসাইজ	-13498
ুল্লাহ	-13499
▁Viral	-13500
▁অবমান	-13501
▁আখ্যা	-13502
▁আবশ্য	-13503
▁কনভয়	-13504
▁কাতার	-13505
▁কীর্ত	-13506
▁গৃহীত	-13507
▁ঘাটাল	-13508
▁চালুর	-13509
▁চাহাল	-13510
▁জামাল	-13511
▁জ্বলে	-13512
▁ঠোঁটে	-13513
▁ডেরেক	-13514
▁তাঁরই	-13515
▁দৈর্ঘ	-13516
▁ধনতের	-13517
▁ধর্মঘ	-13518
▁নির্ণ	-13519
▁নীতিশ	-13520
▁পেতেই	-13521
▁ফ্রিজ	-13522
▁বরফের	-13523
▁বসলেন	-13524
▁বাটার	-13525
▁বান্দ	-13526
▁বালির	-13527
▁যুগ্ম	-13528
▁সাপ্ল	-13529
▁সেক্ট	-13530
▁স্থূল	-13531
▁হাতেই	-13532
এছাড়াও	-13533
চ্যাম্প	-13534
পরবর্তী	-13535
িত্যক্ত	-13536
▁Result	-13537
▁অ্যাপল	-13538
▁কমলালে	-13539
▁খাইয়ে	-13540
▁গ্রুপে	-13541
▁তাদেরও	-13542
▁পরমাণু	-13543
▁পরস্পর	-13544
▁পুরভোট	-13545
▁ব্রণের	-13546
▁শব্দটি	-13547
▁হেফাজত	-13548
▁হেমন্ত	-13549
▁অনেকাংশ	-13550
▁আরসিবির	-13551
▁ঈশ্বরের	-13552
▁ওয়াংখে	-13553
▁ছড়ানোর	-13554
▁তিনজনকে	-13555
▁দেশগুলি	-13556
▁বর্ষায়	-13557
▁বিদেশের	-13558
▁বিষয়েও	-13559
▁মধুমিতা	-13560
▁মরশুমের	-13561
▁মালদায়	-13562
▁সংসারের	-13563
▁স্নানের	-13564
▁Rashifal	-13565
▁অক্টোবরে	-13566
▁অবস্থানে	-13567
▁অবৈধভাবে	-13568
▁আধ্যাত্ম	-13569
▁চেয়েছিল	-13570
▁জানাজানি	-13571
▁দায়বদ্ধ	-13572
▁নেতাকর্ম	-13573
▁পেনাল্টি	-13574
▁বিদ্রোহী	-13575
▁বোলারদের	-13576
▁ব্রিটেনে	-13577
▁ভাগ্যবান	-13578
▁মালিকদের	-13579
▁শিয়ালদা	-13580
▁সন্দীপ্ত	-13581
▁সায়েন্স	-13582
▁চ্যানেলের	-13583
▁জালিয়াতি	-13584
▁পরিত্যক্ত	-13585
▁বন্দোবস্ত	-13586
▁বিলাসবহুল	-13587
▁বৈদ্যুতিক	-13588
▁সম্প্রসার	-13589
Coronavirus	-13590
▁অনুপ্রাণিত	-13591
▁এক্সারসাইজ	-13592
▁কোয়ার্টার	-13593
▁ঝাড়গ্রামে	-13594
▁ট্রায়ালের	-13595
▁প্রতিরোধের	-13596
▁রিলায়েন্স	-13597
▁শুভেন্দুকে	-13598
▁সংক্রমিতের	-13599
▁ক্রমবর্ধমান	-13600
▁ক্ষতিগ্রস্থ	-13601
▁চক্রবর্তীকে	-13602
▁পার্টনারশিপ	-13603
▁প্রতিবেশীরা	-13604
▁ব্যবস্থাপনা	-13605
▁ব্যাঙ্গালোর	-13606
▁রাষ্ট্রপতির	-13607
▁অন্ধ্রপ্রদেশ	-13608
▁পেট্রোলিয়াম	-13609
80	-13610
Ar	-13611
Ch	-13612
mp	-13613
রথ	-13614
৫৩	-13615
▁Q	-13616
ral	-13617
unt	-13618
জেন	-13619
তাও	-13620
যুগ	-13621
লীর	-13622
সিভ	-13623
হাস	-13624
াঁই	-13625
ানক	-13626
েইড	-13627
োতা	-13628
▁UP	-13629
▁কং	-13630
▁বং	-13631
▁লী	-13632
ahul	-13633
ideo	-13634
ings	-13635
কালো	-13636
চক্র	-13637
জেপি	-13638
ড্ডি	-13639
ধারে	-13640
নিয়	-13641
পোর্	-13642
ফাইন	-13643
র্কে	-13644
সঙ্ঘ	-13645
াত্ত	-13646
াপনে	-13647
িরেই	-13648
োনেশ	-13649
▁One	-13650
▁pic	-13651
▁অজু	-13652
▁ওটি	-13653
▁ঘষে	-13654
▁জার	-13655
▁টলি	-13656
▁টাক	-13657
▁টেট	-13658
▁দৌল	-13659
▁ধাঁ	-13660
▁নাল	-13661
▁নৃত	-13662
▁পঠন	-13663
▁পেস	-13664
▁ভোজ	-13665
▁১২৮	-13666
Covid	-13667
পত্রে	-13668
বানের	-13669
বার্গ	-13670
সঙ্গত	-13671
াপন্ন	-13672
িনিয়	-13673
িপকার	-13674
িমায়	-13675
িয়াজ	-13676
▁Moto	-13677
▁NEWS	-13678
▁অখিল	-13679
▁কেশব	-13680
▁ক্ষণ	-13681
▁গণ্য	-13682
▁তাকা	-13683
▁তোড়	-13684
▁দয়া	-13685
▁দাড়	-13686
▁ধুলো	-13687
▁নখের	-13688
▁পাউর	-13689
▁বরিস	-13690
▁বিমা	-13691
▁ভলেন	-13692
▁ভিজে	-13693
▁ভেজা	-13694
▁মণীশ	-13695
▁মনকে	-13696
▁মনীশ	-13697
▁সমাগ	-13698
▁হলিউ	-13699
ubrata	-13700
ড়ানোর	-13701
যুদ্ধে	-13702
শান্তি	-13703
সংস্থা	-13704
সিয়ার	-13705
িয়াকে	-13706
▁Apple	-13707
▁কামিন	-13708
▁কেঁদে	-13709
▁ক্ষমত	-13710
▁খানেক	-13711
▁খুচরো	-13712
▁খুশকি	-13713
▁ঘোষাল	-13714
▁চম্পট	-13715
▁চাইনি	-13716
▁চিঠির	-13717
▁জন্য়	-13718
▁ট্রাম	-13719
▁ঠাকরে	-13720
▁ডুমুর	-13721
▁তৈমুর	-13722
▁ফিল্ড	-13723
▁ফোর্স	-13724
▁বার্ন	-13725
▁ভুলতে	-13726
▁মণ্ডপ	-13727
▁মার্ট	-13728
▁মিজোর	-13729
▁মিঠাই	-13730
▁যোগীর	-13731
▁রত্না	-13732
▁রুক্ম	-13733
▁স্টিল	-13734
▁স্বতঃ	-13735
▁স্যুপ	-13736
▁স্লোগ	-13737
▁হ্যার	-13738
টিক্যাল	-13739
ব্যাঙ্ক	-13740
▁Kapoor	-13741
▁Photos	-13742
▁কারফিউ	-13743
▁কৃষকের	-13744
▁ক্ষুধা	-13745
▁ছেলেরা	-13746
▁জীবনকে	-13747
▁জোরালো	-13748
▁টানটান	-13749
▁দলগুলি	-13750
▁দাপুটে	-13751
▁দেখাবে	-13752
▁পর্দার	-13753
▁বেরোতে	-13754
▁ভিডিওর	-13755
▁মালব্য	-13756
▁মোদিকে	-13757
▁লিটারে	-13758
▁শুক্লা	-13759
▁সনাক্ত	-13760
▁সহযোগী	-13761
▁হিমন্ত	-13762
িক্সেলের	-13763
▁আনফোল্ড	-13764
▁ইসলামের	-13765
▁উইকেটের	-13766
▁এরমধ্যে	-13767
▁কেড়েছে	-13768
▁গোড়ায়	-13769
▁তালেবান	-13770
▁তেজপাতা	-13771
▁দেখালেন	-13772
▁নার্সিং	-13773
▁নেপালের	-13774
▁প্যাকেট	-13775
▁ফেলেছিল	-13776
▁বিমানটি	-13777
▁বেসরকার	-13778
▁লোকেদের	-13779
▁সাধুদের	-13780
▁হাতিয়ে	-13781
▁অনিশ্চয়	-13782
▁অনেকক্ষণ	-13783
▁অফিসাররা	-13784
▁এপ্রিলের	-13785
▁গাঁটছড়া	-13786
▁গুজরাটের	-13787
▁চারিদিকে	-13788
▁টেকনোলজি	-13789
▁ট্যাবলেট	-13790
▁দেবাঞ্জন	-13791
▁বিক্রেতা	-13792
▁বেড়িয়ে	-13793
▁ভুগছিলেন	-13794
▁মঙ্গেশকর	-13795
▁মহাপাত্র	-13796
▁মুম্বইতে	-13797
▁মেট্রোয়	-13798
▁সংরক্ষিত	-13799
▁সচেতনতার	-13800
▁সাব্যস্ত	-13801
▁সিআরপিএফ	-13802
▁কোনোভাবেই	-13803
▁টেলিভিশনে	-13804
▁পরিচালকের	-13805
▁বিধায়করা	-13806
▁অন্যান্যরা	-13807
▁উইলিয়ামসন	-13808
▁প্রয়োজনের	-13809
▁ব্যানার্জী	-13810
▁ভবানীপুরের	-13811
▁সরকারিভাবে	-13812
▁Chakraborty	-13813
▁কার্যালয়ের	-13814
▁ডেভেলপমেন্ট	-13815
▁দুর্গাপুরের	-13816
▁দ্বিপাক্ষিক	-13817
▁সাবস্ক্রাইব	-13818
▁সিদ্ধান্তকে	-13819
▁পার্শ্ববর্তী	-13820
▁বিজয়বর্গীয়	-13821
▁অনুমানভিত্তিক	-13822
▁ছাত্রছাত্রীরা	-13823
▁ব্যাঙ্গালোরের	-13824
▁রাষ্ট্রায়ত্ত	-13825
▁ইন্টারন্যাশনাল	-13826
▁কার্বোহাইড্রেট	-13827
▁দায়িত্বপ্রাপ্ত	-13828
17	-13829
AM	-13830
Te	-13831
ph	-13832
অফ	-13833
চৌ	-13834
ুফ	-13835
০১	-13836
৫৯	-13837
৬৫	-13838
৮৩	-13839
ero	-13840
sha	-13841
কোট	-13842
জিন	-13843
বিব	-13844
সাহ	-13845
সেক	-13846
াশক	-13847
িংক	-13848
িউল	-13849
োদ্	-13850
২টি	-13851
▁CE	-13852
▁টম	-13853
azar	-13854
desk	-13855
ipur	-13856
ttar	-13857
তীকে	-13858
দিদি	-13859
ন্ডু	-13860
বার্	-13861
স্টর	-13862
াগার	-13863
ৃহীত	-13864
▁com	-13865
▁চুন	-13866
▁টুথ	-13867
▁থার	-13868
▁ধাম	-13869
▁পিপ	-13870
▁ভেষ	-13871
▁রাঙ	-13872
▁হুস	-13873
ক্রমে	-13874
নেতার	-13875
পুকুর	-13876
প্রবণ	-13877
বোর্ড	-13878
ভোকেট	-13879
মঙ্গল	-13880
শ্রীর	-13881
স্তান	-13882
স্মিক	-13883
হানির	-13884
াতারা	-13885
েন্সে	-13886
▁Amaz	-13887
▁Bang	-13888
▁Gala	-13889
▁আংটি	-13890
▁কথিত	-13891
▁কম্ব	-13892
▁গৃহে	-13893
▁চব্ব	-13894
▁জেমস	-13895
▁তুলল	-13896
▁দেবল	-13897
▁ন্যা	-13898
▁পডকা	-13899
▁পরিস	-13900
▁পাইপ	-13901
▁পিএম	-13902
▁মটরশ	-13903
▁মানস	-13904
▁রুমে	-13905
▁সুলত	-13906
▁স্পট	-13907
▁স্যা	-13908
Corona	-13909
accine	-13910
micron	-13911
চিত্রে	-13912
প্রত্য	-13913
মায়ের	-13914
শক্তির	-13915
স্থাপন	-13916
িকরণের	-13917
▁আনলেন	-13918
▁ইরানি	-13919
▁একটিও	-13920
▁গভীরে	-13921
▁গোপনে	-13922
▁গ্রহন	-13923
▁চকলেট	-13924
▁চুম্ব	-13925
▁ডেবিট	-13926
▁নাস্ত	-13927
▁নীচের	-13928
▁পাইনি	-13929
▁পাওনা	-13930
▁পিএসি	-13931
▁প্রিপ	-13932
▁ফিক্স	-13933
▁ফোকাস	-13934
▁বদলির	-13935
▁বুকের	-13936
▁বেলার	-13937
▁বেসাম	-13938
▁ভুলের	-13939
▁ভূতের	-13940
▁ভূমিপ	-13941
▁ভেজাল	-13942
▁ম‍্যা	-13943
▁রেটিং	-13944
▁লোহার	-13945
▁শুনুন	-13946
▁সাধ্য	-13947
▁সাশ্র	-13948
▁সুজিত	-13949
▁সুষ্ঠ	-13950
▁সেলিম	-13951
▁স্পেস	-13952
▁হাউসে	-13953
▁হ্যাম	-13954
বাসীদের	-13955
সংস্কার	-13956
স্টারের	-13957
স্ত্রীর	-13958
▁অনুকূল	-13959
▁অ্যাপে	-13960
▁এবারেও	-13961
▁কনস্টে	-13962
▁কন্যার	-13963
▁গতিবেগ	-13964
▁নাবালক	-13965
▁পুদিনা	-13966
▁বনদপ্ত	-13967
▁বসানোর	-13968
▁বাকিরা	-13969
▁বাটিতে	-13970
▁রঞ্জিত	-13971
▁লড়ছেন	-13972
▁শ্রুতি	-13973
▁সিঁদুর	-13974
▁সীমানা	-13975
▁সেনারা	-13976
▁সৌজন্য	-13977
▁আকস্মিক	-13978
▁আবর্জনা	-13979
▁আশঙ্কার	-13980
▁ইন্দিরা	-13981
▁একত্রিত	-13982
▁খাচ্ছেন	-13983
▁ডিভাইসে	-13984
▁ত্রিপাঠ	-13985
▁নেমেছেন	-13986
▁পঞ্জাবে	-13987
▁প্রশ্নই	-13988
▁ফিচারের	-13989
▁বাঁচানো	-13990
▁বাবুলের	-13991
▁মাঝখানে	-13992
▁মিশ্রিত	-13993
▁রোমাঞ্চ	-13994
▁সস্তায়	-13995
▁সেইসময়	-13996
▁হায়দ্র	-13997
য়েন্টিতে	-13998
▁অস্ত্রের	-13999
▁আইশ্যাডো	-14000
▁উচ্ছ্বাস	-14001
▁ধোঁয়াশা	-14002
▁পাঞ্জাবি	-14003
▁প্রাপ্তি	-14004
▁ফ্লিপকার	-14005
▁বাচ্চারা	-14006
▁বাড়িতেও	-14007
▁মায়াঙ্ক	-14008
▁মালিকানা	-14009
▁শিশুটিকে	-14010
▁সংবর্ধনা	-14011
▁সম্বন্ধে	-14012
▁সাধারণের	-14013
▁হাতছাড়া	-14014
▁আনলিমিটেড	-14015
▁জামাকাপড়	-14016
▁তৃতীয়বার	-14017
▁নেমেছিলেন	-14018
▁মঙ্গলবারই	-14019
▁মাদ্রাসার	-14020
▁শুক্রবারই	-14021
▁সমাজকর্মী	-14022
▁সীমান্তের	-14023
▁গিয়েছিলাম	-14024
▁চালিয়েছিল	-14025
▁পঞ্চায়েতে	-14026
▁সন্দেহভাজন	-14027
▁সুন্দরবনের	-14028
▁আক্রমণাত্মক	-14029
▁কালিয়াগঞ্জ	-14030
▁জনস্বাস্থ্য	-14031
▁পাকিস্তানকে	-14032
▁উপরাষ্ট্রপতি	-14033
▁নির্দেশিকায়	-14034
▁নেদারল্যান্ড	-14035
▁প্রতিবেশীদের	-14036
▁শ্যামাপ্রসাদ	-14037
29	-14038
SK	-14039
অভ	-14040
চন	-14041
দই	-14042
ika	-14043
umb	-14044
ঞ্ছ	-14045
তাপ	-14046
বশত	-14047
▁5.	-14048
▁বক	-14049
hand	-14050
star	-14051
কোনা	-14052
গরিক	-14053
দেরও	-14054
পঞ্চ	-14055
বারই	-14056
মানি	-14057
িকেও	-14058
িশ্র	-14059
িসার	-14060
ুঁটি	-14061
েইলি	-14062
▁Mys	-14063
▁Raj	-14064
▁Web	-14065
▁কনফ	-14066
▁কনে	-14067
▁চিম	-14068
▁দূত	-14069
▁নেক	-14070
▁পটল	-14071
▁বধূ	-14072
▁রাউ	-14073
▁হিউ	-14074
▁১৩০	-14075
hishe	-14076
দিকের	-14077
পার্স	-14078
প্রাণ	-14079
বক্সে	-14080
রক্ষী	-14081
স্তার	-14082
হার্য	-14083
াগরের	-14084
াত্মা	-14085
িয়াও	-14086
▁Mukh	-14087
▁অর্ড	-14088
▁উঠলে	-14089
▁উত্স	-14090
▁উপচে	-14091
▁এটিই	-14092
▁কপূর	-14093
▁কিলো	-14094
▁ঘুমা	-14095
▁জাদু	-14096
▁তৃণা	-14097
▁তৃনম	-14098
▁মনোহ	-14099
▁মূলক	-14100
▁শারদ	-14101
▁শার্	-14102
▁হাথর	-14103
উল্লেখ	-14104
ধ্যক্ষ	-14105
ফেয়ার	-14106
বৃষ্টি	-14107
য়েডের	-14108
সমক্ষে	-14109
স্তব্ধ	-14110
িটিয়ে	-14111
িমিটার	-14112
▁আপত্ত	-14113
▁উপরেও	-14114
▁এইদিন	-14115
▁এএফসি	-14116
▁একনাথ	-14117
▁ওমেগা	-14118
▁ওয়াট	-14119
▁কয়েন	-14120
▁খাঁটি	-14121
▁খেলেই	-14122
▁ঘোষনা	-14123
▁চাইবে	-14124
▁জিটিএ	-14125
▁টানতে	-14126
▁তারতম	-14127
▁দত্তক	-14128
▁নাকের	-14129
▁পুরনি	-14130
▁পেপার	-14131
▁বস্তু	-14132
▁মরশুম	-14133
▁শুদ্ধ	-14134
▁শ্যাল	-14135
▁শ্যুট	-14136
▁সারদা	-14137
▁সাহসী	-14138
▁সেরাম	-14139
▁স্যাট	-14140
মানুষের	-14141
▁Galaxy	-14142
▁Indian	-14143
▁Social	-14144
▁অপরাধে	-14145
▁আপ্লুত	-14146
▁আসেননি	-14147
▁এনফোর্	-14148
▁কুলদীপ	-14149
▁খাতায়	-14150
▁গায়ের	-14151
▁গ্রন্থ	-14152
▁চাইবেন	-14153
▁চাইলেও	-14154
▁ছাড়েন	-14155
▁টেকনিক	-14156
▁ডুয়ার	-14157
▁দুজনকে	-14158
▁নেয়ার	-14159
▁পূরণের	-14160
▁প্যানে	-14161
▁ফায়ার	-14162
▁ফিরবেন	-14163
▁বলেননি	-14164
▁বিদেশী	-14165
▁বেজায়	-14166
▁ভেঙ্কট	-14167
▁মৌসুমে	-14168
▁ম্য়াচ	-14169
▁সিআইডি	-14170
▁সুরাহা	-14171
▁হাউসের	-14172
▁হেলমেট	-14173
▁Ganguly	-14174
▁আশপাশের	-14175
▁এশিয়ান	-14176
▁গড়িয়ে	-14177
▁ঘুমিয়ে	-14178
▁চেয়েছে	-14179
▁পর্বতার	-14180
▁পর্যায়	-14181
▁প্রাণের	-14182
▁ফ্যাক্ট	-14183
▁বাজিয়ে	-14184
▁বিষ্ণুর	-14185
▁বিসর্জন	-14186
▁বেরোনোর	-14187
▁বেশিক্ষ	-14188
▁ব্রেকিং	-14189
▁মাননীয়	-14190
▁যৌথভাবে	-14191
▁লন্ডনের	-14192
▁সংঘাতের	-14193
▁সংসদীয়	-14194
▁সবকিছুই	-14195
▁সাক্ষাত	-14196
▁সুইসাইড	-14197
▁স্বাদের	-14198
▁উপপ্রধান	-14199
▁এরইমধ্যে	-14200
▁কমান্ডার	-14201
▁কৃষ্ণনগর	-14202
▁পরিচর্যা	-14203
▁ফিরছিলেন	-14204
▁বিশ্বাসী	-14205
▁রয়্যালস	-14206
▁শ্রীলেখা	-14207
▁সোভিয়েত	-14208
▁অনুগামীরা	-14209
▁ছাত্রীদের	-14210
▁প্রস্তাবে	-14211
▁বিরুদ্ধেই	-14212
▁বিস্তীর্ণ	-14213
▁ব্যবস্থাও	-14214
tertainment	-14215
▁অনুপ্রেরণা	-14216
▁অলিম্পিকের	-14217
▁আধ্যাত্মিক	-14218
▁গ্রহণযোগ্য	-14219
▁প্রতিবাদের	-14220
▁ক্রিকেটারকে	-14221
▁বঙ্গোপসাগরে	-14222
▁অস্বাস্থ্যকর	-14223
▁অ্যাকাউন্টের	-14224
▁এনফোর্সমেন্ট	-14225
▁দাঁড়িয়েছেন	-14226
▁লক্ষ্যমাত্রা	-14227
▁সেপ্টেম্বরের	-14228
▁মেগাপিক্সেলের	-14229
▁হোয়াটসঅ্যাপের	-14230
23	-14231
75	-14232
=5	-14233
PS	-14234
TA	-14235
নব	-14236
ষম	-14237
▁j	-14238
Ind	-14239
leg	-14240
uja	-14241
কৌশ	-14242
চাম	-14243
টেম	-14244
ফিট	-14245
হিট	-14246
োগে	-14247
্বা	-14248
▁Sc	-14249
▁us	-14250
▁লভ	-14251
epik	-14252
ilip	-14253
ipal	-14254
ixel	-14255
ঘরের	-14256
জুড়	-14257
ঠাসা	-14258
ডাঙা	-14259
পর্ব	-14260
াউনে	-14261
ারেজ	-14262
িউশন	-14263
োটার	-14264
্তুগ	-14265
▁Sar	-14266
▁অরি	-14267
▁আনি	-14268
▁ইসর	-14269
▁উপন	-14270
▁কদম	-14271
▁ঘেঁ	-14272
▁জনে	-14273
▁দিগ	-14274
▁বদহ	-14275
▁মরণ	-14276
▁শিগ	-14277
▁শের	-14278
▁১০১	-14279
গারের	-14280
পাতার	-14281
বাস্ত	-14282
বৃন্দ	-14283
াইজির	-14284
াউনের	-14285
াক্ষণ	-14286
▁আমেজ	-14287
▁আসিফ	-14288
▁ইদান	-14289
▁ঋতুপ	-14290
▁ক্রস	-14291
▁চীনা	-14292
▁দামী	-14293
▁নাকা	-14294
▁পেটি	-14295
▁বাইপ	-14296
▁বেপর	-14297
▁ব‍্য	-14298
▁মৃদু	-14299
▁মেঝে	-14300
▁লিওন	-14301
▁সিএএ	-14302
চ্ছন্দ	-14303
ঞ্জনের	-14304
নিয়ার	-14305
মৃত্যু	-14306
াজ্যের	-14307
াবন্দি	-14308
ুয়ালি	-14309
েন্ডুল	-14310
্বাসের	-14311
▁অঙ্গন	-14312
▁অজন্ত	-14313
▁আগামি	-14314
▁ইস্তে	-14315
▁উপজাত	-14316
▁এএনআই	-14317
▁এদিনই	-14318
▁কমলেও	-14319
▁করাটা	-14320
▁কুয়া	-14321
▁কুর্ন	-14322
▁খুলবে	-14323
▁খেলছে	-14324
▁গোপনা	-14325
▁চিনতে	-14326
▁চেকিং	-14327
▁ছিদ্র	-14328
▁নানার	-14329
▁নামেই	-14330
▁নাসার	-14331
▁পোকাম	-14332
▁বন্ধন	-14333
▁ব্যাস	-14334
▁ভাবছে	-14335
▁মিলতে	-14336
▁মেরুদ	-14337
▁মেলান	-14338
▁শিখতে	-14339
▁শেখের	-14340
▁সহিংস	-14341
▁স্টেপ	-14342
▁হারাল	-14343
Ukraine	-14344
কল্যাণে	-14345
গুলিতেও	-14346
ামন্ত্র	-14347
▁অপেক্ষ	-14348
▁অভিহিত	-14349
▁এন্টার	-14350
▁কাটানো	-14351
▁গল্পের	-14352
▁ঘুমোতে	-14353
▁ছড়াতে	-14354
▁টিকিটে	-14355
▁ঢেউয়ে	-14356
▁দ্বিধা	-14357
▁নামবেন	-14358
▁নারীকে	-14359
▁পাঁচজন	-14360
▁পাইয়ে	-14361
▁পিস্তল	-14362
▁ফোনটির	-14363
▁ভয়ানক	-14364
▁মধ্য়ে	-14365
▁মাঝপথে	-14366
▁মিলনের	-14367
▁লাইনের	-14368
▁শুনেছি	-14369
▁শেষবার	-14370
▁হারবার	-14371
▁Mysepik	-14372
▁Webdesk	-14373
▁আধিপত্য	-14374
▁আনন্দিত	-14375
▁উত্তোলন	-14376
▁এনার্জি	-14377
▁খাদ্যের	-14378
▁খুলেছেন	-14379
▁গিয়েছি	-14380
▁চড়িয়ে	-14381
▁ছিটিয়ে	-14382
▁জাহ্নবী	-14383
▁ট্রাকের	-14384
▁থামিয়ে	-14385
▁নিলামের	-14386
▁পক্ষপাত	-14387
▁পঞ্চমুখ	-14388
▁পরিমানে	-14389
▁পার্কিং	-14390
▁প্রহ্লা	-14391
▁ফোলাভাব	-14392
▁বাড়লেও	-14393
▁বাতাসের	-14394
▁বিদায়ী	-14395
▁ভর্তুকি	-14396
▁মরসুমের	-14397
▁মিটারের	-14398
▁মিত্রের	-14399
▁মেটানোর	-14400
▁ম্যাগাজ	-14401
▁লেগেছিল	-14402
▁সমাবেশে	-14403
▁সারিয়ে	-14404
▁স্টাম্প	-14405
▁স্টার্ট	-14406
▁ইন্দোনেশ	-14407
▁জীবনযাপন	-14408
▁টাইটান্স	-14409
▁দাঁড়ানো	-14410
▁দীপাবলির	-14411
▁দেশবাসীর	-14412
▁পৌঁছানোর	-14413
▁প্রশংসিত	-14414
▁বিভাগীয়	-14415
▁বেলেঘাটা	-14416
▁বেশিক্ষণ	-14417
▁ব্যারিকে	-14418
▁মানুষটির	-14419
▁শিক্ষাগত	-14420
▁সংগ্রহের	-14421
▁স্টোরিতে	-14422
▁খেলেছিলেন	-14423
▁জেলেনস্কি	-14424
▁ট্যুইটারে	-14425
▁তালিবানরা	-14426
▁দারুণভাবে	-14427
▁নিকটবর্তী	-14428
▁নেতৃত্বকে	-14429
▁পরিশ্রমের	-14430
▁মজুমদারের	-14431
▁রাজধানীতে	-14432
▁সিগারেটের	-14433
▁বিশেষজ্ঞের	-14434
▁যাতায়াতের	-14435
▁যুদ্ধজাহাজ	-14436
▁আর্জেন্টিনা	-14437
▁পরীক্ষামূলক	-14438
▁পর্যবেক্ষণে	-14439
▁প্রকৃতপক্ষে	-14440
▁ফেব্রুয়ারী	-14441
▁ব্যবসায়ীকে	-14442
▁ভলেন্টিয়ার	-14443
▁রামপুরহাটের	-14444
▁সংস্থাগুলির	-14445
▁সতর্কতামূলক	-14446
▁Entertainment	-14447
▁দর্শনার্থীদের	-14448
▁কোয়ারেন্টাইনে	-14449
25	-14450
40	-14451
Ab	-14452
gn	-14453
িভ	-14454
৪১	-14455
৫১	-14456
▁—	-14457
gov	-14458
ock	-14459
কলি	-14460
খাল	-14461
ডোর	-14462
ত্ম	-14463
থিত	-14464
ভিড	-14465
মীর	-14466
মুহ	-14467
মোন	-14468
র্স	-14469
ষয়	-14470
াবী	-14471
াহে	-14472
ুজব	-14473
োবর	-14474
্জি	-14475
▁6.	-14476
▁ওল	-14477
▁শৃ	-14478
arat	-14479
http	-14480
ical	-14481
উতোর	-14482
জেলা	-14483
প্রদ	-14484
বেরি	-14485
ভবান	-14486
মনির	-14487
রুমে	-14488
ষ্ণু	-14489
ুনাথ	-14490
োগুণ	-14491
ৌকিক	-14492
▁KKR	-14493
▁আজম	-14494
▁ইলা	-14495
▁উমা	-14496
▁ঋতু	-14497
▁ঋষি	-14498
▁টির	-14499
▁ডবল	-14500
▁দাও	-14501
▁দেগ	-14502
▁পরো	-14503
▁বসা	-14504
▁লোন	-14505
▁সৌর	-14506
▁স্য	-14507
▁হিড	-14508
▁হেম	-14509
ক্তার	-14510
ত্রের	-14511
ন্তীর	-14512
শুক্র	-14513
স্তাধ	-14514
হাবাদ	-14515
হারের	-14516
াজিতা	-14517
াপত্ত	-14518
ালয়ে	-14519
িক্সা	-14520
্যালি	-14521
▁Flip	-14522
▁আদান	-14523
▁ওঁরা	-14524
▁কমার	-14525
▁কোণে	-14526
▁খাতা	-14527
▁জেডি	-14528
▁জোরক	-14529
▁দামও	-14530
▁দারি	-14531
▁পুড়	-14532
▁পেশি	-14533
▁বাধে	-14534
▁বারণ	-14535
▁বিএন	-14536
▁বিষণ	-14537
▁ভেজে	-14538
▁মহাল	-14539
▁লালু	-14540
▁শরবত	-14541
▁শস্য	-14542
▁শিখা	-14543
▁স্থল	-14544
▁১৩টি	-14545
▁২০টি	-14546
hishek	-14547
কারীকে	-14548
ডাঙ্গা	-14549
প্রচার	-14550
বর্তিত	-14551
সুন্দর	-14552
িপাড়া	-14553
িয়ালি	-14554
▁Death	-14555
▁Kohli	-14556
▁অপূর্	-14557
▁অর্পণ	-14558
▁ক্ষুদ	-14559
▁চালের	-14560
▁ছিন্ন	-14561
▁জায়ে	-14562
▁জ্যাভ	-14563
▁টাস্ক	-14564
▁টোটকা	-14565
▁দেখবে	-14566
▁দেহটি	-14567
▁ধনখড়	-14568
▁ধরলেন	-14569
▁নিষ্প	-14570
▁পুষ্প	-14571
▁পৌঁছন	-14572
▁প্লাজ	-14573
▁ফেলছে	-14574
▁বলতেন	-14575
▁মহকুম	-14576
▁মিলিত	-14577
▁মেন্ট	-14578
▁মেসির	-14579
▁যেতেন	-14580
▁রঞ্জি	-14581
▁লাখের	-14582
▁শয্যা	-14583
▁শিবের	-14584
▁শ্লীল	-14585
▁সাম্র	-14586
▁সুশীল	-14587
▁সৃজিত	-14588
▁স্পিন	-14589
কাণ্ডের	-14590
বিজেপির	-14591
▁আঙ্গুল	-14592
▁আরজেডি	-14593
▁ইলেভেন	-14594
▁এমনিতে	-14595
▁এসএমএস	-14596
▁কেলেঙ্	-14597
▁খ্যাতি	-14598
▁গুপ্তা	-14599
▁ছত্রধর	-14600
▁টিভিতে	-14601
▁ডেঙ্গু	-14602
▁পর্তুগ	-14603
▁প্রতাপ	-14604
▁প্রবাহ	-14605
▁ফ্লাইট	-14606
▁বংনিউজ	-14607
▁বয়সেই	-14608
▁মণ্ডপে	-14609
▁মেটাবল	-14610
▁সংঘটিত	-14611
▁সাগরের	-14612
▁সিউড়ি	-14613
▁সেইমতো	-14614
প্রসঙ্গত	-14615
বার্ষিকী	-14616
্যান্টিক	-14617
▁অন্তর্ব	-14618
▁অ্যাঞ্জ	-14619
▁আন্দ্রে	-14620
▁উন্মোচন	-14621
▁এসডিপিও	-14622
▁কুর্নিশ	-14623
▁ক্ষোভের	-14624
▁খারাপের	-14625
▁জঙ্গলের	-14626
▁পৌঁছাতে	-14627
▁প্রাপ্য	-14628
▁ফেরানোর	-14629
▁বাথরুমে	-14630
▁মানুষরা	-14631
▁ম্যাচেও	-14632
▁শাকসবজি	-14633
▁সদস্যপদ	-14634
▁সিদ্ধিব	-14635
▁সীতারাম	-14636
▁সেনাদের	-14637
জাতিকাদের	-14638
▁অনায়াসে	-14639
▁অপেক্ষার	-14640
▁অসুবিধার	-14641
▁ইব্রাহিম	-14642
▁কড়াকড়ি	-14643
▁কাগজপত্র	-14644
▁গৃহবন্দি	-14645
▁ছেড়েছেন	-14646
▁ঝাড়খণ্ড	-14647
▁তালিবানি	-14648
▁দেশগুলির	-14649
▁নেওয়ায়	-14650
▁প্রদানের	-14651
▁প্রোফাইল	-14652
▁ফলস্বরূপ	-14653
▁ফেডারেশন	-14654
▁বয়সীদের	-14655
▁বসেছিলেন	-14656
▁বেপরোয়া	-14657
▁ম্যাঞ্চে	-14658
▁রথযাত্রা	-14659
▁রবিবারের	-14660
▁রাজ্যসভা	-14661
▁শাহরুখের	-14662
▁শিক্ষকরা	-14663
▁শিল্পীরা	-14664
▁সংস্থায়	-14665
▁সাবধানতা	-14666
▁সিস্টেমে	-14667
▁স্বাক্ষর	-14668
▁অপরিহার্য	-14669
▁অফিশিয়াল	-14670
▁আরিয়ানের	-14671
▁এব্যাপারে	-14672
▁দাঁড়ালেন	-14673
▁নৌবাহিনীর	-14674
▁প্রতিফলিত	-14675
▁প্রামাণিক	-14676
▁ব্রাজিলের	-14677
▁মিউজিয়াম	-14678
▁সংবিধানের	-14679
▁সন্দেহজনক	-14680
▁সহায়তায়	-14681
▁হস্তান্তর	-14682
▁উত্‍পাদনের	-14683
▁ক্যামেরায়	-14684
▁জানুয়ারির	-14685
▁দিব্যেন্দু	-14686
▁প্রত্যেককে	-14687
▁প্রস্তুতির	-14688
▁ফিনল্যান্ড	-14689
▁বাস্তবায়ন	-14690
▁মোটরসাইকেল	-14691
▁রবিচন্দ্রন	-14692
▁রাজ্যগুলির	-14693
▁রাজ্যপালকে	-14694
▁সাংবাদিকের	-14695
▁স্বেচ্ছায়	-14696
▁অন্তর্বর্তী	-14697
▁ওয়ার্নারের	-14698
▁কোভ্যাক্সিন	-14699
▁প্রস্তুতকার	-14700
▁বেঙ্গালুরুর	-14701
▁মন্ত্রণালয়	-14702
▁সুস্বাস্থ্য	-14703
▁স্মার্টওয়া	-14704
▁ক্যারিবিয়ান	-14705
▁জলপাইগুড়িতে	-14706
▁ফেব্রুয়ারিতে	-14707
▁বিক্ষোভকারীরা	-14708
▁ম্যাজিস্ট্রেট	-14709
▁অস্ট্রেলিয়ায়	-14710
15	-14711
AS	-14712
St	-14713
pr	-14714
এত	-14715
গী	-14716
মদ	-14717
!''	-14718
omi	-14719
rah	-14720
ডাঙ	-14721
দাই	-14722
ধাক	-14723
যখন	-14724
সিপ	-14725
াশে	-14726
▁AI	-14727
▁Le	-14728
▁রঘ	-14729
▁রড	-14730
▁৯১	-14731
agan	-14732
elhi	-14733
ohit	-14734
reak	-14735
চিনি	-14736
দস্ত	-14737
ন্তু	-14738
শুধু	-14739
েশের	-14740
্টেজ	-14741
▁Bud	-14742
▁Mal	-14743
▁অন্	-14744
▁ইমে	-14745
▁কপি	-14746
▁দিও	-14747
▁দিশ	-14748
▁ধোঁ	-14749
▁পজে	-14750
▁পবন	-14751
▁পাদ	-14752
▁পিং	-14753
▁ফলন	-14754
▁ভিউ	-14755
▁ভূখ	-14756
▁ষাঁ	-14757
▁৯টি	-14758
enter	-14759
কর্তা	-14760
গার্ড	-14761
ছিয়ে	-14762
ভঙ্গি	-14763
মানার	-14764
মান্ড	-14765
রাস্ত	-14766
রিটির	-14767
সরকার	-14768
াহারে	-14769
িত্‍স	-14770
িয়েল	-14771
▁আঁকা	-14772
▁এতেই	-14773
▁এসেন	-14774
▁খুদে	-14775
▁গঠনে	-14776
▁জোটে	-14777
▁টুপি	-14778
▁টেলর	-14779
▁দেগে	-14780
▁পটাস	-14781
▁পথের	-14782
▁ফিরল	-14783
▁বাদল	-14784
▁বাবদ	-14785
▁বিটা	-14786
▁বেগম	-14787
▁ভাদু	-14788
▁ভেষজ	-14789
▁মেটা	-14790
▁লগ্ন	-14791
▁হদিস	-14792
ission	-14793
ক্ষণিক	-14794
ডমিন্ট	-14795
পরিচয়	-14796
ামেন্ট	-14797
িয়েশন	-14798
্যাঙ্ক	-14799
▁COVID	-14800
▁Singh	-14801
▁Today	-14802
▁অর্ণব	-14803
▁অর্থে	-14804
▁আইএএস	-14805
▁আত্মা	-14806
▁উঠলেন	-14807
▁উপদ্র	-14808
▁কক্ষে	-14809
▁কিউয়	-14810
▁কোনটি	-14811
▁ক্রুজ	-14812
▁খোলসা	-14813
▁গণনার	-14814
▁গাঁধী	-14815
▁টক্কর	-14816
▁ট্যাগ	-14817
▁দেখছি	-14818
▁ধেয়ে	-14819
▁নিভৃত	-14820
▁পাতলা	-14821
▁পেলাম	-14822
▁বর্মণ	-14823
▁বাধার	-14824
▁ভাবুন	-14825
▁ভেবেই	-14826
▁মডেলে	-14827
▁রাজের	-14828
▁লাইভে	-14829
▁লোককে	-14830
▁শিউলি	-14831
▁শিশুক	-14832
▁সংকটে	-14833
▁সংক্ষ	-14834
▁সামলা	-14835
▁সোসাই	-14836
ওয়ালার	-14837
মিক্যাল	-14838
▁অভাবের	-14839
▁উদ্ভিদ	-14840
▁কমান্ড	-14841
▁খেলছেন	-14842
▁তাঁকেই	-14843
▁দেখলেই	-14844
▁নামকরণ	-14845
▁পজেটিভ	-14846
▁পারায়	-14847
▁পেশাগত	-14848
▁প্রীতম	-14849
▁বসেছিল	-14850
▁মসজিদে	-14851
▁মুরগির	-14852
▁যুবতীর	-14853
▁শাসনের	-14854
▁শোয়েব	-14855
▁সকলকেই	-14856
▁সহকারে	-14857
▁সিনহার	-14858
▁সুবর্ণ	-14859
▁সেটিকে	-14860
▁হেডফোন	-14861
বৃহস্পতি	-14862
▁details	-14863
▁অবশিষ্ট	-14864
▁অসম্মান	-14865
▁আনাগোনা	-14866
▁আশঙ্কাও	-14867
▁উপন্যাস	-14868
▁গণমাধ্য	-14869
▁গাঙ্গুল	-14870
▁জাতিসংঘ	-14871
▁ডিওয়াই	-14872
▁তারিখের	-14873
▁পরগণায়	-14874
▁প্রণালী	-14875
▁ফাঁড়ির	-14876
▁বহরমপুর	-14877
▁বারাসাত	-14878
▁বিকেলের	-14879
▁বিস্মিত	-14880
▁বেশিদিন	-14881
▁বৈচিত্র	-14882
▁ব্রাঞ্চ	-14883
▁মণ্ডলকে	-14884
▁মহামারি	-14885
▁মাতৃত্ব	-14886
▁মিশ্রের	-14887
▁মুলতানি	-14888
▁রক্তক্ষ	-14889
▁সমৃদ্ধি	-14890
▁সাংসদকে	-14891
▁সুস্থতা	-14892
▁হলদিয়া	-14893
যাত্রীদের	-14894
ার্টমেন্ট	-14895
▁অন্যথায়	-14896
▁কাঁঠালের	-14897
▁ট্যাক্সি	-14898
▁ড্রাইভার	-14899
▁তোড়জোড়	-14900
▁নিশানায়	-14901
▁পোস্টারে	-14902
▁বিএসএফের	-14903
▁রয়টার্স	-14904
▁সারাক্ষণ	-14905
▁সিবিআইকে	-14906
▁todaynews	-14907
▁অবস্থাতেই	-14908
▁এলাকাবাসী	-14909
▁পরিচ্ছন্ন	-14910
▁পান্ডিয়া	-14911
▁প্রাঙ্গণে	-14912
▁মুসলিমদের	-14913
▁সেন্টারের	-14914
▁অবিশ্বাস্য	-14915
▁অ্যাডভোকেট	-14916
▁ব্যাডমিন্ট	-14917
▁মাওবাদীদের	-14918
▁মাহিন্দ্রা	-14919
▁উত্তরাখণ্ডে	-14920
▁প্লাস্টিকের	-14921
▁রোম্যান্টিক	-14922
▁যুদ্ধবিমানের	-14923
AI	-14924
NE	-14925
PA	-14926
__	-14927
cl	-14928
ug	-14929
-20	-14930
ary	-14931
ati	-14932
her	-14933
ise	-14934
tel	-14935
ush	-14936
আগে	-14937
দুই	-14938
বনি	-14939
সিল	-14940
ুশি	-14941
োদর	-14942
োভন	-14943
১০০	-14944
▁2/	-14945
▁4/	-14946
▁Sa	-14947
▁ঔষ	-14948
▁চপ	-14949
▁নও	-14950
unia	-14951
কোনও	-14952
চেতন	-14953
শেখর	-14954
িনেট	-14955
ুপ্ত	-14956
▁Moh	-14957
▁Par	-14958
▁Sim	-14959
▁এবছ	-14960
▁খতি	-14961
▁ঘৃণ	-14962
▁চিং	-14963
▁জাক	-14964
▁জুত	-14965
▁জুস	-14966
▁ডিট	-14967
▁ঢোক	-14968
▁তাহ	-14969
▁নেভ	-14970
▁ফিগ	-14971
▁বরণ	-14972
▁বরদ	-14973
▁শিন	-14974
▁সমঝ	-14975
▁১২৬	-14976
usrat	-14977
করণের	-14978
কারণে	-14979
কার্য	-14980
ছাত্র	-14981
জোড়া	-14982
টিক্স	-14983
ন্ময়	-14984
ন্সের	-14985
বিজ্ঞ	-14986
রণীয়	-14987
স্কোপ	-14988
ুজোয়	-14989
ুম্পা	-14990
‍্যাল	-14991
▁with	-14992
▁আজাদ	-14993
▁আদমি	-14994
▁উঠলো	-14995
▁ঋণের	-14996
▁একাক	-14997
▁এমনি	-14998
▁কোপা	-14999
▁খরচে	-15000
▁গোনা	-15001
▁গ্লা	-15002
▁জনিত	-15003
▁জমতে	-15004
▁ঠেকে	-15005
▁ডাইন	-15006
▁তিলক	-15007
▁ধর্ষ	-15008
▁নিরী	-15009
▁পরনে	-15010
▁পরিত	-15011
▁বিঁধ	-15012
▁রাফা	-15013
▁রোধে	-15014
▁সিএন	-15015
▁হারও	-15016
রিয়ার	-15017
সঙ্গের	-15018
ান্তেই	-15019
ান্তের	-15020
াবলম্ব	-15021
িত্রিক	-15022
▁অচেনা	-15023
▁অজস্র	-15024
▁অনন্ত	-15025
▁আজীবন	-15026
▁ওজনের	-15027
▁কামড়	-15028
▁কুণ্ড	-15029
▁কোন্দ	-15030
▁খুঁটি	-15031
▁খেজুর	-15032
▁খেলেও	-15033
▁গেস্ট	-15034
▁গ্লুক	-15035
▁ঘটাতে	-15036
▁ঘোড়া	-15037
▁চকচকে	-15038
▁চাঁদে	-15039
▁চাহার	-15040
▁জন্মা	-15041
▁জিতবে	-15042
▁জিন্স	-15043
▁টিজার	-15044
▁টোনার	-15045
▁তুফান	-15046
▁দাঁতে	-15047
▁দিকটি	-15048
▁দিকের	-15049
▁দেশটি	-15050
▁নাসির	-15051
▁নোয়া	-15052
▁পরগণা	-15053
▁পার্স	-15054
▁পোষ্য	-15055
▁বিরাজ	-15056
▁ভুলেও	-15057
▁মহড়া	-15058
▁মিচেল	-15059
▁মুনাফ	-15060
▁সুদূর	-15061
▁হার্ড	-15062
▁অযোগ্য	-15063
▁উচ্চার	-15064
▁উপযোগী	-15065
▁কনভয়ে	-15066
▁কমাতেও	-15067
▁কাঠামো	-15068
▁কারণেও	-15069
▁গোলমাল	-15070
▁চব্বিশ	-15071
▁ছাড়ছে	-15072
▁জামিনে	-15073
▁টয়লেট	-15074
▁ট্র্যা	-15075
▁দিল্লী	-15076
▁নির্মম	-15077
▁পিছনের	-15078
▁প্রণাম	-15079
▁প্রমোদ	-15080
▁ফেরানো	-15081
▁বস্তুত	-15082
▁বাঁচাও	-15083
▁বৃদ্ধা	-15084
▁ভারতেও	-15085
▁ভার্সন	-15086
▁ভ্রমণে	-15087
▁মেরামত	-15088
▁মৌসুমী	-15089
▁রামনাথ	-15090
▁লাগলেও	-15091
▁সংগঠিত	-15092
▁সুদীপা	-15093
▁হাল্কা	-15094
প্রতিক্র	-15095
্যাম্পেল	-15096
▁Updated	-15097
▁ইভেন্টে	-15098
▁উদয়পুর	-15099
▁ওয়াসিম	-15100
▁ছোটখাটো	-15101
▁জোরকদমে	-15102
▁তারতম্য	-15103
▁নথিপত্র	-15104
▁নানারকম	-15105
▁পদ্ধতির	-15106
▁পশ্চিমা	-15107
▁পাউরুটি	-15108
▁পাকড়াও	-15109
▁প্রযোজন	-15110
▁ফিল্ডিং	-15111
▁বানাবেন	-15112
▁মহাত্মা	-15113
▁মুখিয়ে	-15114
▁যত্নশীল	-15115
▁রেঞ্জের	-15116
▁শুভঙ্কর	-15117
▁শোভনদেব	-15118
▁স্ট্রিম	-15119
▁হেনস্থা	-15120
▁অনিয়মিত	-15121
▁অনুশীলনে	-15122
▁অর্পিতার	-15123
▁অ্যাকাডে	-15124
▁আইএসএলের	-15125
▁উপাদানের	-15126
▁কয়েকমাস	-15127
▁ক্রিয়াক	-15128
▁চিড়িয়া	-15129
▁জঙ্গিপুর	-15130
▁নাগরিকরা	-15131
▁পৌঁছেছেন	-15132
▁বার্ধক্য	-15133
▁মহামারির	-15134
▁মামলাকার	-15135
▁মার্কেটে	-15136
▁রান্নাঘর	-15137
▁লালবাজার	-15138
▁শনিবারের	-15139
▁শূন্যপদে	-15140
▁শেষকৃত্য	-15141
▁সম্মানিত	-15142
▁সায়ন্তন	-15143
কেন্দ্রীয়	-15144
▁Mukherjee	-15145
▁অ্যাক্সেস	-15146
▁আগামীদিনে	-15147
▁উপত্যকায়	-15148
▁কয়েকজনের	-15149
▁চাপানউতোর	-15150
▁জনসংখ্যার	-15151
▁নজিরবিহীন	-15152
▁বসবাসকারী	-15153
▁বিস্ময়কর	-15154
▁রণক্ষেত্র	-15155
▁রথযাত্রার	-15156
▁সংক্ষিপ্ত	-15157
চ্যাম্পিয়ন	-15158
▁আনন্দবাজার	-15159
▁ভ্রমণকালীন	-15160
▁শিক্ষানীতি	-15161
▁সন্ত্রাসের	-15162
▁সাধুসঙ্গের	-15163
▁অ্যাসিডিটির	-15164
▁প্রেক্ষাপটে	-15165
▁প্রতিযোগিতার	-15166
▁প্রেক্ষাগৃহে	-15167
▁বৃহস্পতিবারই	-15168
▁বেঙ্গালুরুতে	-15169
▁সম্পূর্ণভাবে	-15170
▁সম্পূর্ণরূপে	-15171
▁সাক্ষাত্‍কার	-15172
▁প্রতিকারগুলিই	-15173
%।	-15174
pa	-15175
tm	-15176
।)	-15177
অপ	-15178
অব	-15179
ইং	-15180
দশ	-15181
পক	-15182
লন	-15183
েদ	-15184
ৈক	-15185
ank	-15186
ini	-15187
ond	-15188
ual	-15189
চেন	-15190
ধীর	-15191
নাদ	-15192
পাহ	-15193
বাত	-15194
মেই	-15195
হতি	-15196
ূপে	-15197
্থা	-15198
্মা	-15199
্লু	-15200
▁1/	-15201
▁3/	-15202
▁||	-15203
▁উট	-15204
▁জব	-15205
isis	-15206
kart	-15207
outh	-15208
unic	-15209
গর্ভ	-15210
চারী	-15211
পাঁচ	-15212
পাতি	-15213
র্ষি	-15214
সেলস	-15215
স্যু	-15216
িপ্র	-15217
োজেন	-15218
্কেল	-15219
▁Dev	-15220
▁all	-15221
▁www	-15222
▁আঁশ	-15223
▁ইটা	-15224
▁একঘ	-15225
▁খনন	-15226
▁চিট	-15227
▁জনই	-15228
▁জ্য	-15229
▁ডেট	-15230
▁পীয	-15231
▁শাঁ	-15232
etrol	-15233
https	-15234
umbai	-15235
গ্যাস	-15236
চাড়া	-15237
দর্শী	-15238
বস্তু	-15239
বাসের	-15240
বিরতি	-15241
মিশ্র	-15242
শানের	-15243
সময়ে	-15244
সিদ্ধ	-15245
স্টিভ	-15246
াগিরি	-15247
ালায়	-15248
ুইয়ে	-15249
্তায়	-15250
্লায়	-15251
▁Tips	-15252
▁অনাথ	-15253
▁অসুর	-15254
▁এমএস	-15255
▁এসেই	-15256
▁কাপে	-15257
▁কাশী	-15258
▁থাইল	-15259
▁পিকে	-15260
▁পোহা	-15261
▁প্রব	-15262
▁ফাঁক	-15263
▁বিলে	-15264
▁শংকর	-15265
▁সেনস	-15266
▁হবিব	-15267
▁হরিশ	-15268
▁হিরণ	-15269
▁৫০০০	-15270
অভিযোগ	-15271
পিসিআর	-15272
বিহারী	-15273
মুম্বই	-15274
সেখানে	-15275
িত্বের	-15276
োর্টিং	-15277
▁অ্যাভ	-15278
▁আকাশি	-15279
▁ইনসুল	-15280
▁উভয়ই	-15281
▁উস্কে	-15282
▁এদিনও	-15283
▁করতাম	-15284
▁কিষান	-15285
▁কুস্ত	-15286
▁ক্রোধ	-15287
▁গ্রিল	-15288
▁চক্ষু	-15289
▁চেনেন	-15290
▁ট্যান	-15291
▁ট্রেড	-15292
▁ডলারে	-15293
▁ড্যান	-15294
▁ততদিন	-15295
▁তাপসী	-15296
▁তোলাব	-15297
▁থার্ড	-15298
▁দাসকে	-15299
▁প্রমো	-15300
▁প্রসব	-15301
▁বম্বে	-15302
▁বয়কট	-15303
▁বসবেন	-15304
▁বারাণ	-15305
▁ব্লিচ	-15306
▁মারেন	-15307
▁শিন্ড	-15308
▁শুভ্র	-15309
▁সংলাপ	-15310
▁সঞ্জু	-15311
▁সমাগম	-15312
▁স্প্র	-15313
▁স্লিপ	-15314
ন্ত্রের	-15315
পুঞ্জের	-15316
ফ্রেন্ড	-15317
বিক্ষোভ	-15318
[...]
